[PAD]
[UNK]
[CLS]
[SEP]
[MASK]
,
-
0
1
2
3
4
5
6
7
8
9
_
d
e
o
p
s
t
x
·
ᄀ
ᄁ
ᄂ
ᄃ
ᄄ
ᄅ
ᄆ
ᄇ
ᄈ
ᄉ
ᄊ
ᄋ
ᄌ
ᄍ
ᄎ
ᄏ
ᄐ
ᄑ
ᄒ
ᅡ
ᅢ
ᅣ
ᅤ
ᅥ
ᅦ
ᅧ
ᅨ
ᅩ
ᅪ
ᅫ
ᅬ
ᅭ
ᅮ
ᅯ
ᅰ
ᅱ
ᅲ
ᅳ
ᅴ
ᅵ
ᆨ
ᆩ
ᆪ
ᆫ
ᆬ
ᆭ
ᆮ
ᆯ
ᆰ
ᆱ
ᆲ
ᆳ
ᆴ
ᆶ
ᆷ
ᆸ
ᆹ
ᆺ
ᆻ
ᆼ
ᆽ
ᆾ
ᆿ
ᇀ
ᇁ
ᇂ
ㄱ
ㄴ
ㄷ
ㄹ
ㅁ
ㅂ
ㅅ
ㅈ
ㅣ
丁
上
下
不
世
丘
丙
中
主
之
乘
乙
亂
事
井
京
人
仁
他
仙
代
令
任
企
伊
位
低
佛
作
使
俊
保
信
倍
倭
傳
傷
價
償
優
元
兄
先
光
兌
入
內
全
兩
兪
公
共
兵
具
冠
冷
凰
出
分
初
判
利
到
前
創
劉
劍
力
功
加
助
勇
動
務
勝
勞
募
勢
勳
化
北
匠
區
半
卒
卓
協
南
博
卞
占
卨
印
却
卷
卿
原
友
反
受
口
古
史
右
司
合
吉
同
名
向
君
否
吳
呂
周
命
和
咸
品
員
哲
商
問
善
喜
嚴
回
因
圈
國
圓
土
在
圭
地
均
坤
城
基
堂
堅
報
場
塤
增
墨
壁
壎
壕
士
壽
夏
外
夜
大
天
太
夫
失
奇
奉
奎
女
好
如
姜
婚
子
孔
字
存
孝
孟
孫
學
守
安
宋
完
宗
官
定
宣
室
宰
家
容
寅
富
寒
實
寶
射
將
專
對
導
小
尙
尹
尼
尾
屬
山
岸
崔
州
工
左
巨
差
巳
市
帝
師
席
常
幕
干
平
年
幸
幹
床
庚
度
康
式
弔
張
强
弼
彬
役
往
律
後
徐
得
復
德
心
必
志
忠
怠
性
怨
怪
恒
恨
患
悲
情
惡
想
愛
感
慧
慶
應
成
戰
房
手
打
承
持
指
揆
揚
換
擴
支
收
改
政
敎
敗
敦
敵
數
文
斗
料
新
斷
方
施
族
旗
日
旭
昇
昌
明
易
星
春
時
景
智
暗
曉
更
書
曺
最
會
月
有
朋
期
木
未
本
朱
朴
李
村
杓
杜
東
林
柱
柳
株
核
根
格
案
梁
棒
楊
業
榮
樂
標
樹
機
檢
權
歡
正
步
武
歸
死
殷
殺
母
毒
比
氏
民
氣
水
永
江
池
汽
沈
河
油
治
沼
法
泰
泳
洋
洗
洙
洪
活
派
海
消
淳
淸
減
湖
準
溫
滿
漁
漢
漸
潘
潤
澤
濕
濟
濠
灌
火
災
烈
無
然
熙
熱
燒
營
爭
爲
父
牛
狂
獨
玄
玉
王
珪
現
球
理
璧
生
産
用
田
甲
申
男
界
異
當
病
癌
癸
發
白
益
盧
直
相
省
眞
知
石
破
硏
碩
礎
社
祖
祝
神
票
禁
禍
福
禹
秀
私
秋
科
租
移
稅
程
種
究
空
立
章
童
競
竹
筆
等
箕
節
精
約
純
紙
結
統
經
網
線
縣
繁
續
罪
羅
羊
美
義
羽
翰
翼
者
聖
聯
聲
職
肝
脈
脫
臣
自
至
臺
與
興
舊
舌
舜
船
良
色
芮
花
苦
英
范
茶
草
華
萬
董
蔡
蔣
薛
薰
藥
蘇
蘭
虎
虛
號
血
行
衣
表
裵
西
規
視
親
觀
言
訓
訪
許
訴
試
詩
認
語
說
談
謝
謹
證
警
讀
讚
貞
財
販
責
貰
賃
資
賓
賞
質
贊
赤
起
趙
車
軍
輸
轉
辛
辰
農
迎
逆
通
速
造
連
週
進
運
道
遠
選
邊
邦
郡
部
郭
都
鄭
配
采
里
重
野
量
金
銀
銅
鋼
錢
錫
鍵
鍾
鎭
鐘
鐵
鐸
長
門
開
閔
關
防
阿
院
陰
陳
雄
難
雨
雪
雲
電
震
靑
靜
非
鞠
韓
音
順
領
頭
題
顧
顯
風
飛
食
香
馬
驕
驛
高
魔
魚
鳳
鶴
鹿
黃
黑
黨
龍
##0
##2
##1
##7
##5
##9
##6
##4
##8
##ᅡ
##ᆨ
##ᄉ
##ᅮ
##ᆫ
##ᄋ
##ᅧ
##ᆼ
##3
##ᅥ
##ᆷ
##ᆯ
##ᅵ
##ᄌ
##ᅢ
##ᅲ
##ᄑ
##ᅳ
##ᄀ
##ᄃ
##ᄐ
##ᅦ
##ᄇ
##ᅩ
##ᄅ
##ᄎ
##ᄂ
##ᄆ
##ᄏ
##ᄒ
##ᅯ
##ᆺ
##ᅬ
##ᅴ
##ᅣ
##ᅪ
##ᅭ
##ᆸ
##ᆹ
##ᄁ
##ᆰ
##ᅱ
##ᅨ
##ᆽ
##ᅫ
##ᆾ
##ᇁ
##ᄈ
##ᆲ
##ᄄ
##ᄊ
##ᇀ
##ᆮ
##ᄍ
##ᅰ
##ᆪ
##ᆿ
##ᅤ
##ᆱ
##ᆩ
##ᇂ
##ᆶ
##ᆴ
##ᆬ
##e
##x
##t
##o
##p
##d
##ᆻ
##ᆳ
##ᆭ
##ᅡᆼ
##ᅡᆫ
##ᅥᆫ
##ᅥᆼ
##이
##ᅩᆼ
##ᅳᆼ
이
##ᅧᆼ
##ᅮᆫ
사
##ᅧᆫ
##자
##ᅥᆸ
시
기
##시
##ᅮᆨ
주
##장
##ᅥᆨ
지
##스
##ᅡᆯ
##ᆷᄉ
##ᅩᆨ
거
전
##ᅮᆯ
##ᅡᆨ
##기
##ᆷ성
##ᅯᆫ
삼성
##업
##리
##지
##가
수
##전
##ᅩᆫ
##ᅪᆫ
##국
등
##ᅧᆨ
것
##그
대
상
##ᅢᆼ
그
가
##대
##요
##ᅥᆯ
##수
##트
##인
##사
##ᆯᄅ
중
##도
##정
삼성전
##상
##ᅥᆷ
삼성전자
##ᅢᆨ
부
##ᅣᆼ
경
제
개
##원
억
하
##계
조
만
매
##비
##체
화
##화
##유
공
##주
##세
##용
업
분
##회
##드
증
시장
##ᅮᆷ
##래
유
##제
자
최
연
##ᅧᆯ
인
정
##ᅡ이
미
오
국
스
관
##ᅡᆷ
소
##문
반
세
##해
##품
투
##부
실
##동
코
##ᅦ이
회
기업
장
##프
##산
한
##치
##력
투자
고
##구
선
##고
현
##승
##권
##ᅣᆨ
영
##피
비
##적
##매
##신
예
##락
##마
외
##식
일
보
상승
##조
##미
구
종
##폰
##익
##재
모
##출
프
##모
##표
코스
출
위
##ᅡᆸ
##금
##ᅳᆨ
##목
##행
우
##소
성
신
##ᅳᆷ
분기
##영
##내
거래
서
##반
발
##진
추
강
동
금
##능
말
##관
##로
포
내
##마트
##일
##격
##위
확
##성
마
##터
스마트
##과
##우
##종
지수
의
하락
##후
##선
##망
과
차
외국
##날
판
##니
##어
##난
##차
방
통
사업
계
##보
한국
##준
##공
##량
실적
배
##명
##안
디
##속
매수
때
국내
지난
미국
전자
제품
##술
##간
##데
외국인
##의
##면
코스피
##급
애
생
##록
종목
재
증권
올
##단
해
##발
평
##근
##루
갤ᄅ
##ᅥᆨ시
##라
기술
갤럭시
##통
업체
##심
##입
진
설
##감
아
기록
전망
##년
노
스마트폰
현대
##물
도
올해
##중
##크
##련
중국
혀
규
에
천
순
##아
점
결
##당
원
##향
단
피
산
반도
반도체
##무
##분
##석
주가
연구
##액
특
##한
안
##룹
##외
지난해
##ᆨ스
이익
##점
업종
##학
가능
##운
호
##합
##융
##티
금융
대비
##테
이날
예상
협
테
기관
##역
요
판매
여
##ᆯ리
##비스
##환
이상
영업
무
회장
이ᄇ
세계
##증
급
##료
##서
##ᅳᆫ
최근
적
##ᆯ로
가격
##쟁
증시
경제
초
##코
##설
성장
때문
##형
기대
관계
##벌
관련
운
문
##려
출시
통신
산업
환
간
다
이후
브
##브
규모
##오
##약
김
증가
##ᆫ드
##경
##본
##호
박
애프
##각
##나
매출
##태
##양
##황
법
##율
후
##규
개발
이번
##작
##택
서비스
작
글로
글로벌
##획
경쟁
경우
##직
리
##략
##달
업계
##ᆯ레이
##회장
부회장
그룹
바
변
애플
경영
확대
##ᅵᆷ
##실
메
##개
광
행
연구원
주식
교
수익
##건
파
##디
##음
##닥
##초
대표
관계자
##션
지원
건
프로
카
집
아이
데
달
개인
가운
##결
가운데
##파
하이
평가
디스
생산
##험
##령
##플레이
로
약
전략
발표
양
설명
##존
나
입
##민
플ᄅ
당
기준
디스플레이
본
##포
패
휴
직
수준
##복
##여
최대
상황
어
##울
##총
분석
##ᅳᆫ행
폭
부문
##방
사장
계획
물
##생
경기
청
활
사용
역
##송
##거
트
예정
##하
##등
반면
##담
개선
처
매도
필
##책
체
소비
회사
목
정부
총
##닉스
##널
##현
임
주요
최고
코스닥
서울
창
##ᆯ레
##열
##ᅦᆫ
저
##판
##임
하이닉스
거래일
전문
##반기
##즈
위원
전기
감ᄉ
자동
##ᅥ스
영향
일본
심
센
휴대
##연
##야
##통령
##ᅡ일
대통령
##증권
##매도
합
워
노트
진행
##버
채
우리
현대차
지속
마감
순매도
펀
시작
우려
##토
제조
측
##객
##법
씨
조사
수요
조정
시가
효
래
강세
##총액
시가총액
수출
모ᄇ
##만
##강
##름
##질
전날
##청
정보
공급
##ᅦᆺ
##르
자동차
##램
폰
협력
##편
감
펀드
태
모바일
##별
##남
##교
기능
필요
##축
##균
불
화학
은행
제공
##말
##류
검
프로그
치
해외
향
프로그램
내년
##인트
##스트
##러
##너
공개
##함
속
차이
소비자
##노
전체
분야
참
강화
중심
자산
장비
뒤
추가
##폭
고객
회복
비중
기존
포인트
라
##웨
점유
상위
##랜드
문제
##립
약세
감소
손
완
미래
기간
포함
##견
##콤
텔레
상승세
건설
형
유지
아이폰
정책
모데
공장
승
크
##습
##타
우위
##워
##레
투자자
##팅
지역
팀
오전
뉴
##저
결정
텔레콤
모델
대형
##메
행사
##럽
결과
환율
휴대폰
적용
##츠
관심
유가
##허
부진
표
혁
대상
##그룹
계열
정도
구조
##스테
센터
배당
전년
##응
유럽
##병
독
프리
철
광고
플래
이동
편
베
지분
전환
##극
이용
##배
부품
램
##찰
특허
하나
인터
##언
마ᄏ
보유
취
절
금리
바이
사ᄅ
강조
전일
곳
##족
##천
목표
중소
상품
탑
##카
##큼
만큼
##시아
차지
연속
학
명
평균
네
##검
하반기
상장
효과
시간
##부분
작년
악
##메라
대부분
근
어치
가치
달러
본격
준
계열사
자리
자금
주도
국제
흐
디자
메모
위원회
##북
전문가
이사
모습
##론
복
브랜드
카메라
##스템
일부
확보
타
혁신
지난달
기기
시스템
지적
향후
##키
앞
삼성그룹
충
메모리
판단
경쟁력
사회
##희
캐
운영
국가
##엄
부담
매수세
##혜
공정
민
국민
논
탑재
기대감
##털
디자인
회의
가전
##광
환경
다음
액
콘
집중
##ᅳᆯ
##바
핵
가량
##탁
##스코
월
사이
지주
블ᄅ
처음
활용
동안
주주
급등
물량
홍
인사
인수
컨
토
심리
주목
위기
흐름
##처
차익
이재
돌
##할
최초
출발
##텔
유통
추진
면
참여
##ᆷ속
이유
##욕
쇼
성공
##활
안정
##항
매출액
##움
데이
##블
하락세
관리
프리미
##박
급락
드
용
사상
각
한편
##ᆷ석
프리미엄
뉴욕
##물산
##ᅮᆼ
무역
삼성물산
디지
##넷
##글
낙
게이
##ᅦ이션
북
##다
라인
음
보험
매매
##ᅦ팅
핵심
마케팅
적극
의견
##착
##순
동반
방식
##프트
롯
참석
의료
롯데
권
오후
변화
수사
눈
##측
인터넷
##ᆷ세
온
법인
준비
포스코
장기
구매
유가증권
신한
##기업
디지털
언
상반기
남
이재용
패널
계약
소프트
소식
검찰
마련
과정
엔
긍
##림
##육
철강
긍정
##ᆷ사
기반
##두
반영
확인
상태
신규
바이오
##악
레
선물
##밀
상대
##철
구글
##침
생명
니
##란
##퍼
합병
제한
직원
##픽
축
이달
##이드
전시
발생
키
##너지
인상
황
##공업
웨
고려
담
인도
홈
##절
책
기자
##변
지급
##럼
특검
접
도시
현재
전화
재판
백
##터리
소재
추정
진출
##한가
비용
##채
풀
와
항
단말
마이
아시아
게임
기아
##더
제외
임원
##례
위주
압
중공업
##핑
##ᆯ릿
입장
활동
방안
헤
속도
##징
화면
중소기업
##텐
##ᆷ의
구성
대응
공시
##웨어
증권사
품
혐의
##사장
##리아
플러스
인식
당시
단기
##웨이
현지
작용
생활
침
무선
규제
운수
대우
세대
판매량
소송
성과
비교
##블릿
초반
제일
가입
방송
식
선정
##텐츠
##스크
##득
정밀
주장
중요
데이터
대신
배터리
##널리
페이
부사장
애널리
##라인
기계
도입
##디어
지배
제시
부분
교육
내용
가스
##녀
제기
##색
일반
##탈
돌파
버
낸드
동기
지표
##억
콘텐츠
문화
방문
개ᄎ
태블릿
낙폭
##은행
기회
##앙
자체
##모비스
현대모비스
사람
시리
제도
기아차
구축
수급
유입
종합
평택
허
견
대학
윤
냉
할
역할
고용
터
완화
커
발전
해당
##와
생각
연결
반등
중앙
운용
##접
육
공동
##패
격
사실
주력
##탄
##평
단말기
조선
집계
누
##에
여부
시리즈
장중
##ᆯ라
애널리스트
##페
의미
장관
실시
요인
금속
##창
카드
만기
하루
확산
보합
##로나
소폭
에너지
코로나
##린
구속
분위
분양
분위기
수혜
##ᆯ루
방향
##라이
실제
한국전
둔
연합
보고
##막
상당
기초
오르
##틀
매물
한국전력
혼
##독
인력
##회사
정상
##범
요구
##이익
화웨이
둔화
설립
재계
탄
텍
폴
동시
검토
오름세
극
순이익
업무
시대
러
샤
##ᆯ루션
추세
제조사
새
##집
호조
요금
질
나라
##레이
채용
대금
티
변동
매각
단계
비율
다양
네트
타이
겨
테크
달성
센서
시설
열
특별
##랑
인기
##세대
텀
알
자신
##흘
이전
담당
조기
조직
통화
선택
개최
앱
악화
농
영상
노력
팀장
결제
천억
감안
트리
마이크
할인
##드로
협상
쇼핑
사건
##투
법원
방침
공식
위치
소니
금액
대만
안전
전국
대형주
진단
일정
컴
벤
송
안드로
체제
##흥
두
조성
거래소
밖
사태
추천
안드로이드
뇌
의약
시각
플래시
셈
교수
보고서
##찬
병
##동안
##차이
이건
논의
본부
##람
날
과거
여기
##폼
층
의약품
이건희
석
힘
이틀
플랫
독일
차세대
베트
##장고
출하
작업
연간
부동
플랫폼
베트남
전용
의원
잠
적자
스ᄐ
위원장
연말
온라인
소프트웨어
차원
협회
통신사
##머
호텔
##차익
등락
스타
솔루션
차별
풀이
##괄
상무
조치
책임
경험
내부
세탁
##컴
제조업
주택
##휴
##워크
존
전반
섬
현장
인하
현금
사진
케이
삼
가동
##ᅦᆫ트
뇌물
상환
비차익
축소
##얼
측면
칩
##케이션
신용
네트워크
부정
운송
그동안
##컨
부동산
능
상향
##직원
연기
하향
에어
음식
지금
창고
임직원
공모
섬유
##운드
전장
올림
정치
##풍
##탕
코리아
연금
시기
혜
시점
별
가구
##ᆯ러
국회
사례
손실
##모직
제일모직
##월
이미
라이
범
신청
##혹
성능
합의
##군
소형
##ᆨ트
재정
설비
전무
##슈
##은
팬
현상
효율
희
##즌
골
자본
연방
##념
불안
기획
올림픽
납
외환
자료
예약
진입
더
##혀
에스
거래량
위험
바탕
맥
악재
청와
체결
청와대
자사
처리
움
통합
보조
스포
피해
나노
매입
삼성전기
##협
실현
쿼
호재
이미지
##죄
한화
해결
혜택
수입
창출
##길
##커
보도
공간
리스크
##ᆯ류
네이
부장
에어컨
개장
표준
장치
##턴
시행
최소
소개
아파
냉장고
만주
아파트
경신
셋
참가
흥
이벤트
종이
영국
확정
반응
수주
과학
##ᅥᆷ단
##ᆸ스
의혹
노동
협의
##봉
친
스포츠
후보
이름
주문
응
##네
통신업
상용
총수
하한가
총괄
종가
대한
보안
활성
미디어
관측
##자리
##딩
검사
부족
사업장
변호
야
##리스
세탁기
음식료
공략
슈
##직임
움직임
상한가
색
인증
매장
설치
##훈
내수
10
12
11
17
15
19
16
14
18
13
20
21
부각
반대
스태
시즌
순위
터치
유동
기본
양산
해소
##베
지원금
보호
사전
##담회
발행
##덕
재무
첨단
건강
최종
삼성증권
원화
##예
네이버
##니스
중단
창업
덕
간담회
구체
캠
##효
건설업
아모
이슈
옵
##듀
능력
수원
승진
히
폐
언급
블랙
기조
흑
해석
영장
사업자
각종
워치
다이
노트북
고가
가입자
주인
##보합
외부
팔
오프
수석
동력
##디오
케
비즈
군
등급
출신
파트
##엇
##키아
요청
우수
민주
보조금
설계
징
개별
뿐
논란
더블
침체
##금속
##링
국내외
벤처
형태
##제품
광물
절반
개편
##ᆯ스
인정
인텔
전력
페
형성
연초
기여
급증
##ᆯ리케이션
인프
연구소
육성
돈
회계
품질
차례
인공
감사
채권
모듀
제작
##퓨
대회
선호
리서
망
기술력
베이
리서치
통상
실장
모듈
대책
조세
출하량
여성
단체
비금속
포럼
##럼프
트럼프
크기
경기도
재산
위축
##뉴
유리
탈
스토
##ᅤ기
흑자
##십
얘기
전시회
최저
마켓
체험
로지
퍼
와이
노키아
퇴
경영자
별도
보장
##ᅥᆫ스
경쟁사
닝
박근
긴
금지
으
구현
푸
채택
출고
특징
사고
선임
목재
조건
스탠
비즈니스
##ᆺ지
##뢰
제약
월드
인프라
계기
공유
선진
막
화소
국정
##지능
인공지능
재고
재단
전면
성장세
자율
매력
조언
애플리케이션
보수
창조
자유
충전
변수
스페
##손
계속
지식
촉
박근혜
컴퓨
##혁
##ᅳᆺ
파악
프로제
예측
주체
로직스
주말
뜻
일자리
##굴
변경
천만
##티브
사흘
##페이
내리
역량
지지
당초
북미
차량
##애
##니어
연기금
번
현실
근무
판결
최신
전달
자회사
##무리
얼
마무리
윈
신문
장사
이노
초기
##카오
다우
카카오
사무
항공
##닝
닷
팬택
의지
격차
향상
수상
시도
교체
장세
요금제
엣지
음성
듀
스ᄏ
구입
역대
공격
등장
보급
22
##ᆯ컴
안파
안팎
답
##세서
##콘
기소
울
착
##백
단지
상한
최순
유치
북한
헬스
자원
프로젝트
청구
퀄컴
대외
확장
싱
도움
원금
홀
동부
감독
##ᅳᇀ
지난주
기어
결국
가족
##퇴
##불
빅
대화
제출
밸류
납품
심사
선고
인근
분할
전지
연계
##ᆯ림
방법
반전
국면
행진
병원
##패드
원가
의장
##온
끝
분쟁
아래
필리
융
클ᄅ
지상
표시
영화
지정
잔
유일
##ᅦ이트
발언
선도
통사
관세
##건설
미만
블루
입주
이하
여파
루
##률
프랑
취업
탭
멀
재료
석유
머
##지니어
본사
중저
중저가
##화점
지구
하드
원인
샤오
동탄
선수
승계
광주
##수기
내림세
플레이
션
오피
브라
##답
증인
용량
에버
##게
상생
강남
##ᆯ영
근로
포트
##벽
당국
중소형
##ᅪᆯ영
촬영
화재
공사
대리
절감
샤오미
의사
멀티
접근
로보
치열
과제
##엔
레이
주변
개통
모니
제안
신뢰
충격
모토
절차
투신
##려움
녹
##때
민간
블록
##소리
보상
##옥
수도
청소
##영상
나스
지방
##콩
탓
팔자
고민
개정
글
편입
침해
신종
박스
서초
신세
##새
집행
##충
바닥
##우드
동영상
##염
언론
##쇄
양국
나스닥
동양
보합권
컴퓨터
##밤
장단
음식료품
##셜
영역
우선
화질
공기
에버랜드
클라
교통
배경
노조
어려움
홍콩
간밤
누적
메리
인재
생태
사내
##ᆯ레드
배당금
파트너
콜
백화점
목소리
셀
방어
주행
프랑스
매체
스타트
아이패드
기지
질문
행정
장착
로봇
사물
역사
리더
주제
사자
##ᆯ린
##칙
##레이드
유출
이해
재벌
보통
품목
정기
귀
특수
고급
연장
듯
##베이션
아모레
이노베이션
이탈
태양
빌
쪽
통과
증거
갈
청약
퍼시
투명
도전
액정
장점
커ᄆ
십
제휴
길
뒷
금융업
점검
봉
탄력
부과
편리
증권가
##퍼ᄅ
##가지
값
맞
복합
신세계
무엇
학생
특정
투입
여건
퍼시픽
김ᄉ
순환
지점
사항
이용자
비전
지하
클라우드
분리
이외
출자
전쟁
스타트업
정유
부산
회담
##ᆨ터
마지
저점
슈퍼
결합
총회
양상
대출
렌
펜
만족
유로
뉴스
재판부
음악
센서스
##럴
부양
변호사
비서
##40
##42
##41
##47
##45
##46
##48
##43
듀얼
컬
##49
두산
##거리
고위
##투자
색상
##머지
##헌
필립스
뮤
나머지
선전
한진
가정
저장
러시아
학교
##ᆨ시
트레
편의
테마
출고가
최적
웨이
경영진
눈길
실질
마지막
##콜
##좌
발광
테스트
공세
화성
직후
홍보
개혁
연동
시티
##층
임금
처분
마찬
마찬가지
넥
현대증권
흥국
출연
##텍
##움증권
키움증권
물류
스피
##빈
가이드
설정
코어
##곤
##ᆷ색
하드웨어
대구
##폴리
취득
라인업
윈도
플레
한계
희망
난
쿠
프로세서
##카드
목적
특성
공공
교환
견인
초과
##완
완료
선언
##퍼런스
행보
완성
##총리
##센
##단지
오픈
성적
등록
사이트
양사
##30
##32
##31
##37
##35
##39
##36
##38
팩
메시
가상
폴드
칼
##러스
옵션
##ᅢᆼ크
##투자증권
일각
스크
지주회사
연봉
당장
무료
수수
패션
중간
##오드
대중
극복
페이스
##쪽
나흘
케어
혁명
면적
소득
체계
##니아
거리
엠
요소
##페이지
트렌드
출범
홈페이지
청정
다이오드
시험
주총
승인
대체
형사
가전제품
유명
타격
##지니어링
우선주
테크노
포트폴리
포트폴리오
##웃
압박
기념
##우스
비판
곡
파이
지연
경계
고점
##항공
이마트
대주
##ᅡ이스
행위
덕분
압력
사옥
밤
현물
##슨
모니터
넷
##리카
사양
##킹
##납
발굴
추구
산업단지
도시바
##70
##72
##71
##50
##52
##51
##59
##56
##58
무게
##ᅲ니
프린
유기
좌
에프
훈
조달
융합
##베이
커뮤니
선진국
상회
그리스
수행
기업인
장주
자연
시청
파워
주당
서비스업
불법
랠리
##스티
##그레이드
업그레이드
스토어
##79
##76
##78
웨어
메시지
##맹
공판
해양
첫
심화
실패
호전
총리
후반
그간
##돌
전경
손해
소속
서버
##귀
메이
존재
신흥
##먼
에이
##섭
제재
재개
출원
연휴
##몰
채널
필수
##케
비상
후원
엘
의존
자기
관광
직전
초고
증설
##렉
스페인
아마
전작
단행
단독
부채
암
개막
해운
법정
골드
넥스
소형주
##씨
염
파운드
시너지
##뉴스
##휘
시민
미세
제고
##곳
총액
연합뉴스
갈등
이어
트래
표현
오너
##젠
민주당
동향
##존스
다우존스
스크린
##기획
차질
범위
강보합
전경련
##스텔
엘리
##환경
회원
협업
견조
##폐
전통
규정
항소
##트라
제일기획
소통
선점
입지
동일
기사
협약
검색
페이스북
쇼크
취지
원대
앤드
신설
사외
공학
출회
##암
##민국
졸
아마존
임대
돌입
##브로
출석
오피스텔
인구
대한민국
파운드리
소환
관망
부상
겸
신고
왕
웹
러블
##참
약보합
배치
대주주
로라
실리
예고
##야기
위협
증자
앤
프라이
운동
친환경
잠정
초청
이야기
원자
베스트
부인
##밍
복지
찬
개발자
어스
##60
##62
##61
##69
##68
차관
##로드
##나라
##값
가속
밀
컨설
단순
고속
와이브로
실시간
##스터
##몽
횡
졸업
아이디어
쌍
##플
육박
##닉
##윤
##ᆷ수
##인지
김치
현황
큐
부가
종료
##튼
내장
공정위
원장
유망
근거
번호
가시
금호
누구
##곡
##너스
단위
박영
실리콘
원칙
유진
##취
기구
중순
##늘
##거래
##칭
식품
취임
문재
폭발
회복세
특화
기금
세트
##춤
빈
엔터
##평균
##ᆯ론
기타
신호
##추
##윈
울트라
지도
상업
인천
감염
밑
영입
케이스
초점
##리지
##냥
우리투자증권
의결
국민은행
개방
자랑
연내
맥스
보통주
바이러스
물질
브라질
##뷰
중동
건조
여력
증가세
다수
약화
지문
초대
스탠더
선두
스탠더드
중반
대법
극대
반복
타임
##걸
해상
정의
물가
달러화
내달
옥
##것
대선
농단
고정
위반
마음
조원
맞춤
유니
서프
##파이
부총리
현안
국산
##클
정리
폭락
공방
부지
옵티
우량
##90
##92
##91
##98
털
방지
일시
바람
공연
최고가
지시
정몽
##태원
자문
기대치
우호
고덕
기부
중견
샤프
사원
스티
약속
판사
컨설팅
구미
권고
매니
한때
지법
근로자
멘
일가
라운드
##ᅥᆨ정
##지수
걱정
미니
헌
주거
화장
범죄
장애
측정
직접
택
##짐
서울대
출장
공단
소유
후면
##째
리콜
전송
연중
##엘
투자가
제어
전개
생산량
입사
대량
태양광
치료
징역
법률
모양
엑스
급감
##프리카
##튜
상담
조절
스피커
##ᆯ름
김영
문재인
용인
도약
##사업
##하이
거론
패턴
조명
예산
버전
객
뷰
##돈
선거
정지
진화
여름
##을
공헌
모집
협의회
##셔
지배력
테이
외교
국채
##컬
잠재
강점
##싱
##칼
##셋
##머스
모색
성향
##트로
겨냥
##래곤
실행
대전
인물
##80
##82
##81
독자
##성장
##체인
블록체인
한국은행
재편
약정
##텀
유효
법무
중앙은행
##부진
호주
빛
하회
주파
##촉
관점
독립
배상
스타일
신영
당기
막판
몰
컬러
전원
톱
##숙
이사회
전후
건수
##ᆼ크
스위
권오
플라
기각
커버
집단
줄
타워
상공
주간
남북
대가
합작
##투스
균
심의
##현실
지주사
##퍼스
##냉
경찰
그래
사안
접수
배제
##께
시사
각국
허가
런
후속
##신라
호텔신라
복귀
외신
급등세
관람
의류
##받
환원
두께
어디
빅스
주파수
몸
책정
원유
최태원
거부
충족
강연
개념
압도
익
##혈
##잉
유상
##지성
올레드
##공사
위상
당부
건물
호황
메탈
랩
청정기
계절
벌
폐지
반발
은
사랑
##괴
스트
옵티머스
직장
##혼
밴드
추락
상호
뱅크
필름
등기
대기
교보
량
주관
여행
##ᆷ상
##00
##22
##11
수지
##맥
##켓
홀딩
##핵
##받침
##들
보관
액면
긴장
작성
게
모드
##ᆯ래
뒷받침
빅스비
불황
부스
##미디어
##버그
마이너스
면세
결론
불편
유도
토론
부여
풍
홀딩스
진흥
이탈리아
##주의
파크
청소기
##레스
낙관
박사
흡
안착
느
작품
퇴직
교류
##욱
##ᆺ수
숙
벽
선발
라스
조원대
세상
신라
법안
##널드
##솔
증정
박람
이명
패키
신동
배출
##산업
##이트
롱
삼성카드
승마
필터
자급
소장
청년
##다수
모건
불안감
리더십
결산
리스
신입
명예
무대
지상파
##벨
이래
캠퍼스
렌즈
둘
스튜
##릭스
파생
아프리카
##컵
##테크
신사업
##페인
우리나라
메디
##필
분류
대조
승부
모두
최지성
유로존
대다수
강도
연합회
시트
##짜
허용
박람회
입증
퀀
개척
대리점
라이프
##라이즈
클럽
멀티미디어
영통
##무원
플레이어
응답
종전
##셀
선행
##던
##엔지니어링
##시스
전월
삼성엔지니어링
개입
동결
프린터
동남
화장품
명회
대장
꿈
하우스
추격
부문장
위안
대한항공
우세
정체
만기일
수립
마진
이제
유사
도널드
정화
명령
테크윈
시절
서프라이즈
##ᆷ산
오프라인
디ᄇ
핀
기흥
최선
캠페인
평창
양성
디바이스
차기
신임
개정안
통계
##케이
##최
내외
주최
과도
도로
헤지
월드컵
##즘
과잉
답변
항소심
기판
한정
투표
##롱
엘리엇
##거스
버스
퀀텀
인포
성수기
커뮤니케이션
추석
검증
계좌
숨
정신
##흐
##고인
##ᆯ라이
##워드
익스
샌
문자
법인세
케이블
상단
실망
근접
##포르
오늘
환매
성격
먹
공항
픽
##가포르
싱가포르
르
명품
##베이거스
라스베이거스
조짐
보증
하만
세로
진술
정몽구
주의
##리트
##57
구간
수정
골프
비트
연일
트위
독점
패키지
수치
증대
노출
드라이
##02
##01
대변
급락세
반납
획
확진
대안
##엠
회의소
이승
##촌
면세점
버튼
입찰
접목
영향력
발목
구도
보건
플래그
압수
원자재
##ᅩᆨ스
시세
섹터
의복
지사
전기차
제품군
문의
상당수
세미
신경
휴가
최악
##88
천안
책임자
사과
여론
매니저
구본
나이
청탁
##압
닛
##ᆯ력
공업
시연
대사
대법원
동계
과장
베이징
인터뷰
협정
창구
인원
국무
욕
이경
합리
뮤지
시범
##하우
##리오
##갑
수단
아산
세금
본인
한도
이자
##99
##친
직무
노하우
##홍
경북
온도
베르
수수료
추산
동남아
총장
허브
어린
토대
제주
##66
제거
스테
조합
선명
의식
창의
부자
대내
멕시
##웅
동참
아몰레드
중계
룸
소셜
##징금
지출
대학교
비디오
파나
##디션
##렌
멕시코
박영수
봉사
##가스
사무실
감염증
##요일
소외
자격
##덱스
어린이
파견
효성
방통
세제
감지
브리
포기
판정
탄핵
인용
##21
작동
무리
##55
조작
안건
청문
플랜
엔진
상하이
예비
패드
개시
새해
신중
사이클
관망세
삶
런던
포스
호실
캐피
##ᆯ립
아웃
다변
##나다
부처
컨퍼런스
이통
경력
행동
미군
취소
경고
##77
권오현
공여
재생
지검
실무
신탁
시상
캐나다
##릭슨
재정부
에릭슨
셰
중기
예술
대용
접속
정식
워크
봇
##빙
호평
학습
레스
녹색
##디아
비수기
발휘
부양책
자녀
공원
트위터
폴리
##베리
중형
사정
사유
##첨
여의
잡스
저조
너
개설
포털
시중
자국
소리
연출
##ᆯ링
##리어
누리
여지
김기
차단
스탠리
블루투스
구상
여의도
굿
의존도
면담
총재
김현
대용량
시계
김정
보완
청문회
주기
확충
원천
급성장
전담
##톱
불만
의도
##의자
체육
장소
뮤지컬
고문
대대
##소닉
파나소닉
옴
콩
절대
좌우
##ᇁ이
프라
동원
단일
정확
김종
실업
고수
얼마
상가
브로드
고전
일환
액티브
##사스
전방
##낌
면접
평택시
수용
오디오
숫
급여
선방
엘피
사망
중고
계산
건조기
균형
리얼
잔고
연대
사모
와이파이
이병
첫날
느낌
##운용
숫자
블
명단
서부
프로모
자릿수
공통
고조
##르세
공무원
##서스
##33
##ᆯ로지
텍사스
자극
##란드
애니
##냅
웨이퍼
의무
소비재
착수
스냅
차장
주재
인지
스카이
스튜디오
##데이
대내외
프로모션
김성
피의자
소매
##케미
전격
##제철
유튜
##케미칼
유튜브
점수
사법
얼굴
영어
컨트로
자산운용
딸
쏘
엘피다
운전
##척
건축
김동
헤드
지위
수리
긴급
흥행
테크놀로지
먼
##븐
해상도
증언
일상
찬성
연평균
텔
플렉스
발주
감독원
진정
탄생
멤
벨
배후
화이트
관건
부재
부합
산하
세부
과징금
##ᆷ새
##ᆯ리티
전시장
##스크린
인덱스
법조
출근
박용
준공
##호텔
지능
안내
##리드
한솔
중립
이례
양호
닷새
발견
주자
##네시아
가상현실
괴
인도네시아
장악
꼬
추이
완전
부서
만회
적정
넥서스
연설
부당
공소
박차
웍스
미르
임시
##ᆯ러스
화제
권리
대학생
당선
윤부
실내
도ᄏ
서상
밸리
과열
반사
닛케이
신종균
##12
기지국
클래
경향
윤부근
상속
브렉
수년
회로
에디션
##냉장고
대역
김치냉장고
##랜
##젤
터치스크린
##44
환자
닷컴
코드
충남
지목
김용
연관
무상
게이트
유력
한전
완공
##스틱
코오
도쿄
최우
##ᆯ렉트
레노
셔
##08
코오롱
상사
타이어
레이저
평소
##볼루션
흡수
##드래곤
부실
이명박
정점
##킨
민감
베를린
##메이
시황
##춘
이어폰
서상영
구제
##낸
현대건설
도달
##몬
긴축
알파
자신감
수소
이내
다스
##김
파이낸
고도
솔
주방
방한
콘퍼런스
무기
뮤직
스냅드래곤
플립
##마크
감시
베이시스
가계
남용
##페이스
##규직
##속도
##사자
단기간
국장
회견
로드
연도
공감
감축
규격
참가자
그래픽
훼
축구
쇼핑몰
변호인
마크
대목
안경
희비
블랙베리
이곳
노무
전형
수십
인접
세일
인간
반박
주민
현대제철
관람객
획득
빌딩
오피스
최대치
양측
크리스
##쿠
고부
거점
쿠폰
위성
응용
휘
아들
드라이브
살
태평
객사
모터
실험
칭
선제
종금
드라
##96
##시엄
##소시엄
##륙
컨소시엄
그림
##런
신년
노사
강자
전사
대세
배럴
##박스
전세
츠
화물
시선
간접
##버스
배정
스위스
##덴
모비
파업
촉진
주석
딜러
남성
창립
폐쇄
소화
고화
##르셀로
평판
타이젠
배당주
스프
훼손
체인지
예방
바르셀로
바르셀로나
##스타
외형
태국
레드
자세
단종
상징
구분
우려감
구형
블룸
다운
전파
동의
슬로
화두
촉구
레노버
##75
붕
블룸버그
세이
이목
베가
고유
먼지
공매
##셔널
년
시안
##수색
압수수색
정비
웅
중남
강요
열풍
염두
딜
계단
타입
곡선
이영
모양새
##모닝
수요자
굿모닝
대로
비밀
단가
업ᄃ
신형
최대한
업데이트
콤
굴
중남미
소모
분산
에볼루션
##20
합류
테마주
먹거리
생존
저널
실물
##ᅡ움
최저치
정유라
슬림
공인
##10
특허청
픽셀
토지
차입
이중
파라
시나
회수
대변인
시그
통신망
대수
다각
박상
고리
논리
붕괴
전공
강제
실천
곽
블로
파격
하단
차명
대행
##요타
직업
타결
##28
이부진
레벨
신분
히트
이행
창업자
신화
세미나
감산
울산
주시
예금
확신
비서관
권한
머리
피해자
##18
공백
단축
시나리오
배우
횡령
톡스
##심사
전량
지정학
데일리
분식
유죄
##셉
방수
정의선
쟁
청산
##리바
기일
사은
김상
초고속
##흡
소액
##거래소
엔지니어링
팟
신동빈
크로
보복
근본
파이낸셜
의심
피고인
예전
일자
예년
점진
학과
고화질
##쉬
바다
실수
문서
중점
##러ᄃ
##영향
위탁
신도
순간
주인공
한화그룹
핸드
##고리
대차
악영향
도착
행주
스티브
##멸
화폐
##스트리트
이것
제로
만남
월스트리트
##톤
최상
정통
지하철
##살
잡
정권
타운
랜드
설문
이윤
원격
처벌
쿼드
오바
종류
선대
텍스
입력
힐
커뮤니티
관여
멤버
해체
중대
노동부
해제
삭
고성
광학
유안
소요
선박
리스트
과세
##보드
타임스
오바마
거래선
##뇌
교역
##창규
공채
홍채
회동
쇄
기점
연수
##내셔널
인터내셔널
시상식
수량
국감
고등
발화
당일
화증
김지
상품권
이병철
구동
##앞
소각
상표
##생명
부활
사은품
견제
세력
##파크
##저우
국산화
분당
##이너
진영
##쇼
##67
##동진
디자이너
노동자
사운드
투어
취재
협조
사면
골드만
도요타
공조
용품
항목
호조세
벤치
플라스틱
대우건설
##학교
형식
##65
##걸음
가세
출국
##ᅡ임
곳곳
언제
훈련
옴니아
##ᆯ런
증명
접촉
우량주
웅진
담합
##템
사우
##플레이션
일렉트
가중
감성
대학원
훈풍
잠재력
##가드
##89
##렬
삭스
인단
미술
현행
우승
단통
전시관
공포
친구
##세서리
인테
단장
수신
무산
수율
습
순차
##비아
포토
##ᆯ라스
##갈
##칠
궁
송금
컨트롤
증권거래소
닉스
신주
격려
전선
내정
옆
감상
중형주
웃
마트
젠
탄소
방해
승리
##09
거주
산정
서초동
펄
##언스
약진
철학
##유럽
쌍용
##밸리
수상자
배심
장려
선호도
농협
준법
의문
서울시
새벽
제이
총선
인방
관심사
적립
메르
행복
스펙
실리콘밸리
유해
추첨
##포트
시스
의회
서류
원활
수직
캐리
##라이트
##맨
표명
무죄
라이브
##34
##29
결의
태도
갑
고성능
혈
##밋
고동진
통신부
테스
파일
##레인
##스턴
구본무
동작
약품
베젤
엄
##19
금감
수출액
임기
동서
심의위
이정
액세서리
드럼
틀
견해
암호
땅
판매점
##벤
일대
##맥스
싸움
필두
##디스
##제표
집회
엔지니어
재무제표
그것
오토
영재
호응
카운
귀국
철도
아르
임명
지자
한국인
여자
캘리
이수
하방
통제
##덜
담보
이종
캡
빌트
혼란
유보
핏
잉
메가
폭스
##노스
##밴드
강의
정착
완벽
비리
로열
##매김
자리매김
결혼
초이
메이트
부부
사드
국토
사절
오름
텐
유발
정황
양해
가공
경상
노선
완제품
레버
납부
##ᅰ어
일관
티지
켐
빌트인
경영인
코트
##큐
전제
용지
장벽
관행
봄
상장지수
비선
통일
류
##연설
감소세
예탁
러브
기조연설
대처
실세
착공
걸림
특혜
걸림돌
조금
요건
##틱
##포니아
캘리포니아
대상자
##톡
네덜
네덜란드
오리
오포
수백
건립
직면
머티
##푸
발판
지자체
그랜드
스토리
순익
##엽
브로드밴드
##높이
성사
동행
역임
레버리지
플
통보
##직자
아트
팹
총력
유선
김승
에이치
광교
##86
이사장
광역
카페
상하
상임
반등세
빈소
원내
플렉
한류
##ᆯ랜드
옷
일선
산업재
##서블
##엑스
마을
환영
과학부
##시스코
열정
지향
##핀
플랜트
##히
문건
##첩
드라마
##97
경부
엑시
씨티
태평양
##06
대림산
대림산업
기억
강원
##란시스코
핀테크
가로
지진
인센
청소년
인센티브
철수
##터링
아세
저가
장남
##뜰
##95
리모
체감
행사장
스트리
메리트
모임
패러ᄃ
패러다임
내비
트ᄅ
합계
한양
발탁
증권업
코닝
퓨
성적표
부착
##반도
맹
눈높이
블로그
조심
##덤
자제
고발
알뜰
라이트
##나항공
아시아나항공
조율
##프란시스코
샌프란시스코
직격
포지
유통망
##26
유형
하이브
트리플
철회
참석자
공기업
이서
샘
칩셋
오름폭
담당자
통신비
회사채
커피
프레
시내
##룡
불량
지지부진
사절단
직격탄
수장
헌법
수원시
안보
건설사
저축
눈앞
정전
##16
현직
가ᄂ
고지
피스
역부
하이브리드
브리핑
쇄신
##골
리포트
세기
김병
만찬
안심
장면
권단
가늠
##53
프레이
내년도
국세
사이버
##창수
러닝
브레인
쟁점
뱅
강국
경남
클리
벌금
엑시노스
밀러
##올림
입법
배송
##다이스
분사
양자
독대
파라다이스
착용
글라스
##고속도
##고속도로
컴퓨팅
반올림
##ᆰ기
전주
믹스
설득
저항
##제당
제일제당
플렉서블
##73
줌
한반도
내구
가을
코엑스
문제점
인쇄
##테나
거대
면제
트레이
배포
호가
부도
신속
각광
##머니
역부족
주한
칸
##유예
평화
##닛
공부
스코
세이프
이경민
모션
##먼지
동아
감정
이메이
제정
보이
터키
활력
경쟁자
미세먼지
지제
전실
안테나
소문
금감원
로열티
김재
##87
재원
친화
매진
일종
모니터링
이메일
후퇴
신도시
실정
에코
고법
시위
남자
의결권
연령
괴리
공약
##럴드
지불
이승우
경품
청장
공제
소진
호남
회피
비난
쏠림
마스크
음원
스터
청사
##엘비
에이치엘비
##게이션
이맹
페이지
캐피털
내비게이션
이서현
##85
주차
서명
이맹희
선별
##07
##에스
브라운
자발
프레임
중구
##앤
셰프
횡보
네오
보합세
##녁
##신저
관광객
전자책
황창규
함
성명
헬
전남
##습기
집행유예
비보
곡면
애초
카운터
##릭
메신저
서초구
메르스
##05
##깃
제소
투자액
포착
양극
양도
출구
##금리
겨울
원익
판교
윤종
해명
건의
조회
심판
평결
메드
##렴
열기
여유
야당
원전
중시
발인
저녁
상쇄
미사
웰
##27
동사
역전
우주
걸
뇌물죄
야심
키워드
헤럴드
공매도
스트리밍
유료
국방
팝
단점
##른
##멘
중도
말레이
아세안
미러
취약
고속도
체육관
소수
파산
재직
##퍼니
미팅
파장
##25
##17
상여
재현
##이자
박성
컴퍼니
탈퇴
프라자
퇴진
##캐
##의원
##더스
언어
부대
입학
##ᆫ스
경협
독보
인플레이션
드론
북부
구매자
돌풍
말레이시아
포괄
##포인트
사무소
축적
##쓰
아이템
포장
강남구
추종
법무부
##15
임상
데스크
상관
국무총리
수여
커브
##늄
##탑
##브스
조립
##밀리
발부
창업주
##셉트
이스
입체
체질
클린
타깃
스텝
볼
어비스
갤러
고공
##버지
디스크
김경
##쿼
##지오
상선
수출입
대결
기술원
변신
채무
최장
광장
##레나
세종
포진
각서
상상
##트너
압축
혼조
외관
저하
야구
포지션
연락
이인
짐
파손
사이즈
포스트
##믹
가트너
버즈
퍼스
사기
고개
초등
프라이데이
한데
규명
남부
프린팅
지경
수위
신약
직권
##토리
외환은행
밥
즈
백혈
오찬
용산
##짓
절상
인테리어
회장단
드래곤
이브
박상진
카운터포인트
날씨
평면
외화
##틴
##걸이
박정
메뉴
몫
##테이
수집
디램
장학
장충
결함
펠
아동
신한은행
백혈병
액수
예외
다운로드
아침
농업
하노
정례
멘토
대북
원선
갤러리
##63
일류
개미
인지도
서정
알리바
##리스트
생체
활약
산중
여러
욕구
부모
여타
펌
부근
대박
호소
관장
카카오톡
알리바바
성과급
증강
패스
삼성생명
연세대
아레나
샵
일회
보강
종시
합성
##겐
합격
음향
렉
##철수
물론
##커스
삼성동
장기간
학회
축제
기재
염려
학부
외면
피로
##54
버블
테일
출입
무한
지제역
연료
인터페이스
소집
회전
둘째
에스원
산학
이론
개성
밀레
현대그룹
촉발
##93
##슬
경색
독주
만족도
여야
##바이
사후
대국
##겨
국외
##씀
안종
##74
정무
체크
룩
고무
공고
반기
일감
순수
##왕
충전기
최우선
가이드라인
끌
##메달
인피
물리
##렉션
싸이
구역
신장
급변
사퇴
출력
도심
캐릭터
가격대
맥락
술
무디스
웃돈
이온
##아웃
##카메라
상무부
운송장
스와
소음
투기
사용량
보험업
부친
합동
킷
셋톱
셋톱박스
조리
파급
공화
결심
톤
##빛
스톡
곤
김연
신수
요리
광대
저금리
##룸
전역
안종범
##ᆯ란
상고
정면
추월
체인
라디오
손익
우상
금형
조선주
응원
모빌리티
퀴
옐런
키보드
문구
이드
공익
비행
건전
점포
##에프
의뢰
목표치
전직
배려
박종
관리자
##툼
##총장
말씀
학계
락
##ᅥᆨ스
컬렉션
실력
중개
##치소
종목별
대면
포화
포브스
##티즌
##개발
비관
거래법
격화
수업
인건
##섯
최소한
선착
무시
빨
변환
바이어
계층
클래스
장려금
##가락
하우
##세스
애니콜
인건비
결권
안철수
환불
물건
허창수
팜
만약
참고
패밀리
크레
편안
위니
성장주
과시
도래
후발
그린
위기감
##법인
기종
동양증권
실수요
##바지
파트너십
##렛
오븐
원고
수명
장시
강보합세
산업은행
유통점
경부고속도로
선착순
시ᄆ
상권
아메
미사일
국립
정통부
호흡
직장인
매직
디지털카메라
무풍
권력
신수종
스터디
다툼
실용
예의
편집
화상
로비스
##기금
추후
프라임
탕
거래처
모뎀
한화투자증권
톰
##벳
관객
세무
하위
치료제
배임
집안
인턴
기부금
일회성
가수
발명
이화
작가
제철
냉방
국회의원
약보합세
##끼
연고
온실
렌탈
주류
유무
파리
고용량
출연금
최다
전액
##재단
##83
기업체
여당
##시설
정당
행정부
##로그
육상
능동
이민
서치
발효
동국
캐피탈
가권
게재
스프린
##엔드
택지
아버지
촉각
샌디
조문
테라
김기남
취재진
##경식
당사자
취급
일평균
게임즈
수천
##선스
라이선스
##03
황이
안성
복수
초저
##벤션
비정
명암
컨벤션
눈치
병행
마스터
##64
시진
자택
소자
숏
항공기
에이스
이란
비스
삭제
이때
비자
푸드
판가
남아
시현
컨버
일반인
온실가스
신차
지침
마라
쓰
환산
상거래
스웨
산출
간부
간판
네티즌
소극
##꼬
해법
재난
롯데케미칼
##ᆨ시블
플렉시블
##대표
노무라
일ᄅ
유엔
와인
##곽
##풀
시공
##조합
판도
이재현
일렉트로
시진핑
메이저
걸음
스프린트
##샤
튜
거시
고시
시정
공지
스페셜
김형
증강현실
##부상
폼
표정
유수
슬라이
##94
맨
최경
##서트
토론회
##23
사인
주역
트래픽
차입금
인멸
정규직
맛
도서
##냉키
국고
세이프가드
하노이
##팔
학위
충돌
폴더
에스에프
버냉키
링크
불화
엑스포
김진
##먼트
역외
냉각
탈환
기업가
월간
한국어
진전
화성시
너스
공산
콘셉트
메이커
단어
오래
일방
부작
유착
스퀘어
하이얼
엑
심장
##기세
제목
##13
##상도
확률
휴장
일조
##싱턴
소지
원료
탐
##ᆫ지
수서
한중
등극
회생
##이터
가치주
대졸
용도
중복
##딜
아이콘
조항
모간
변론
워런
하이엔드
페스티
페스티벌
##레인지
증폭
발동
아카
비결
교섭
골자
큐브
광부
고려대
공모전
이치
세월
##위원
춘
경매
웨딩
회관
도보
합산
까
잭
절약
폐기
실효
독려
##랍
강사
밝기
게시
급부상
윈도우
여러분
거액
서민
##균관
성균관
노이
초래
아이파크
구사
비정규직
역세
재미
법리
손가락
감면
동물
입국
오리온
자치
입점
우회
틈새
원동
파괴
각오
##잡
##산물
경영학
공짜
배분
김태
실감
성가
요즘
물품
중화
발급
##평가
무이자
스캐
고령
콘서트
워싱턴
학년
부작용
고배
표면
증여
질환
신라호텔
##소득
김포
학원
블랙리스트
루머
고심
포커스
레저
##시장
##ᆯ릭스
워시
몰입
서브
내역
##ᅥ스터
와중
탈출
출판
사무총장
클러스터
지갑
포부
김장
대화면
견본
세련
리조
호암
##연구
##델
아날
도이
마라톤
실버
##피아
비디아
진공
토로
인민
잉여
관계사
추측
수첩
조양
냉동
배심원
아날로그
금산
공급량
오해
선사
전문지
고인
고해
산재
호환
불참
스피드
활기
백신
##크로
광각
장터
마그
리그
##연합
트레이드
윤종용
연루
형제
유티
재택
##나이
신재
##두리
스테이트
스틸
##사채
하이텍
전환사채
##맵
일치
축하
##로스
방송사
리조트
이기
정용
긴장감
##팩
김학
더블유
##84
조화
미주
미포
안도
니스
정관
오션
강등
잠식
##퇴근
대항
명칭
살균
미지수
벤치마크
국세청
사의
공로
외산
딥
햅
우대
무더
앙
족
우크
김연아
손경식
테슬라
##죽
사임
오류
출퇴근
프로세스
김현석
수차
##에이
한은
구자
발간
김지은
다중
헤드셋
대지
가맹
중재
종사자
중국인
운행
##오스
누출
꽃
##ᅥᆫ트
경직
##플러스
특가
역설
방역
도어
김승연
고해상도
##04
발표회
스웨덴
인권
캐시
아우
도출
##팀
보험료
민관
시스코
제습기
싱크
원자력
료
##타이
수차례
본점
절전
이석
발사
환경부
오염
직급
덩
지휘
탑스
제동
은행장
권위
##팡
신작
세라
외장
편광
로드맵
전이
대치
두각
캠프
궤
거실
폭탄
공유제
탕정
사단
기저
서밋
메릴린
##튬
트랙
헝
##플릭스
한글
고품
##미늄
넷플릭스
원내대표
수면
로고
참고인
자존
맥주
햅틱
김준
충당
식당
메릴린치
정서
재발
손목
##센스
김용구
득
##헨
파주
이자이
원동력
초일류
오랫
일원
성숙
보좌
계정
필기
명시
집값
제자리
오버
만료
홈플러스
품주
핫
##마스
##데미
응답자
잡지
금요일
핑크
발전소
타이밍
##외선
쿨
오브
남미
구성원
상여금
교사
커머스
##전지
담배
녹스
세션
출전
패블릿
각자
벅스
쉬
그때
밍
팩토리
##24
지인
리튬
공모주
##가동
양재
저작
황금
아카데미
맘
왜
부탁
응모
경로
한창
최고점
기인
유틸리티
##논
대검
김대
인피니
가이
중지
##근무
##학생
명의
쾌
복구
조양호
수감
##ᆯ란드
##던스
원재
키트
테이블
자존심
기한
논쟁
백라이트
정경
코너
동맹
카테
허위
만나
학술
컨버전
수렴
원재료
##14
증진
기법
오랫동안
이견
이웃
연맹
송도
##스탄
통운
법무법인
프랜
불리
군사
무효
유럽연합
카테고리
피부
초미
콜라
행태
폭등
니즈
방문객
탁
노르
명절
논문
실수요자
시일
매크로
정수기
한남
방진
어워드
모범
맵
헬로
낭
수술
스몰
원단
피력
밀집
복제
취향
타이틀
고등학교
실사
##폴
샌디스크
##메이션
한나라
킹
한나라당
##ᅮ리
방산
필리핀
머신
놀
##운트
퍼스트
인적
정성
스쿨
턱
상법
피트
진료
이스트
일간
식사
왜곡
##줄
##가리
소방
실태
##르트
심문
샌드
등지
머니
플로
노후
##다리
자재
피처
로비
민정
##테이션
소위
재건
엿
모바
크리
타사
뒷면
묵
컴투스
워크아웃
린
철저
안정세
부호
소스
개발비
명분
진동
##칠성
윤리
룰
##지먼트
샷
매니지먼트
##찌
##화문
포드
테두리
크다
키즈
석사
##쿼리
알루
올레
워킹
조선업
미술관
##팩트
여사
컨버전스
유한
급속
편성
수뇌
장례
체력
혼합
케이엠
인연
도구
나무
시제품
대답
감각
원사
##마켓
원리
유전
토막
방어주
맥쿼리
전수
혼수
##스틴
다각화
아메리카
국도
투자처
아베
##핏
노인
명성
금메달
아이언
막바지
죄
보아
존경
엿새
인생
정규
순조
탈피
헌재
신상
청주
센트
대두
립
처지
##칩
##궁
교차
쉐
##둥
코팅
##손실
##숍
궁극
##문학
재테크
운전자
수뇌부
출마
측근
붐
소명
반덤
광화문
입원
저자
할부
범용
반덤핑
학기
낙관론
이듬
부국
유비
##제과
포항
적합
##인드
미칼
가이던스
짝
폴란드
트론
푸르
##센터
이듬해
##시안
첫째
##라운
##알
센스
브라운관
지원자
항공사
코미
내일
특유
헝가리
##분할
토종
스탠드
이맥스
동문
진보
입금
##생활
##페리아
엑스페리아
정원
##옵
롤러
마그네
알루미늄
갭
하청
이상훈
로스
##옵션
유인
동반자
기념식
수령
후지
대법관
발의
초코
##홀
리뷰
광범
배당락
명목
광범위
론
##국적
선출
다섯
내정자
소득세
다국적
근처
세라믹
하도
##셀러
일체
멤버십
슬라이드
반격
성남
웨스턴
##상의
원형
대한상의
자이
승자
온과
펙
데스크톱
이학
챗
토크
구광
하도급
##번
장외
##월드
##멘스
지멘스
포석
장충기
##게이
이집
프레스
본질
구광모
이집트
전산
소감
##밑
진실
열흘
사우디
해킹
교과
버핏
동월
넷북
크로스
이주
상금
일괄
약점
교통망
재택근무
그램
추모
순방
용인시
추적
파기
로이터
기미
세액
민영
택트
보아오
당사
거품
##티ᄂ
돌파구
두뇌
그레이
김동원
##계열
##관리
근거리
팬택계열
자전
보편
박원
토탈
르노
무인
형국
소사
창원
할당
부연
유용
전례
세수
별개
숙박
스타이
시초
사용료
출품
롯데마트
##ᆺ불
노스
캔
상주
파티
훈장
##숨
스톡옵션
한남동
이득
##든
불출
##협회
증감
순손실
안방
준수
대덕
자부
밀접
##ᅡᆨ스
기세
유예
##네마
입주민
시판
스파
관료
##미널
시야
##제강
오산
포르
피아
파월
흥미
동국제강
하원
구직자
방위
딩
후계
존중
댓
일용
인덕
아시안
##기술
손상
향방
결과물
서플라이
신뢰도
메일
개막식
수영
이원
시한
극장
세율
##미스
과기
백색
공신
고교
순서
휴식
소식통
##결합
판로
순자
##물관
김상조
레인지
후원금
피로감
보류
이윤우
##아이
##못
넥스트
록
다짐
결단
상대방
위즈
리버
페어
스톱
파생결합
파생결합증권
복원
대국민
승소
알고리
자본금
다이슨
알고리즘
경보
역시
수당
권영
스테이션
케미
세전
전동
대여
상시
개소
개관
동생
잔액
이성
시바
전북
용역
시청자
##특
분주
##버터
터미널
노무현
보드
감동
화학주
한화케미칼
제너
인버터
웨이브
대립
덩치
홍라
커네
사명
시동
발달
아쉬
스트레스
아쉬움
실속
##장구
거절
분실
배상액
수순
바텍
완성도
골든
구본준
국한
승부수
공감대
대미
저희
챔
동남아시아
대란
한림
위아
한모
박막
릭스
이스라
글래
경위
본관
버팀
공천
이학수
이스라엘
업과
고양
##라크
피크
상정
노래
초음
버팀목
인피니티
##으
법상
##카운트
정국
##마디
승승
##킷
평창동
한몫
선풍
경제학
가맹점
장인
동종
테러
##랄
연임
##라비아
푸르지오
최우수
랩스
날개
##센트
##척기
서기
용기
##팬
알렉
도이치
판촉
스코어
홍라희
승승장구
이준
박물관
선포
발송
리드
번역
인적분할
고통
권역
몽
모디
당첨
충북
롯데칠성
주효
경량
강남역
리모컨
인류
노근
주식회사
티켓
최상위
쿡
인체
믹
효자
시그널
##삼
##상승
경기장
사이드
사와
상식
아랍
촛불
공소장
##맛
김창
##베이터
합작사
화답
유아
정세
진로
각각
실명
번지
상업시설
캐논
베이스
조합원
실형
마찰
저성장
드림
대응책
플라자
핀란드
동북
##쇠
이력
당선인
대열
##르도
코웨이
치킨
벤츠
최경환
유행
강경
특강
재판소
증착
한마디
왼
##경제
로직
국당
적시
주축
제네
분배
국경
무단
##바겐
폭스바겐
주부
청취
잔여
벨트
펫
기후
수성
##면적
##상부
어시
상실
장부
##구심
간사
각계
자전거
주소
댓글
조현
의구심
첸
질의
광저우
뷰티
사우디아
정실
고집
재청
잘
강소
래미
냉장
김병연
우크라
정액
코노
롯데제과
고용부
##문화
##티나
직결
쑤
허리
야외
발주자
사우디아라비아
정작
##회의
학사
컨텐츠
##다운
주차장
##테이너
크레디
며
##대문
평양
아티
고위급
##일보
도모
경제인
링
모금
밸
대지진
수전
집권
각도
내리막
불출석
시멘트
##어드
적응
창사
광고주
스턴트
융자
전성
질병
팍스
시큐
분대
감자
유의
##라운드
김인
룩스
##방향
질서
크리스마스
하늘
라이벌
스팀
전철
서로
동유럽
직영
하버
##권자
단속
덤
반월
일단
##깨
그랑
초음파
강행
##ᆯ렛
연산
후임
월급
고품질
얼라이
이현
성비
방증
칠레
충성
컨테이너
언더
백악
##멍
얼라이언스
목록
퇴출
백악관
상의
냄새
입구
우시
여수
워크숍
수시
모스
슬로건
시장법
종일
위법
내실
급식
불가
용어
공통점
이창
횟수
농심
조종
적발
##여대
이화여대
재해
블라
잠실
일명
##커버그
하우젠
##마블
식기세
넷마블
식기세척기
강호
##닭
스폰
##명섭
##ᆯ레스
넘
가액
공작
국빈
도분
날짜
트레이딩
이머
유화
스페이스
##징마켓
이머징마켓
전부
대유
동조
##ᆫ들
드레
고수익
잘못
매경
회원국
스폰서
랭크
프렌
진상
일단락
증액
구호
감수
신세계그룹
요약
리딩
재청구
노동조합
셔터
양문
넥슨
억제
해지
성실
림
촉매
틈
도발
##얀
아르헨
넘버
박재
칠
초콜릿
글래스
##빠
##자원
기류
양형
저소득
아르헨티나
최강
예견
##묵
##빗
대사관
##퉁
이공
##기구
연예
##규모
지점장
##젠테이션
##회계
후폭
재판매
신축
타진
콘덴
통계청
콘덴서
죽
##눈
소규모
적성
윤석
##산업개발
크롬
이규
증세
##강호
센트럴
덴
응시
외교부
분담
현대산업개발
어프
엘리베이터
래미안
후폭풍
##통화
정용진
##낙
연면적
행장
카메라폰
##펜
##반등
급반등
양쪽
입성
체류
석권
##꿈
수학
고액
단체장
##절벽
비행기
종업
마니아
재닛
어음
재정절벽
조망
미스트
빚
##렉트
막강
##실험
공급자
관찰
장담
재평가
별세
희석
히타
숙제
영통구
클래식
큰
솔리
어깨
승용
질주
뱅킹
##스ᄐ
부응
실체
특위
편중
국제통화
레인
교통부
까닭
국제통화기금
##픽스
##소싱
점심
아웃소싱
상반
장내
##코웨이
웅진코웨이
구인
판매가
핵실험
히타치
근린
니지
쿠팡
지대
상존
정진
서경
##관계
##타운
##젯
편의점
어플리케이션
빙
아바
표창
유관
치중
귀ᄄ
초미세
상원
성립
탑승
핸드폰
공대
집약
젊
남양
세정
한쪽
전자파
광원
흡입
사채
보전
남녀
##기준
속출
팽
그해
중가
##ᆺ대
법칙
와이드
##바꿈
가열
호기
바스
빌미
신호탄
운명
장학금
기분
보르도
다이렉트
셀피
반값
진위
결실
##렵
중학교
배달
##ᆯ렌
석방
사활
공룡
추경
내재
본체
해결책
멘탈
남아공
상근
경비
유학
국적
관련자
로엔
퇴임
커버리지
이라크
보름
챔피
국영
김수
올인
법제
제너럴
임박
저커버그
영화관
##샘
객실
솔리드
오랜
##보스
민사
민원
김학균
오랜만
노총
사용자
오른
급속도
스튜어드
신년사
##니지
박강호
삭감
##리티
공범
한국가스
##ᆺ다운
##마킹
##코더
문사
지도자
셧다운
벤치마킹
##정부
해고
아일랜드
디스카운트
타개
숍
농구
스토리지
시카
##지배
경연
매기
분량
국책
애드
하이트
후속작
##섬
초유
쑤저우
원년
나름
스케
스케이
##비드
##구조
모씨
발길
과대
환송
효력
셋째
풍력
콤팩트
보이스
스탁
##고기
위증
광산
하이센스
랜드마크
수납
미분
박수
크리에이
##ᆮ음
믿음
장마
대리인
한상
종속
이순
모방
발열
절하
탐색
스키
위크
박병
폭스콘
태웅
월가
##첨단
##까이
최첨단
짝퉁
기원
모친
##크스
리빙
송명섭
힌지
산단
크루
윤곽
이선
수송
가담
가까이
구리
노이즈
##기지
모회사
기술인
양질
체포
근속
왼쪽
턴
이오
청원
릭스미스
미달
미흡
영위
비스타
공직자
미얀
플레이스
##대로
연상
충실
브라우
부친상
한국가스공사
##볼
나중
형량
캐슬
립식
관전
모티브
##디슨
각사
승용차
미분양
수색
휴일
알렉사
제트
조용
무장
##깔
이지
전락
카르
음료
뱅가드
##지사
빗
일진
동료
패소
담회
신경전
##ᆯ러스트
클릭
잉크
일러스트
##자재
대당
필라
손잡
연계증
익스프
도서관
시네마
주사
숲
현정
##피스
신성
결성
호수
탈바꿈
묘
##삼성
부위원
반독
종로
확립
##준호
직주
##처분
부위원장
가처분
차액
에스엠
연장선
르노삼성
미얀마
전진
퇴근
도전장
##구치소
서울구치소
제약사
한양대
기업지배
계약금
이해관계
기업지배구조
조윤
코카
직구
베타
드로
멘토링
반독점
닥
##기소
한강
포상
육아
금상
인과
위로
천연
왕세
이모
유족
자판
오일
디지텍
야후
액면가
중도금
서해
입시
알리
컨트롤러
주성
자매
일축
##미트
토픽스
취업자
택시
##긍
행렬
저력
알짜
놀이
대성
대림
코아
집적
##읍
스카
월마트
게임기
삼양
##게임
뿌리
강구
아무
구조개
항세
격리
실망감
시어
재경
##ᆯ리지
메달
플래닛
적층
레이크
밀착
##띠
##ᆷ선
##릿
한라
구주
방영
당신
역동
알파벳
칭화
며칠
앵
##ᆼ지수
##시브
만점
일산
구멍
##소연
평형
저해
캐리어
야기
밑돈
직업병
항셍지수
부패
스킨
순항
리먼
##백화점
루이
기환
##도어
업자
선법
덱스
분과
정제
참관
송심
난항
장녀
가슴
시행령
블루스
사령
이익모
##즈니
이세
아빠
##본부
불기소
한국전력공사
대륙
그리드
하이테크
롬
음질
보직
##교체
세대교체
택배
한눈
인증서
지도부
경총
괴물
챔피언
##칸
영예
생성
환급
전기료
화합
##주얼
종결
명문
##몰이
반성
리치
항만
국정원
한샘
당액
편법
의료진
교육부
##은이
시카고
척
만도
신세계백화점
자수
정품
소멸
간섭
낮
월세
김순
권유
강판
디프
디폴
리우
준공식
공화국
디폴트
우면
##차이즈
프랜차이즈
종업원
##뷔
전도
유심
소공
김윤
수출국
중심지
롯데호텔
제임
파란
프로젝터
영광
위생
교실
남편
꼴
젊은이
보너스
고소
다행
재건축
제임스
첨
만일
구치소
리니지
굴지
강원도
제지
규칙
데뷔
팩터
김정은
궤도
롤라
극단
연료전지
지오
##지휘
단자
여종
##베이트
이관
최성
환시
리베이트
헤르
급상승
트윈
색깔
빨래
크레디트
##ᆯ락
포크
무제
앱스
소설
캠코더
뚜
즉
##인수
마당
재질
역점
데이비드
하버드
중론
##솥
장시호
기공
연습
##님
박현
##음료
대표단
야간
대치동
민생
국방부
##릉
사각
가방
하강
##무식
오락
성금
포천
평택항
조지
성인
성화
템
할인율
수평
공언
출처
옥션
높이
송파
유감
위약
변곡
창작
상한선
변곡점
경선
한숨
진두
패스트
아우디
뭐
마인드
##다드
일련
파리바
##복지
##바키아
토러스
낙찰
게이츠
황성
장례식
몬
쇠
조카
신발
아이스
게이밍
텐센트
인맥
선회
##델리
산전
특례
적대
미래형
복안
권장
추궁
슬로바키아
장시간
캄
보정
차등
패시브
교육청
플라스
애니메이션
가닥
포스코건설
##ᆯ러리
김선
녹음
문체
로즈
남짓
아웃도어
##꽃
마우스
원조
국제회계
버락
국제회계기준
오현
코모
인사말
전용기
매집
재배
희생
의사록
칼럼
르네
김석
주범
토끼
##퇴직
동북아
철폐
돌발
뒷걸음
익명
습관
테라스
전념
금강
##무실
어드
임대료
피터
입소
자부심
##라클
아연
위약금
##ᅨᆫ
화해
발령
재부
아이디
뉴델리
조업
구원
##델피아
권영수
필라델피아
공표
저변
섭
장밋
청사진
연사
앰
##스팅
삼성메
불식
조성진
장밋빛
삼성메디슨
자진
강주
감당
태풍
##바람
동부그룹
파이어
오스틴
단과
월렛
##착륙
은퇴
정보원
와이어
##신호
핑
양대
뉴딜
각축
구미시
제주도
주재원
설득력
수산
의학
무형
무렵
존재감
골프장
수습
반락
신병
전화기
페이퍼
혼자
삼보
세일즈
진두지휘
지니
철강업
케이프
만화
한인
유닛
펌프
세분
징계
경찰청
여객
운항
브ᄅ
무더기
##빌
유산
유승
##산화
양분
명실
몸집
보좌관
되
김세
발병
작전
감원
상고심
상영
하계
셍
위임
재능
##ᆯ륨
비서실
저소득층
신체
##퓨터
민영화
최후
##텍스
플라스마
파스
카트
프랑크
조석
오성
영리
##컴퓨터
봉쇄
대인
유저
브로
본연
제프
신혼
방북
##브라운
후문
로버
표결
보상금
조경
우정
처장
사이언스
기본급
신인
존슨
마비
안주
직속
계단식
쌀
모기지
금품
##누
투수
황제
신청서
##몬드
정년
지각
초당
민족
포르투
사별
악성
##퍼레이션
##잔
연차
##미터
사업비
재학
안도감
익스프레스
하순
정재
도피
충청
액션
지명
수록
가죽
영원
##터스
디오스
야권
진흥회
시야각
자식
피치
##나타
극도
##ᅴᆷ
발족
##년층
표방
이미드
관세청
잭슨
귀띔
시크
볼륨
김유
월요일
저항선
빨간
현명
기밀
유공
김중
마이클
희소
유망주
여름철
기정
##그인
##ᆯ람
경주
##미리트
차용
전자레인지
원주
##석현
마이스터
침대
톰브라운
명실상부
시인
인문
간격
활황
채팅
베드
스탠다드
잔치
김기춘
우드
##서리
사회봉
범행
빅딜
녹화
행동주의
이기태
부결
공존
비브
박형
월별
황기
정치인
정의당
오른쪽
중처
서면
을
이태
매칭
종과
의견서
다이아
징후
베일
얼리
도중
취하
이어간
겸직
##풀이
교민
마케팅비
새너
병우
고강
환기
휴무
##파이어
독창
광고비
예산안
곤란
기피
지리
법령
태세
게시판
인덕션
정준
재팬
중국어
리퍼
사설
##ᅮᆨ스
##비안
현존
##공항
후배
##십자
이명희
최치
최재
반려
신생
아키
레지
녹십자
노릇
전당
잣대
세간
비ᄌ
외주
학력
공동체
모빌
신주인수
##푸스
서경배
신주인수권
톡
##시계
양수
플라이
냉기
##에미리트
퀵
아랍에미리트
주저
수조
신원
보육
렉스
루프
홍콩항
드라기
기공식
##턱
비아
멀티태
일렉트릭
분기점
평등
언스
윗
박진
트로
워터
##키스탄
모터스
제철소
셜
톈
경희
다보스
김민
리츠
양방향
행정관
스티븐
메디슨
##푸르트
프레젠테이션
스와프
프랑크푸르트
##껑
삽
공직
디즈니
산화
사법부
신조
광명
취합
농촌
탈취
경계심
포르투갈
정정
모서리
결승
근간
석학
덤핑
진작
월평균
드레스
각지
킨
열쇠
탈락
대구시
비젼
##둘
외인
재임
양보
축사
굴기
호흡기
거짓
자랜드
연쇄
위촉
마사
직거래
어드배
우즈
성영
##블리
치명
지형
##가상
##돋
제강
정호
고장
선배
원심
본안
키패드
풍경
후계자
모친상
전재
정립
출현
국제공항
컴프
슈미트
스테인
시초가
브라우저
혹
전폭
송탄
시리아
겉
고비
비핵
김광
스테이
올림푸스
색감
헤드폰
비핵화
##기능
레인콤
대명
영등
필드
교보생명
고안
외식
재가동
##코인
어머니
터널
갱
카이
조병
##세이
##랩
한미
광복
비트코인
브로드컴
##티넨
미쓰
기술자
노벨
파문
직관
##밭
군인
몰두
##연구소
닥터
심상
##스킹
거기
##사체
한컴
빔
피에스
파고
심혈
프리즘
둥
주머니
방점
카우
양강
입수
블루칩
입소문
##ᆷ구
과다
배수
##만장
김경민
덴마크
그립
매트
표기
자격증
브릿지
이석채
멀티태스킹
화력
독식
벽걸이
##승훈
우한
서구
발걸음
분당선
김순택
영등포
##횡
몰락
발돋
금호산업
내리막길
발돋움
부임
외국어
환승
광산업
사망자
소량
고사
구두
미국인
청담
임원진
지지율
공학부
보쉬
패권
명동
재판장
##예금
배상금
오라클
##구니
구단
##관세
문턱
독서
낭비
뚜껑
되풀이
지재
그라운드
공과
##위치
본토
면허
고속철
고속도로
조찬
예단
랜
계약서
지지력
한림원
톈진
어드밴스
오페
외곽
운임
닉
묵시
사우스
코레
버크
평택역
넥센
학부모
연예인
##스테이트
솔리드스테이트
이점
실습
과반
김희
##양행
권익
##덕수
월말
유한양행
큰손
뒷걸음질
즐
전셋
솔로
통장
멜론
난야
밀크
박삼구
크리스털
##테일
턱걸이
교과서
공청
정주
고체
인기몰이
납세
세척
내지
법학
패닉
녹지
습도
##샵
선풍기
수험
첫선
##밥
공실
코인
호아
학업
입금액
그랑데
31
41
51
61
71
81
91
업적
반경
노태
남방
응급
101
121
111
171
151
191
161
141
181
131
201
211
221
글자
오늘날
야심작
이직
사주
부의
오렌
##분쟁
휴직
##르기
특허분쟁
프렌즈
다이아몬드
기숙
스스
진열
협동
이바
옥석
수십억
샌드위치
시차
성패
문단
다리
몸값
##ᆯ라이트
##기기
##비전
##반대
불발
낙하
듀오
루나
경감
인자
장식
한시
윙
중소기업청
일렉트로닉스
손잡고
자립
안양
박태
격상
엄마
용산구
##ᅲᆯ레이
연례
##닌
입자
베어
식각
큐리
조석래
오렌지
시공사
미소
서천
발매
피사체
총상
라운
흰
재산세
제네시스
##랙
비례
김주
능가
페루
제작사
32
42
52
62
72
82
92
##톡스
사도
상해
보라
금전
문형
약식
##ᆯ러지
102
122
112
172
152
192
162
142
182
132
202
212
222
테크놀러지
연설자
이희
제보
밀리
총출
킴
참사
평균치
공청회
유영
##ᆯ렉스
##르크
캐스트
스스로
이니
주위
소상
한파
노치
천문학
브레이
파브
맞대
이영곤
당첨자
##일렉트
기적
##슬러
##로닉스
폭로
접점
암시
김형렬
총출동
##일렉트로닉스
##사실
공법
인더스
여권
##찰청
충원
마이크로
합격자
수천억
대검찰청
사수
정반대
실증
영풍
보험금
납입
맞불
캡처
틈새시장
무더위
##뚜
##질랜드
분수
##결제
뉴질랜드
풀가동
이인용
수반
수탁
##구역
선인
훙
저지
망포
뉴스룸
은닉
등재
자영
실외
보존
환차익
시스템즈
논평
항의
옥외
##기에
가산
발상
노광
심재
채산
정몽준
이경수
시어터
기름
수개
연주
포승
이베이
쿨링
##농
수거
세균
아워
##교육
온기
벨기에
장례식장
유공자
이체
정장
##거움
불복
프리미어
알레
시뮬레이
즐거움
감리
양재동
서원
문학
로그인
직군
접견
퇴직금
대항마
그로스
의제
과점
당진
형평
늪
한정판
##트론
분포
##제약
반문
동상
디레
##통신
휴렛
사이츠
티저
시큐리티
기정사실
##만장자
##ᆯ렬
경합
##레지
번영
웃음
던스
랭
수료
오스트
환호
김신
트라
트러스
검출
슬롯
트럭
수개월
뼈
##ᆷ살
코랄
구별
윌리
피니
산자
초연
##디드
심포
엘시
박영주
일례
기숙사
이혼
부속
반포
포탈
래리
이용료
부담감
포토레지
포토레지스트
증후
반환
모스크
우월
강좌
##단체
편차
버지
망원
증발
##식간
##임자
##교통
타협
흰색
이스코
메카
체코
농산물
좌석
핸드셋
##티넨탈
란
가짜
딜라이트
평생
아만
요원
홍미
##베이스
프라이즈
30
40
50
60
70
80
90
거물
급성
전문점
마일리지
100
120
110
170
150
190
160
140
180
130
200
210
220
상속세
시크릿
전셋값
##까
경과
생일
여신
김은
태그
선수단
앤디
##냐
주권
밀라
옌
예수
램프
주거지
인텔리
소공동
주유
관할
##미아
##금융
교대
품사
풍산
배우자
증후군
박지
박찬
교두
물밑
선물환
예약자
와이즈
쏘나타
##릴
인위
고향
보사
포켓
순식간
양회
희망퇴직
첫해
스위치
##퀘어
선봉
성광
성률
강북
어제
크라이
친분
착안
그래핀
제롬
##연구원
거버
개연
연성
면모
견인차
겸비
크리에이티브
##뚜기
정문
마곡
아성
김문
심근
퇴사
창의력
잇
수교
유종
출산
형편
눈물
손목시계
교두보
##감사
중부
방사
임차
임베
근절
회의실
김성환
캘리포니아주
임베디드
소추
##코드
델
입맛
컨셉
닛산
시국
부별
소녀
구청
재용
에릭
안목
컴즈
역삼
출장길
김동연
호암상
공습
예선
딤
판매고
역내
불신
웰스
결렬
광주시
##넌스
##힘
이진
시무식
국민연
맥북
이바지
거버넌스
##럭
지부
코리
마리오
집무실
약주
과언
밴
진학
경영난
대표부
생산자
악용
식수
##와이
글씨
##먼스
매파
세포
서유럽
방청
릴
심도
니케
##ᆺ돈
장하
##퍼드
수능
자금력
엘지
스테인리스
모스크바
통로
산업자원
예정일
황사
오페라
산업자원부
툴
부사
경진
괄
과실
##포먼스
폭염
퍼포먼스
웰빙
##탱
전신
중산
세법
장수
언론사
트랜스
상임위
기용
개동
정현
고의
서한
식음료
두바이
울트라북
사익
콜로
##보험
디톡스
김홍
홍성
소송비
##탄소
어린이집
프라다
기상
수동
##목적
킨들
사무국
신촌
텍스트
경희대
이트
##지노
공용
투쟁
강현
##공원
기가
위력
포레
아토
복사
당선자
강원랜드
박정호
최치훈
대별
환차
커넥터
28
38
48
58
68
78
88
98
마쓰
해피
양향
송출
108
128
118
178
158
198
168
148
188
138
208
218
비관론
도덕
##ᆫ드라
약관
물산
##토랑
전년도
틱
쿠쿠
레스토랑
세계인
심정
##순환
괄목
지탱
오스
앨
입건
독특
니얼
봉송
투매
양향자
실과
편지
에스티
테마파크
##메이드
분해
오뚜기
위조
신제품
산책
클로
보증금
피니언
국민연금
##퀴
이타
지회
매가
다목적
양면
샘플
보험업법
산유
변형
손자
박용만
이색
가결
가습기
비유
애프터
트랜지
밥솥
환차손
트랜지스터
주상
##스톤
##종호
차종
디지탈
루레이
내구재
##삭
전적
상자
오디
세컨
비둘
##데스
형상
석탄
번가
유승민
디렉터
세컨드
비둘기
정운
불매
레퍼런스
최저가
##레이션
충칭
데이터베이스
셀프
교환기
##쑤
사출
##리사
섹
해임
물동
모바일게임
대중교통
바스켓
억만장자
##확
실권
통관
로밍
##노위
몰이
윌리엄
럭
##삐
최자
겸임
짐작
이산화
전언
대동
상인
##빅
아울
특집
간과
삼정
이규철
전영
처방
임의
감세
바이두
스캔
정준양
아울렛
이즈
영문
저감
삼각
수행원
아바타
전인
전류
현우
카자
본선
승장
테이퍼
사과문
킨텍스
크라이슬러
최자윤
수강
자정
성황
산적
변모
관리기
로버트
밀라노
카자흐
전차
수퍼
인디
##승마
무용
검장
구매력
대한승마
탐방
대한승마협회
흠
리티
카지노
품귀
##캣
##플렉스
환노위
약자
센싱
초청장
장애물
중계기
전가
최단
의외
질타
송전
##턴트
풋
컨설턴트
증여세
상응
업로드
인선
##간힘
에티
안간힘
프라이스
텐트
물동량
시백
지스
국부
준원
사간
##구름
##어리
재연
김원
메트로
임무
검진
최창규
단서
목전
워커
명함
반기문
과목
표출
남매
기염
팝업
을지
추억
오스트리아
##ᆯ시
##툰
정산
##픔
위닉스
무력
건국
직간
악순환
대우일렉트로닉스
농림
엘시디
부금
동요
##우지
본회의
혈압
추모식
직간접
이랜드
시노
경유
세븐
성원
첼시
보유자
김종중
##자외선
시흥
극자외선
퍼블리
메이크
##겸
위메이드
추도
애정
롯데월드
계약자
특별법
송파구
사격
관문
내국
##타르
인사이
무선랜
병점
보일러
젤리
영웅
추수
안산
이노션
공영
신일
##과점
재기
롤
벤드
황교
김세중
딤채
구로
이재만
난방
햇
##무역
캐스팅
싸이월드
상암
개교
세입
코퍼레이션
동선
금년
워드
자금난
중앙지
소모량
강호문
##지엄
상처
한풀
브이
어학
학자
조선소
신청자
스위트
##기세포
올인원
심포지엄
반열
모녀
서피스
과태
호찌
학점
앞면
권선
팁
착시
과태료
부시
젬
오리지
선위
##당선
레이더
권오준
먹구름
실무자
신분당선
궁금
남아프리카
##마일
실종
배열
안쪽
##ᆯ리스
환전
기준일
심비안
부담금
킬러
납득
정기예금
유니온
혈액
##쿼터스
유비쿼터스
부의장
지혜
자구
자살
미수
세아
비시
합법
##접속
수입품
검사장
다중접속
이세철
컵
장년층
##플링
영세
방미
침체기
나이키
오현석
황교안
끈
등주
##동원
동대문
천장
홍완
송수
에이서
사이드카
마쓰시
이은
스마일
메타
휴맥스
액자
온의
윤주
가속도
황성수
을지로
떡
신저
디엠
흥원
기념일
##힐
블루스퀘어
현역
보다
동급
포문
피플
릴레이
직종
##바닥
연수원
신상품
보다폰
29
39
49
59
69
79
89
99
이태원
개화
공군
유임
출사
산시
산타
연구자
세계무역
##서비스
챌린
불꽃
109
129
119
179
159
199
169
149
189
139
209
219
귀환
길이
옥상
잡음
산유국
제습
투심
비료
진통
파면
래스
각인
침구
페스타
미세화
헤르츠
캄보
자영업
궁금증
촌
전광
자족
종근
##어로
이봉
필자
캐주얼
혼다
해운대
##셔츠
##앤텔
흡입력
고삐
선주
피앤텔
지원서
자산가
월지
키친
송종호
스틱
김대중
기증
지장
대납
출혈
원청
간주
바까
당주
콘솔
닌
징수
박영선
한솔케미칼
제자리걸음
팍스넷
솔로몬
오리지널
캄보디아
바깥
고순
영동
내주
목요일
태극
텔레비전
정확도
서해안
조병현
종근당
시술
상륙
영훈
성전
성분
과천
다자
박동
체면
##자산
천재
문장
북측
유치원
제안서
해운업
조리개
턱밑
냉장실
라운지
나이스
쎄
지사장
매뉴
선생
후진
어필
격돌
난망
출범식
숨통
세계무역기구
켄
차트
진심
특이
##스크림
테이프
저작권자
사파이어
상국
부천
유혹
소강
차선
법관
리더스
아이스크림
생산직
트루
관리비
키몬
브렌트
##감사절
추수감사절
##펌
사스
사재
##셈
자형
구가
거래세
방학
애로
덱
향서
승객
인플레
천안시
결혼식
이낙
##정지
정수
강력
아사
여대
임종
##버린
독과점
##앤락
락앤락
춘절
아이언맨
대의
##정원
영토
모하
신학
요타
김명
당황
맹점
클린턴
이민희
장하성
계승
적격
교훈
용석
노조원
양도세
정진행
키몬다
##쳐
##눅스
##ᆺ속
경호
만장
유라
소치
신사
동포
##난방
도우
단절
여가
적폐
##타인
##광역
윤상
러시
##넬
히어로
시뮬레이션
위장
산업체
베네
홍원
남향
장충동
성숙기
험
비대
서강
외국환
도청
품격
조선호텔
스탠스
개소식
##사전
##젤레스
##과학
과일
점프
변리사
워스
견고
줄기세포
춤
소년
옐로
아태
힌
찬반
왕세자
이낙연
전매
중보
인문학
실상
동등
초월
브루
농어
세탁물
개봉
공문
실생활
##행사
우버
본드
소비세
인사이트
기자재
레이스
증거금
베스트셀러
모터쇼
갱신
전투
연착륙
보행
브러ᄃ
리눅스
캣
언론인
옵틱
광역시
아티스트
브러더스
만전
미스틱
영남
통지
아크
##연대
토너
키프
잔류
웹툰
분노
소버린
모태
강성
재활
호반
분석가
합종
휘발
밸브
분수령
송수신
개점
포테
여주
김현섭
강현철
기내
거치
소급
투데이
비치
보석
성동
##스트럭
인프라스트럭
폴리머
인프라스트럭처
전업
##지우지
중장
슬
의자
핸
김한
물자
불허
참모
명소
추진력
신용카드
합의체
더샵
##효과
셀카
좌지우지
트랩
령
인먼
고질
서열
차남
원룸
로펌
직행
완충
광고판
주변기기
엑스레이
종로구
앵커
삼보컴퓨터
산자부
##게이트
개수
미래산업
질책
엑소
첸나이
조윤선
##ᅫ지
고착
산소
플래티ᄂ
민심
낙점
힐링
드레서
플래티넘
뚝
뮈
이채
유연
##마리
결집
특구
다발
후반기
불씨
회의록
##협상
주문자
이의
상기
영진
##연횡
##청사
남동
백지
아모텍
퀸
안철수연구소
일간지
합종연횡
수혈
비타
딜링
식별
봇물
대명사
마쓰시타
빵
활로
##부르크
실소
사업단
감익
침수
헤이
구경
성형
초보
##코스터
이달초
##레이터
고정비
휴가철
롤러코스터
협동조합
땀
##트리
부위
정공
장르
모자
강타
평일
노보
이상철
능률
동아제약
근린공원
역삼동
##뱅
오승훈
반감
고생
비약
특사
아이돌
##옌
뒷심
아산시
우면동
##ᆯ랑
경청
고영
##코모
##노총
표적
음식점
꼬리
대행사
김재열
##위원회
##ᅱ기
이터
보폭
서핑
용자
버디
노동길
덕신
흑백
가시성
##ᆯ랜
나이트
비자금
거시경제
##둥성
랭킹
카자흐스탄
싹
코치
##마니
재협상
바통
화학제품
이종우
홍완선
챌린지
찰
기평
부영
공중
일색
보스턴
추징금
순회
김우
회의장
자본주의
맥도
##제지
정연
강수
동호
차녀
리커
바겐
차이점
병합
칩스
한솔제지
제로인
호찌민
매뉴얼
헐
##ᆮ날
사직
상점
연비
이상일
초도
##나비
##현수
클레이
데이코
침실
폐막
균일
크리스탈
탱크
##터블
바디
채비
왓
전동수
이튿날
##ᆷ소
중학생
부하
한성
##틱스
후생
리비아
집착
이영희
쾌거
공론
증상
증산
반입
실탄
예매
동화
무보
운반
##레드
데이콤
침투
커플링
할인점
난제
영통역
홍원표
튀
출주
서강대
대피
제회
소주
비지오
신격
버그
견지
건축물
휠라
빨간불
전극
##조사
발레
##공단
평준
피델
물결
##버리
인터텍
명명
라이온
얼음
난관
헌신
아만도
신격호
26
36
46
56
66
76
86
96
전임
##루기
초호
후방
수익금
플루
계획서
감가상
##레서
106
126
116
176
156
196
166
146
186
136
206
216
226
쿠바
김인주
컴프레서
감가상각
돼지
##뇨
##네이
##상조
곰
도코모
순증
교원
##ᆯ렉
심플
##륜
##더링
히로
엠씨
드라이버
이선엽
뽀
상계
부침
일제
우울
아내
호칭
브릭스
광양
손정
극찬
민주주의
빈도
미미
솔라
프ᄅ
강릉
디아
애국
도마
메인
물색
청신호
수요일
온양
과학자
탈세
난이
스트리트
수서역
하버드대
유종우
##츄
##뮤
##원장
하남
실트론
보세
##로템
배관
현대로템
메스
##현동
##남기
특허료
티셔츠
시기상조
퇴직자
심재엽
애프터서비스
주공
인버스
미정
관제
회귀
장대
구독
판상
재심
아기
도미
단정
##링턴
집행정지
빈자리
##앤젤레스
로스앤젤레스
이봉주
##똥
시드
주중
대원
발렌
메세
계열화
이유로
보건복지
다각도
퓨전
##지기
##사각
부팅
제때
##주파
최시
포식
계류
지역구
돌비
항공업
획관
##타이어
정운찬
##가기
조국
조처
인스
인명
오사
스미
구애
모기업
디테일
단언
초빙
형광
##광석
##훈련
폐업
김영준
태평로
커넥트
버크셔
미결제
외자
요지
김철
저울
이어가기
##사업본부
우정사업본부
디오
##나무
리처
##딥
조정장
##러시
리커창
##리우드
반론
내림
박닌
카피
입출
소비량
##르담
불똥
텃
더블딥
부산시
이수빈
죽음
##덩
##지대
비데
출동
천명
산하이
전환점
삼화
펠로
레이팅
전세가
김장열
앨범
출사표
##광역시
##이행
국판
##롤
##어트
배석
점령
피겨
안진
##벌리
견학
##은색
메시징
초이스
윤석열
시찰
수만
##수지
최진
##매틱스
##보증
원안
카타르
텔레매틱스
티스
케냐
메이드
비둘기파
위례
마포
의상
식물
하향세
조달청
블로거
워커힐
프랭크
석시
이철
이념
전미
##정동
오세
올리
캠핑
넷째
미션
실마리
무화
##천리
학군
토리
각별
노르웨이
전성기
정주영
체이
##멘트
사연
시니어
하야
자취
관절
##맞
플러
회계사
##카이
출생
마하
제품력
후기
카텔
역학
은행업
버드
성명서
하와이
영구
성우
##공서
해산
##물살
도연
급물살
박석현
직책
총제
농가
폐렴
주유소
탱
제반
조승
인가
스파이
회고
우하
신선
아가
원서
계획안
울상
스타일러
스타일러스
스팟
김문수
전향
세리
한판
##소송
청각
펀딩
감도
참조
홍남기
라이언스
그랜
패킷
리처드
석실
##전트
화주
방치
협박
리바
참전
##병원
복리
##바구니
토요일
수혜자
창고업
욕심
파란불
##자유
전해
##유업
증서
단골
##브이
김도
시간대
쇼트
활동비
입주자
퓨처
혼합형
남양유업
넉
머스
기폭
주지
주연
공구
##산지
성별
디플레이션
##메드
편승
골목
##네시
찬사
동아시아
스캐너
유전자
기폭제
##싸움
이송
지양
##가전
반년
##해튼
모닝
계수
아부
심전
속내
레미
볼트
이존
일행
보답
##내기
강당
열람
##릇
휠
맨해튼
윗선
킴벌리
저울질
##헤
가사
제언
최양
구석
서킷
방출
##서웨이
파동
물꼬
라면
책상
적립금
##치부
위쪽
마녀
안개
휴먼
##텐도
농성
차관보
벨벳
그림자
인사이더
닌텐도
키프로스
보건복지부
쥬
자평
미드
출간
##진로
진대
예상외
약국
입문
이승철
하이트진로
한상범
기프트
연이
##로우
생필
적금
##코아
교감
크라운
두기
두려움
##취업
회전율
아사히
생필품
##ᆷ서
매치
진주
운주
집결
하이라이트
황민
강연자
잉여금
실권주
경동
##원지
정계
무진
바인
프로토
진대제
소기업
코앞
영감
상승기
차감
판매액
워너
손색
토건
롯데카드
##두환
몽골
블라디
광복절
넥센타이어
젤리빈
기승
대일
장영
피드
티비
힘겨
셸
박원순
추도식
힘겨루기
기설
보잉
포춘
원론
##파업
##등기
총파업
전기레인지
##남도
열차
쓰레
농어촌
이월
수억
율
인내
미용
고온
선취
출격
당면
물음
프로그래
##휴가
얼즈
산학연
톰슨
##셰
대강
고고
종사
신부
다면
남유럽
티슈
스탠퍼드
멘스
판가름
쉘
러스
흔
##팜
중추
개개
최정
방크
재선
경제자유
성장기
경쟁국
나우
게임빌
냉동실
이니셜
경제자유구역
##상스
비준
양판
최고위
위기관리
허니
물류비
##쿠버
촉매제
흔적
벼
##기간
미지
재취업
본지
손님
컨티넨탈
농도
찬물
조원태
##덩이
##쎄
주우
지평
비축
성만
내성
전자동
생물
진척
출발점
스핀
모하메드
수분
상설
상저
정형
적외선
김택
취미
학장
재판관
알람
신용도
히든
다임
김영찬
신분증
쓰레기
##퐁
##쯔
##지리아
소현
실전
구비
##우트
통업
아디
메르세
나이지리아
메르세데스
이엘
댄스
규진
피고
브라이
김운
파이프
유니버
줄다리
쉽
르네상스
혹평
콜롬
매개
관념
셀러
장직
엔드
##타늄
검찰청
이해진
경찰서
칭찬
거주자
이순학
콰
##사이드
정동
파전
##여행
극명
##슘
##폴리스
박성욱
줄다리기
사료
사생활
유성
연체
인허
##문고
현주
내각
결선
자산관리
중앙일보
블랙박스
박승
릭
쇼룸
니콘
군림
망라
레이트
##ᅯᆯ
기온
세단
우체
서진
마리
차림
애도
양일
트랜드
수요층
##저리
벡스
바이오팜
스티커
김영주
그래프
은상
사령탑
삽입
최시중
사거리
부원장
선태
재작
원정
닭
김봉
나인
##희정
와병
폴크스
동력인
취득세
좌절
수정안
전설
자우
달째
감찰
카르텔
전영현
사막
기린
공석
장원
선영
해커
연구실
특급
##코르
참여연대
##네스
두산건설
프린트
프라이빗
욕실
개개인
이호
시립
가습
동진
동네
진도
노골
도태
산요
적기
환상
##울루
처인
타인
면역
김용철
##갈이
피아트
플루오
스파크
##관광
판다
디카
천정
##청소
슈퍼볼
엘리자
쟁탈
기탁
실구
마블
도레이
채광
낙인
언저리
귀가
밀도
퀴즈
폐기물
아우라
##ᆯ럼
서남
원로
김혜
워즈
불명
라우
램버스
절벽
음극
격전지
위칭
##머리
##커드
흥덕
##곡동
술부
정호성
텃밭
##훼
국관
구심
##티스
판매자
법규
역차
아래쪽
봉착
공산당
기호
##도르
보스
금값
내츄
해링턴
아픔
결재
심박
이용한
홍준
토털
항균
전장용
여름휴가
현행법
초읽기
성남시
내츄럴
주안
스퍼
외압
##데시
홀로
작곡
건재
청계
토익
레디
##채권
티타늄
박근희
빅뱅
수백만
총력전
밥캣
밴쿠버
주우식
우체국
재작년
##벼
전구
전압
수식
조준호
고소득
평상
노바
##티어
간호
매출채권
밤새
목격
창문
라벨
엔고
웨스트
탈레스
검색어
공연장
장애인
아메리
쉼
##뒤
##콕
지체
코닥
몸살
위배
본업
패배
##거진
프리보드
더위
커버링
27
37
47
57
67
77
87
97
영빈
추징
산비
안랩
후광
윤영
107
127
117
177
157
197
167
147
187
137
207
217
김정일
락서
우즈베
난이도
##ᆺ트
깊이
##시마
주초
전권
조재
##프리
##프로
애트
환수
환류
##올
물갈이
모델링
페인트
브로드웨이
초등학생
앙코르
하얏트
##누리
대관
하현
만성
유류
위젯
안승
안면
초안
후유
폭력
조정위
납기
슈팅
전면전
드레싱
산시성
플루오린
조의
미스
장동
고서
동학
금회
도매
바크
##노트
복선
엔도
군단
판결문
엠피
소유자
역차별
25
35
45
55
65
75
85
95
수설
##그램
유업
##마차
강서
내면
에듀
판매망
이상헌
입김
휴게
예정자
임용
토목
105
125
115
175
155
195
165
145
185
135
205
215
베이지
225
싱글
파이낸스
김중현
신학기
뭄
젤
화우
미비
소용
일문
우성
여섯
폭주
농수
감사원
사무직
동양그룹
##켈
곽현수
크롬북
쎄미
##시대
##수수
고음
마틴
##우옌
박주
교도
심층
앞뒤
니아
송환
잔상
대법원장
습기
론스타
사회봉사
양판점
거취
공무
##래프트
오명
국인
관통
모지
아미
다방
로켓
##거름
승격
터보
노동당
밑거름
아르마니
옷감
서정리
구자열
재배치
태극기
아메리칸
영빈관
하현회
##둑
상파
공생
업소
자생
세빗
점주
약간
당내
처우
준호
액체
레시
백운
윤지
힐스
취임식
선명도
김지형
##저스
##멀
지름
개회사
조수
매거진
모리
내륙
한국과학
생전
에칭
무르
적임자
명가
토니
열광
조건부
근무자
김소
기념행사
팽창
스케줄
실외기
##탱크
##랭
시비
지산
수스
개사
##유주
정조
스노
영종
추대
의의
안마
경제력
바이오산업
별명
노동력
레이서
형사부
벽면
맹추
취약점
조용준
실소유주
사냥
중용
국조
투모
모험
코스트
포용
앨런
로이트
체온
##ᆯ레마
##카르
낙수
스카우트
후유증
가문
스리
보금
동구
파인
검정
철광석
방송인
기초자산
팩커드
이주열
최양희
보금자리
자선
인디아
일화
계측
딜레마
순유
김양
아이비
엔지
침묵
페이팔
베이비
스윙
기흥구
쓰리
례
전염
업도
연인
원작
속성
##ᅳᆯ이
헌혈
소매업
이우
기말
전고
가도
제의
소신
##일답
천지
하임
본래
난징
##기술원
크루즈
김택진
일문일답
한국과학기술원
##쓸이
##사원
비철
##보기
진저
원본
음식물
룹
사유서
전광판
사학
##ᆯ런스
제스
조형
연극
인치
소원
종교
서점
통학
아람
##코니
리브
당정
태권
국제기구
당국자
봉사자
클리어
##쉐
이완
오디션
세인트
추출
원기
원산지
초석
다큐
롤리
당뇨
중심축
표지
항암
티몬
교보문고
숙소
싹쓸이
##그림
대폭
국과
장거리
고대
강동
##성민
##라미
바코드
월래
라즈
지구촌
축구장
김창근
와이어리스
뭄바이
맹추격
이천
##가치
대접
코멘트
장병
코스모
판례
생애
재킷
특단
블레이
총동원
##북도
기자단
운동장
도우미
무릎
##딤
거울
##수원
출제
출금
지난번
여전
김해
행운
직함
어르
홍대
병실
로봇산업
은폐
학년도
밀리언
##계약
최광
비게
##미르
윌
발코니
디딤
##아시아
##라이나
히터
겨울철
스캔들
우크라이나
##늬
기로
주니어
오즈
박소연
감내
승산
근원
국민카드
축산
스크롤
습득
고양시
건국대
투모로우
어르신
록스
커스
부유
개도
세관
외출
마르
저온
##러닝
악수
식기
##예산
희망자
춘추
콜롬비아
가미
반향
플리
서랍
통찰
다산
박기
직위
상황실
페이턴
샤인
귀추
출원인
밑그림
옴니
쟁탈전
디딤돌
력
쥐
##자전
##자드
인성
강덕수
금고
외국산
##니스트
검은색
존속
케이티
혜주
진공청소
블라인드
과반수
진공청소기
##궐
조인
조준
조류
최병
##필름
호프
박탈
폭풍
##토모
이동해
레티
동부건설
루미아
프레스센터
스미토모
개도국
##따
주액
##지가
하트
소독
세교
고기능
##일치
어도
크노
##렌드라
복장
관리법
컷
##윤모
플로리
우즈베키스탄
퀘
##뭄
##뛰기
##이크
이강
전라
그녀
개원
공휴
유령
모노
사업체
에드
##아산
문항
나렌드라
일본인
네스
##두마차
힙
자연어
유니폼
폭락세
환영사
위아래
시마
가뭄
중후
젝
한동안
모형
##일비
네이트
퍼플
쇄도
도이체
심상정
만장일치
초호황
심박수
상파울루
시발
대축
자화
실익
장난
##영호
무드
총영
##슐
와이맥스
옥수수
김영란
엑손
챗온
시큐어
크루트
척도
사각지대
라이온즈
공휴일
##기부
분경
정온
##소통
방전
피자
여세
무근
브러시
치매
도시락
항체
항구
공시지가
누계
의사소통
왕성
대역폭
고품격
희소성
채산성
섹션
탱고
그날
##대식
미등기
소품
세도
한경
동방
밸런스
단초
호출
청춘
##웬
##레오
웨스틴
백만
압구
극동
소닉
입체감
##촨
이웅
사계
정태
장성
해서웨이
영업망
무관세
박모
목숨
##스트라
절호
복병
컨셉트
혼선
초대장
사로
기산
주선
가성
개회
공상
정병
고충
우방
강진
도금
##경기
프롬
##방울
겸용
연락처
휘발유
총영사
녀
삼성타운
고율
위피
피소
박준
편견
##다비
키코
책임감
기지개
왕좌
부대시설
후지필름
각축전
윤지호
어도비
뷔
전두환
국유
한승
옛
종식
모비스
과금
원점
역풍
태산
홍석
누락
벤더
땅값
마그네슘
맞대결
벡스코
##쁨
기쁨
화각
##회로
관례
소홀
구직
발머
에르
원수
김일
푸틴
렌더링
아산테
장악력
인텔리전트
아부다비
주무
정오
선과
##롤라이
해군
특장
문책
##연맹
##놀
엘리트
김유겸
##롤라이나
##뚝
전초
대교
개진
하소연
세코
마루
멜
수사관
윤태
##창기
폐장
번인
이승혁
스케일
왕세제
홀로그램
이케
##수스
유포
자만
비화
재량
원은
##학규
##브레드
관심거리
인터랙
가입비
방문자
할리우드
자본재
##넥스
힐러리
고가주
스테레오
김태한
세리프
진저브레드
연패
소파
모나
##출산
마타
전자사전
##무성
특권
영업력
무혀
다크
직사각
해외여행
이용해
시스템스
데이드
김종인
물리학
케미컬
현정은
청담동
백운규
이연
위헌
우산
포스터
도지사
후쿠
작국
저출산
승기
중간재
유니크
시사점
##캐롤라이나
베어링
##둔
시련
화석
정우
소울
비엠
강변
내심
아머
테네시
브랜
이동형
관세율
유로스
박종우
조영
인스트
인척
의중
재투자
해수
##앗
충고
육군
혼재
주간지
볼거리
재경부
사계절
지칭
가든
억불
코디
회선
한방
성취
성윤모
##경정
웹젠
호기심
##타임
##킴
주립
수력
장당
한동
신현
연구비
타계
홍수
석상
신동주
증명서
평상시
다방면
레시피
데이드림
이돈
주지사
거제
부피
유악
오태
관공서
회식
한종
선적
통풍
뉴타운
##키드
##철도
침몰
듀폰
에이수스
그랜저
장원기
이형
코딩
선불
애경
##아들
호치
절정
얀
숙련
갑부
아베노
시발점
##이스
수의
경질
위사
통역
한국노총
생계
노크
급선
후강
바로
교재
파우
엄선
씽크
속보
다이내
트러스트
윤상직
김운호
전대
대부
##드레
오인
오로
동해
초창기
김남
역관
##창원
골치
수입액
네이처
금지법
잔존
플로우
유영민
세입자
발렌베리
피드백
##넌트
##ᆸ터
##쌍
조각
정석
미라
스가
일신
통행
도난
결별
무급
데즈
약발
전략가
명장
##닷
열세
알테
찬스
수영장
기시
연구회
파키스탄
물체
추가경정
한화건설
군산
관광지
브레이크
코리안
정현호
오사카
원기찬
##닷컴
추가경정예산
##팝
##ᅭ핑
##ᆷ쇼핑
##부즈
##동자
비엔
우편
##로리
현대호
단열
초입
박광
변조
학문
키스
발전기
누설
작업자
루트
옴부즈
콤플렉스
플러그
블라디미르
가게
매스
매일
정가
한영
기술진
전문대
손길
##처리
황은
특별상
쌍두마차
징역형
이코
그늘
장쑤
보람
위시
성도
무덤
휴양
저탄소
틸
현대홈쇼핑
이평
사위
전반기
수균
개그
##프리스
일요일
순천
박선
행업
디스커
입상
창단
면면
등록금
첫발
박성호
성황리
험프리스
엘리자벳
디스커버리
가드
공관
현업
평점
적다
##남성
최고조
손바닥
유가족
품명
정상급
싱크탱크
프렌치
정조준
공주
소손
모의
진규
##분투
특파
판매처
광둥성
속행
바이저
용설
탄압
탈착
머크
현물환
넥스텔
외교통
경력직
김준기
간사인
드로이드
##업자
개조
##화학
국공
재수
광공업
교정
팰리스
총체
용이
북경
연합군
자유자재
휘도
고릴라
트레이더
후지쓰
토큰
흠집
유재
##피탈
방콕
아쿠
기관장
박지성
교부
##즐
기본법
울트
##캐피탈
튜브
뮌
서정리역
기고
주임
하성민
비주얼
재탈
해답
에피
본상
심경
협력체
차이나
이동근
계약직
커드
로지텍
파이브
빈곤
숙명
중기청
박정원
거치대
헐값
수식어
재탈환
##떼
이면
제압
조약
인파
오창
##맷
##익재단
##공익재단
환금
프로덕
하이드
항고
대웅
찬성표
삼성생명공익재단
득점
팽배
프로그래밍
레딧
제스처
이숙
전술
금성
경채
인계
일풍
블리
불당
손절
액화
품종
목적지
김종갑
금강산
뮌헨
영양
위인
신정
차은
사업가
디젤
단시
대비책
##테스트
어답
폭행
##하나
충주
협상력
보호법
##ᆯ슨
으ᄄ
살균제
거짓말
이케아
어답터
썸
이대
수은
가의
가변
관악
장만
비지
필연
준가
할애
근로복지
트랜
휘트
여럿
외교통상부
근로복지공단
이구
부와
개당
분자
회상
일수
스마트카드
광폭
교란
로컬
목동
조선사
사각형
롤리팝
기도
분별
##프닝
영덕
포맷
해프닝
요가
박인
카본
양식
주요인
품절
농민
완성품
##케인
획단
셔츠
특파원
##ᆸ자
기습
수심
선상
선처
우스
금연
방직
##각규
양부
역발
##노선
음반
##ᆯ루엔
라이언
징벌
비전동
스프링
통일부
득표
적십자
마사회
동호회
상계관세
기틀
수질
가난
조서
매탄
화요일
최영
예보
성북
서방
단편
김버
리뉴
채굴
라온
독거
권혁
눈독
삼천리
엠티
유니콘
김영재
수십만
이영규
##문화재단
천연가스
분출
마운
일본어
##연시
향배
황각규
삼바
여행사
캡슐
백색가전
납세자
사찰
부적
##제리
자외선
세난
현시
현관
통째
에지
이상완
브론
브라이트
후드
리전
편향
##박질
피해액
박상현
격려금
박원재
브라이언
바로미터
##ᆷ비
하림
슬링
소회
코일
장바구니
강인
동쪽
마법
##날드
반도유
휴업
소송법
커플
야근
번복
##보증기금
사슬
전관
정영
회화
한식
서머
통산
테인
바둑
청호
감행
이동훈
응웬
잉곳
클레이튼
밀리언셀러
역발상
람
##져
지기
지킴
대손
중독
억대
투게
보령
마필
재검
도면
도박
홍익
마지노선
헌정
메이크업
한종희
투게더
이효
정승
일별
배드
단추
파행
##메스
눈덩이
개최지
신용거래
능률협회
##ᆫ텍
##다이
기운
##전선
자처
정답
신정부
금일
##콧
감탄
라오스
연말연시
타임즈
풍요
이랜텍
펌웨어
서원석
구심점
고음질
##전환
대등
자폭
정은
미행
관중
장진
프론
발신
동률
포터블
아스
요양
##하리
홍하
온수
엔에스
렐
벤트
팬텀
이해도
왕국
여행객
셰어
이중고
##멘터리
집적도
결승전
체이스
다큐멘터리
차은택
젼
##엣
##탐
등산
조이
선반
내기
여정
##벌이
박자
후판
위원단
불문
백업
흥분
노동절
김성주
광산구
맞대응
화정
##주택
유대
유능
외아들
진원지
원상
단국
초록
다니
박중
카톡
황영
틴
선택지
영화제
컬처
칼로리
화장실
보이콧
호암재단
국경절
박재완
낙하산
떼
옹
퐁
대권
상화
가교
최원
고백
우유
홍영
낙후
소개서
착륙
##씽크
시그마
웅진씽크
제프리
재검토
웅진씽크빅
기치
주름
숭
테헤
설명서
치유
레베
백종
전력량
부산은행
슬림형
제이코
출판사
둥지
정연주
##카르타
테헤란
뻔
수변
가요
조동
장미
보광
사업주
생동
##라마
도용
손영
베테
##불이행
필수품
측정기
트윗
메르켈
헬기
채무불이행
즈음
박종석
안성호
위로금
알레르기
띠
##ᅧᆷ
깃
##지스
##수소
자성
국어
##로로
마중
계상
진일보
플란
합창
사회단체
민국
이재윤
레볼루션
연합체
삼진
셰일
동아리
놀이터
이력서
아무것
현시점
##팽
이식
이팔
사표
##사고
상승효과
생보
재점
아틱
특근
다량
박세
##태평
바오
기준치
##포터
패치
서울역
타코
타타
격성
곁
알선
재벌가
수리비
웅진그룹
포장재
쓰촨
##샷
편광판
뽀로로
마타하리
이팔성
재점검
쿤
조혜
자카르타
인환
서영
발등
##성가
저서
상대국
백스
가스레인지
커리어
안전판
청구서
메리어
봉합
##쿠스
콜라보
크리에이터
다이내믹
베테랑
삿
경이
##주현
한참
##마드
위드
내셔
판시
재추
요르
바지
목걸이
센텀
탐사
탈당
항공편
최적화
박병엽
애틀랜
써
기선
주원
수법
대어
대양
##상태
영하
위츠
##니카
원스
리틀
총량
승패
##배우
바이브
황유
항변
냉매
쇠고기
햇빛
이장
이티
주형
전속
공적
공진
한신
현기
##닐
통폐
규탄
다만
주도력
인플루엔
필립
만족감
유니버스
먼데이
상상력
박정희
##바이트
정세균
망포역
인플루엔자
헨
##ᆩ음
##글라
##사이
투병
방글라
원래
달인
사회주의
##착오
눈동자
냉난방
격전
시행착오
공방전
##트롤
이명진
아트홀
화합물
통폐합
방글라데시
상충
하역
인출
인색
소시
한자
서병
마니
생략
천하
변혁
조정기
허락
##펙트
보고회
착각
유니콤
퓨리
이슬람
서정진
고령화
전도사
감가상각비
디오텍
##땀
미일
국지
스텍
세브
투스
코원
고분
예능
서재
맏
해안
픽스
후회
##울림
##방송
사용법
저격
손질
곳간
논현동
홍역
대응력
터치패드
대책위
박용진
스왑
곤혹
샌드박스
조현준
란스
도미노
홍준표
스퍼트
끼
##ᆼ치
상각
공평
오차
선폭
구실
설주
아드
호의
호감
특허법
월초
빈폴
박형수
산화물
왓슨
##이어
##시티
경인
하워드
슬레이
일터
재심사
진교
산맥
여진
##ᆯ로스
김록
카날
델리
패러
어른
어울림
물증
감액
복권
남대문
베이직
막내
##좌우
시험대
##필수
꼼수
실험실
허리케인
김수현
템플
윤주화
인내심
시속
상부
매그
유정
국물
규범
##티아
김효
박희
광구
회사법
대우그룹
냉연
자수성가
즉시
##보험공사
김록호
일로
이디
지음
수해
인형
정류
회오
장래
한덕수
고기
고성장
비츠
예우
성지
신념
동전
마윈
현대인
적중
##결연
로마
양승
크라
석좌
최종구
객석
체크카드
자매결연
몬트
으뜸
플란트
##시네마
제천
하천
실투
회자
노중
데모
하이퐁
수출품
감소분
뉴저
구조물
##광수
용사
백남
식자재
라이센스
퇴원
교통사고
웨이보
대체재
##추얼
파라곤
장학생
김대준
스케이팅
박태환
맥도날드
대축제
뉴저지
인트라
국익
장모
일임
종의
여도
로바
저유
##토류
##만금
치주
편취
하나하나
북구
롯데시네마
희토류
클라이
봉담
선언문
김정환
출입구
수천만
꼴찌
첨부
여객기
이숙희
인트라넷
사립
기녀
수인
상급
##ᆯ럽
부수
하수
한우
구내
포즈
마시
피난
특활
무라
리노
당혹
흉
심폐
니코
지급액
접대
샐러리
김성태
김성봉
안성시
매트리스
영동고속도로
오태동
요르단
련
전병
수다
연한
오닉스
반쪽
장갑
영주
코스콤
출점
동삭
아리
천주
요충
나비
##포드
총무
독도
편익
악몽
새만금
난치
숙성
이인종
유무죄
튠
노태우
블레이드
호치민
##태평양
시아
##트랙
##래드
유휴
고과
모순
마누
##티티
아이덴
철거
벡
사이언
혼잡
티어
병상
폐수
압구정
아이덴티티
수합
수긍
##회원
자질
최문
정씨
위자
우측
특보
무늬
급행
산업용
간선
청두
씽
불응
##웰
설립자
송영
석유공사
오디세이
다임러
기념사
화신
자막
미시
오작
방중
진용
설전
여왕
건자재
##막이
러플
스템
살인
##경제연구원
박현주
산책로
펠로우
요충지
멸
##440
##442
##441
##447
##445
##446
##448
##443
##449
##340
##342
##341
##347
##345
##346
##348
##343
##349
##330
##332
##331
##337
##335
##339
##336
##338
이라이
시보
기하
상세
가업
##ᆯ룰
최현
모조
우군
배선
바운
하이파이
직선
어로
역행
라가
취직
캐널
김기문
이희범
레베카
##ᆸ지스
사록
##기사
자의
반증
배리어
다지기
리카
집합
총계
심기
편대
액도
다이얼
망고
##앱지스
쿠키
전세금
굴욕
이수앱지스
학술지
빨간색
재추진
샐러리맨
시력
삼성문화재단
그렉
미스터
일몰
신기
포도
해태
도장
데드
독감
질감
스포티
굴뚝
이원화
임차인
주전
조력
연립
반품
예기
보청
우물
내포
목포
콘트롤
교육감
징용
수신기
진교영
##제이
##소드
신안
##명부
도민
##오프
김규
휴사
프리젠테이션
운영비
남경
남측
황태
머리카
봉투
출자전환
박성훈
수여식
##둥이
강서구
김범수
머리카락
시화
수임
최준
일기
마드
원통
파노
서울통신
라세
##바니
주주명부
황해
##웨이트
문화재
누진
알코아
친절
왕복
찬바람
전성시대
드롭
송탄역
사우스캐롤라이나
브레이커
힌트
서울통신기술
이대로
지준
분열
미아
회비
한국통신
노브
##증현
카돈
총판
형주
철강재
윤증현
운송료
쿠웨이트
유명세
프라이드
풍선
주의보
냉동고
제네바
국민연금기금
에틸렌
소강상태
사통
##수증
의향
단거리
##ᆯ리오
뭉치
발표자
콘테스트
토스
식료
할증
자본력
맥킨
보호막
민간인
지방대
스트링
유력시
쾌속
적십자사
##기인
수련
최기
소켓
세에
고군
선구
보충
##모토
##영장
설상
##아버지
협찬
##코리아
교회
휴전
팀원
##천연
북방
방송국
격언
손실액
응대
브라더스
김성인
셔틀
룡
조현아
칠판
김선우
상암동
핸디
시드니
##시오
##사태
중질
코덱스
동성
동필
계량
##운하
표본
돌출
황과
허점
탄성
김영일
외교관
힐튼
잉크젯
연습장
##뮴
안갯속
이돈주
수락
젯
제국
최윤
일변
##미경
의정부
브리지
리아
청북
임정
홍순
윤활
터닝
송신
루슨
숙원
중고차
권선구
고군분투
늑
샹
살림
주라
대담
제값
셀룰
투과
예치
일사
강압
동지
배양
안중
##서원
운사
김무성
박대
리프
변국
심야
트릭
병열
스포트
잔디
공사비
대출금
곡물
횡포
파란색
바클레이
유니클로
조혜인
중질유
대작
부흥
경착륙
슬래
장교
선의
##조건
모던
폴라
##터카
한국개발
##석유
본계약
치과
홍종
탄산
극소
열매
트릭스
다이어트
렌터카
복지부
쌍방향
워크맨
노벨상
마포구
조형물
인터랙티브
다니엘
오작동
파노라마
전보
중흥
코비
고환
빌리
##조정
##날레
해설
적법
트렌
채소
인수자
접착
팅크
엑스박스
과도기
스카이프
그랑프리
뚝심
불명예
한국개발연구원
이이
이근
부메
제인
만선
유방
강정
산은
브레
법대
광판
데니스
총생
우리은행
유가상승
베리
윤용
열중
농담
귀속
출근길
소모품
핸드백
자이로
집적회로
밤샘
홍영표
제이콥스
보청기
부메랑
랙
##느
이에스
##리기
유량
고승
일희
추위
에픽
원도
단원
공장장
절연
타도
용시
접전
커튼
쿼터
징크스
귀결
칼날
기념관
시연회
소지자
바스프
스케일링
주안점
통찰력
무혐
일희일비
기수
기득
대위
매사
##체온
##주국
##세라
##발성
아반
아리아
연구관
문양
광케이
패딩
저체온
태영
향수
완주
북유럽
##다오
홈런
카드뮴
라임
##은편
맞은편
패션쇼
곡률
토론토
부서장
옆면
쌍용건설
함유
고양이
현주소
광케이블
궈
##끝
시신
가일
##도로
조인트
오텍
관영
일고
강신
금탑
의왕
차후
##니엄
노어
양희
##민석
전문직
이동식
흙
윤창
별칭
응우옌
광주광역시
테이크
살포
신도림
탐지
외장재
프로토콜
유니버설
식료품
전열
부심
정직
코퍼
비법
##미애
모피
신창
서라운드
##년자
##년단
점인
요직
문호
바르
아이오
##거장
최고상
창설
##천구
악기
앞날
압승
##패스
탄탄
잔량
음악회
암바니
상담원
은메달
함정
조문객
신인도
문학상
델타
조준웅
정류장
이지수
수호
세원
종자
서쪽
강정원
금시장
방열
방탄소
계발
엡
박경
##나칩
리마
겹
알티
병역
우선시
김영환
맛집
김진영
최성준
내국인
선취매
매그나칩
방탄소년단
전전
자석
오더
세르
장안
##운동
##포스
##버시
불행
사회관
##탄불
새내기
후보지
답보
취업률
프라이버시
인천시
감염병
균열
##퍼스타
이스탄불
사령관
방사선
례식
급선무
피난처
시름
##세훈
일지
일차
계망
여념
초중
##노미
절충
북쪽
침입
슈퍼마켓
고위직
스크래
##추어
스틱스
뷰어
게스트
김종훈
함구
후지쯔
이창목
재능기부
이채원
슬레이트
던
이권
이한
제록
유례
연평
선결
빌라
신진
서산
통용
점증
##옷
바퀴
라틴
시리우스
##엘라
티브로
군대
에피소드
애틀랜타
제록스
티브로드
기성
지청
수액
스텐
선탑
비방
모로
현대캐피탈
##외과
이변
급진
나들
##야마
영상물
스톤
채권자
전지훈련
잔금
운동량
##하임
파나마
프레드
##캐스트
춘천
위임장
퍼블릭
조재훈
브론즈
##ᆷ프
주창
지로
인화
실추
영사
외채
##서울
김덕
##각각
리사
당분
토의
한국전자전
탄원
타이거
열전
안전망
처리장
밀폐
횡단
벌크
흡연
잡화
상하좌우
빙상
즉석
유라시아
옐로칩
리바트
맥킨지
사당
수산물
제과
강재
한국거래소
##공항공
디아이
순도
##무진
##석원
입당
어대
##ᆯ레어
심이
본격화
국제금융
타로
용접
현장감
레이싱
좌파
풍토
박용현
리모트
엑셀
##팡이
인피니트
응시자
##공항공사
꼭
엉
##펀
그릇
가용
##사미아
유나이
고갈
추미애
판세
##덱
단타
특색
##오피아
파루
누나
라이팅
충격파
난색
##444
프레시
곤두
까사미아
캔버스
첨가
오성진
김주형
에티오피아
관절염
간호사
개회식
총생산
##스키
공수
분발
유권자
연매
소생
모래
햄
단결
김백
타파
드래
남중
황우
송재
휘닉스
##천연가스
어댑터
국제금융센터
곤두박질
폄
수비
상습
제개
정거장
현수
외연
동메달
포이
판문
##티콘
##ᆯ릭
바비
하이패스
직계
청중
범주
선수촌
실행력
가로수
##나잇
체포영장
최단기간
벼랑
스노우
지준율
스크래치
유나이티
시게이트
제패
화훼
공예
관철
##산부
굳
금주
내자
기대주
효용
##만수
홍석현
이재명
니혼
##랑이
색채
227
재료비
슈퍼컴퓨터
##텍처
국무부
##리올
인덕원
주소록
컨테이너선
이모티콘
아키텍처
허니콤
몬트리올
뭉칫돈
기색
주입
지면
수작
오이
세다
보따
한국경제연구원
재환
호스
양육
##거티브
태안
네거티브
면부
남쪽
작업장
팔달
넥타이
팩스
자연환경
##맥상
클래시
심장부
허리띠
김신배
박지원
라우터
안승권
셀룰러
보따리
##빨
##비타
의전
방면
이불
##브라
파도
당원
합심
손학규
열처리
컴포
컴백
폐해
상속인
카운티
퓨어
##스타일
자판기
삼양사
올리브
작곡가
맏형
설상가상
바클레이스
경사
조례
회가
회색
고압
비씨
신양
여고
문정
환태평양
김호
김창수
크림
탄도
삼익
지방세
합성수지
인턴사원
조윤남
코스트코
액화천연가스
켓
사조
지성
##ᆷ승
##수산부
화법
증식
최서원
실크
회부
##데오
노고
리턴
건과
참배
승무원
취항
타자
남광
풀무원
##웨이즈
골머리
##봉근
재고량
해양수산부
##튠
대로변
손절매
템플턴
김백준
판문점
컴포넌트
썬
소르
##구석
비뉴
일리
우여
포메이션
기준선
어벤
손톱
홍기
용퇴
열화
법원장
층고
라이드
언론계
##곡절
최선호
김상헌
공부방
볼보
하노버
오버행
할부금
스케어
반포동
프랭클린
아쿠아
엡손
우여곡절
##궤
수확
경복
소망
외상
성진
배틀
아비
노멀
천진
김천
나열
라마
토요타
대구경
일변도
타일
기량
##전시
##그리
대입
##ᆯ례
중증
##부패
##동수
발대식
올웨이즈
규준
안희정
무궁
##경원
경영계
집진
본원
엔유
농축
부정부패
상용차
대법정
김승현
착용감
정례회
오스람
찰스
옴부즈만
섀
##바일
##녕
사촌
주채
재주
도급
단회
안재
리프트
카니
감광
이용권
##천동
유일호
선거구
게리
합성어
다자간
미드나잇
김양재
셰일가스
모조품
쯤
기편
지와
수모
##비통
미안
오케
##권력
비위
프런
##모바일
성역
성질
발원
초순
김관
##나스
임동
##얄
닐
냉정
소형차
반대표
발행일
장사인
아마존닷컴
착공식
헬로모바일
루이비통
김광현
병점역
##맞이
천정배
단시간
현수막
임성
##자동
기체
##리코
조남성
최도
인회
정량
장지
윈드
입각
트라이
형법
##저기
##검다리
##박자
헤어
송정
여기저기
히라이
징검다리
쿠퍼
비상사태
초고주파
김정현
국산화율
밀레니엄
플로리다
깃발
노블레스
이에스브이
##빵
이만
미셰
국행
일쑤
프티
순이자
원샷
단의
교장
하이난
클
지지자
듯이
##암호
솔선
핸들
원낸드
이인희
박종선
##잡이
스케치
핑계
##쌍수
고분자
##룩
##잇
이디스
식스
수건
##그라
미식
소관
코칭
비나
종편
##능력
과소
##급수
평정
김미
김쌍수
교착
##타워
입장권
허남
커리
케이디
대한국
제작자
퇴색
루빈
권오철
칭다오
우승자
배임죄
조지아
응급실
써니
기하급수
매사추
펑
##옹
사제
기차
수로
상소
개헌
밋
일중
##모니
신갈
서대문
확연
##니즘
원판
환담
프로필
뒤셀
##언트
상장법인
책무
항로
##롄
윤정
열대
노동법
슈퍼스타
최신형
잔업
줄기
김현종
양자암호
조망권
손잡이
##도르프
장난감
무라타
바운스
아반떼
뒤셀도르프
##자네이
수자원
매머
최중
##치기
일인
신비
마술
배기
배추
##데자네이
결속
안봉근
데코
남산
노트르담
불우
편식
복도
민병
쌍둥이
이정일
정전식
##팔달
분배금
리우데자네이
이웅열
사통팔달
매머드
리우데자네이루
널
찜
이광
사교육
##가젯
댄
##수엘라
부총
##세츠
유원
최유
영결
우경
성수
서동
평년
##루스
도내
단백
호건
무어
바나
변심
카메
패럴
임신
##ᆯ레븐
씨앗
절치부
복무
월트
낙제
엔가젯
레오
문화원
샤워
삼우
김영기
승부처
노사정
##히기
루이스
영등포구
거물급
베네수엘라
##맞춤
김봉영
자생력
옛날
마누라
연평도
굳히기
매사추세츠
부총재
절치부심
##뼈
거장
경각
하급
만끼
연아
관내
솜
##동생
모상
성모
서리
차주
앨리
무작
초심
바구니
창호
프리마
명사
근육
캐쉬
권봉
플레이트
초고층
너지
냉각기
피아노
불가리아
첨병
네슬레
비지니스
주형환
라세미
탄원서
오케스트라
단백질
경각심
만끽
기변
부어
경시
제각각
##랠리
미들
반바지
##부동
선례
보디
추리
##우마
판관
방패
##보레
##준혁
안병
변전
회사원
총사
치안
독성
베스
페라
##돌이
부가세
벽산
벽두
이경재
소매점
창립자
혈관
아르바이트
스코리아
튜너
최경희
이현주
장마철
고영태
##카이치
##지부
상납
제니
유스
투ᄊ
비어
구름
금물
##클럽
호랑이
##블랑
법치
하이퍼
휴스턴
어링
임돌
합숙
속수
##워즈
명지
##은희
맞소송
##400
##402
##401
##407
##405
##409
##406
##404
##408
##403
##420
##422
##421
##427
##425
##429
##426
##424
##428
##423
##410
##412
##411
##417
##415
##419
##416
##414
##418
##413
##470
##472
##471
##477
##475
##479
##476
##474
##478
##473
##450
##452
##451
##457
##455
##459
##456
##454
##458
##453
##460
##462
##461
##467
##465
##469
##466
##464
##468
##463
##480
##482
##481
##487
##485
##489
##486
##484
##488
##483
##430
##432
##431
##437
##435
##439
##436
##434
##438
##433
##490
##492
##491
##493
초과분
##300
##302
##301
##307
##305
##309
##306
##304
##308
##303
##320
##322
##321
##327
##325
##329
##326
##324
##328
##323
##310
##312
##311
##317
##315
##319
##316
##314
##318
##313
##370
##372
##371
##377
##375
##379
##376
##374
##378
##373
##350
##352
##351
##357
##355
##359
##356
##354
##358
##353
##390
##392
##391
##397
##395
##399
##396
##394
##398
##393
##360
##362
##361
##367
##365
##369
##366
##364
##368
##363
##380
##382
##381
##387
##385
##389
##386
##384
##388
##383
##334
##333
엄두
원통형
##빨래
찌
전유
중외
성급
내후
냄비
급제
##브리지
리안
아이튠
본고
총합
돌변
게이머
온난
온누리
중앙아시아
야채
##497
##495
##499
##496
##494
##498
난무
##700
##702
##701
##707
##705
##709
##706
##704
##708
##703
##720
##722
##721
##727
##725
##729
##726
##724
##728
##723
##710
##712
##711
##717
##715
##719
##716
##714
##718
##713
##500
##502
##501
##507
##505
##509
##506
##504
##508
##503
##520
##522
##521
##527
##525
##529
##526
##524
##528
##523
##510
##512
##511
##517
##515
##519
##516
##514
##518
##513
##590
##592
##591
##597
##595
##599
##596
##594
##598
##593
##560
##562
##561
##567
##565
##569
##566
##564
##568
##563
##580
##582
##581
##587
##585
##589
##586
##584
##588
##583
##790
##792
##791
##797
##795
##799
##796
##794
##798
##793
##760
##762
##761
##767
##765
##769
##766
##764
##768
##763
##780
##782
##781
##787
##785
##789
##786
##784
##788
##783
소유주
##577
##575
##574
##573
##궤도
아이튠즈
##이저우
기장
개량
하자
증축
유서
소정
코덱
장본
강봉
금번
마나
앳
놀라
##ᆯ리시
이상재
무사
묶음
##각층
당위
청수
완구
평균값
민자
토마스
백두
시설물
귀재
부가가치
청년층
신경망
김현철
클램
세이브
혈당
트레이닝
각계각층
신조어
늑장
미셸
장본인
놀라움
사나
기전
대타
가디
최승
정창원
현진
영란
외발
아테
산액
##무책
릿
로얄
##방식
감속
불사
속단
손발
기자실
삼영
상한제
융성
맞수
메디컬
경남기업
김재홍
롯데칠성음료
남양주
레지스
김우중
정병철
개그맨
부엌
속수무책
임세
##자치부
기우
자인
정차
반출
코프
동우
통증
애벌
돔
안가
엽
후행
리소
인사이드
알제리
잠시
보호주의
베이커
행정자치부
뮤추얼
택호
김동수
코미코
윌리엄스
미지급
프론티어
손영권
쓴
##짱
그라
가즈
하마
분업
유권
국왕
보국
구루
발자
동탑
디엔
앨라
도주
천차
원희
안리
호령
무함
변질
어록
이용섭
##배마
음주
레전
킥
격변
페달
교통카드
부산대
에이디
아마추어
배출권
정전기
묵인
이준희
림프
이코노미
쓰촨성
마드리드
앨라배마
첩
사카
짓
##지물
부시장
만년
오퍼레이션
보트
생리
##디움
##민수
엇
조사단
회복기
손안
완승
##웍스
제일은행
견도
티맥스
퀄리티
페트로
동일인
실업자
쏘울
수십조
몽블랑
묘사
방청권
무함마드
주로
##기계
부설
공황
##주석
유래
연연
오만
국비
장상
협성
##호스
아이유
##거지
효도
크래
홍춘
대우전
항공우
루마
맞벌이
게걸음
##ᆯ런트
곤욕
동문건설
구청장
보행자
조의연
마중물
회오리
가로수길
무작위
이시
##가루
대운하
그레
조장
자가
스모
관은
소위원회
고립
비요
외풍
일맥상
종무식
성호
강희
과자
재충
다롄
총의
태생
##멜
독차
전환기
콘티넨탈
권태
송년
펩
탈루
연봉제
옥주현
명령어
이윤태
압축기
튜버
파괴력
핫라인
낭패
쉐보레
트로이
면허증
다크호스
정은승
본고장
일맥상통
재충전
등판
댈러스
매년
정평
고치
고취
선로
##공영
배스
안대
안현
요령
##ᆯ리아
광전
아이러
로망
양궁
본궤도
상장주
콘트
이재훈
준비금
##절기
백서
할아버지
열망
부동산업
##엔진
박영훈
상담역
강연회
일렉트론
안성맞춤
카를로스
앰프
양희영
임세령
비욘
독차지
수대
##정식
제척
조도
공안
정시
세심
장재
신빙
강대
마운트
딕
진양
설과
점도
박빙
교포
카스
물의
자동화
##바스
각료
##징계
버거
이미경
쿼츠
스톰
멀티플
고위험
뮤지엄
스테디
자구책
율촌
극소수
이거
조롱
유증
자긍
국무원
고난
우미
우남
애완
아랑
특판
메커
생산품
약물
##연휴
치부
대상그룹
복판
윤여
열연
병기
기획사
호재성
제작비
퍼펙트
긴박
법조인
야구장
룩셈
황금연휴
쉐라
쇠퇴
중장비
비타민
곰팡이
테네시주
영결식
내후년
아테네
자긍심
룩셈부르크
번스
##낭
갖
##요금
인더
슬립
영우
발단
의거
##클론
원종
##외환
호매
호송
블릿
법사
광통
휴정
##토이
태동
클립
뉴엘
##카페
액셀러
남궁
##림길
샴
갈림길
큐레이션
방지법
수년전
사우나
##볕
농수산물
선구자
액셀러레이터
##쿨
사라
##정책
부두
최용
퉁
한복
볼리
##조서
추론
배타
애착
재외
안동
##경영
정부서울
사회학
남발
책자
와우
티에스
농사
스타워즈
슈트
고민거리
이해찬
증거능력
길거리
두산엔진
##센서
선거법
정체기
이중호
공백기
결의안
커피숍
퍼스널
탁구
토리노
구석구석
퀘스트
프로덕트
남경필
아랑곳
메커니즘
정부서울청사
툰
그곳
##ᆯ련
유추
관치
소부
세배
현판
외벽
##식당
일당
성심
마히
##심탄
도료
엘렉
단비
산물
##낮
##만별
표류
국민주
톨스
허심탄
대학가
##에르
컴팩트
트래킹
슬라이딩
한중일
무용지물
백남준
포이즌
천차만별
레전드
홍춘욱
루마니아
스테디셀러
톨스토이
허심탄회
겁
##ᆺ거리
이피
이격
지스타
전등
매주
미생
비야
동명
해인
노블
##클린
행단
카리스
태광
##륨
중심부
토마
층간
힐리오
설계사
퍼트
루블
옥스
정지선
진술조서
##런치
박진수
신일본
당분간
태광그룹
사중
시책
수자
부통령
부총장
경리
유턴
정대
스미스
고육
영수증
외투
성신
포코
도하
단면
바흐
임지
임조
합금
##메인
독재
지급식
통화료
주택공사
군수
난립
메이주
초대형
폴리스
김정주
이정표
클리닉
서정훈
신장세
실용주의
기상청
포레스트
황영기
고승희
대구경북
최도석
기현
전강
##지갑
중책
화자
유모
선입
일부분
발발
스마트러닝
배성
해리
욜
김예
박칠성
생산력
나주
구조조정
민선
백석
야스
다이나
뉴스타
컬럼
##걸레
고덕면
미술품
무한대
고속철도
장동현
구조조정본부
##먹
##ᆺ값
가토
가온
자초
스택
소동
세팅
비명
##신안
##진흥
강만수
마린
의대
차상
한국관광
전자지갑
생수
현대아산
##운전
판매사
프로듀
로우
감기
탤런트
불모
완비
남구
사람인
허동수
윤재
파워콤
김성수
실용신안
최재원
트로닉
지붕
산타랠리
머스크
강동구
대타협
마힌드라
카리스마
한국관광공사
프로듀서
사범
수기
부평
고주파
모어
우도
성탄
내한
마약
특산물
요동
간극
리오
로데오
##포츠
체중
총점
감형
치환
기간제
명심
캐비
집중력
소재지
더치
케빈
영화사
블록버스
은산
##셉션
오토바이
박성택
외장형
대립각
유산균
이태호
레미콘
윤활유
뉴스타파
블록버스터
싼
##ᆺ물
##꾸
##자실
지론
##ᆷ손
##지책
##가정
부주석
##세트
유적
자바
소양
보성
우연
동인
계통
에넥스
산림
안티
무색
적재
프로브
##민턴
##버트
조정안
지역민
악취
남도
##ᆯ루스
친선
덕산
페르
푸시
암초
전후방
웰트
세종대로
소방관
반월동
평형대
입출금
배드민턴
아리랑
성모병원
멍
##룬
수표
최창
정만
미탈
소아
##신문
보루
모리스
프란
서적
강철
##라스
##형규
후불
리셉션
아이리스
청색
체조
대통령상
##축구
주목도
##박이
드리
언니
와치
샤넬
겸손
존스
슛
퇴장
##ᆯ라이언스
넛
안내문
대행업
선대위
컴플라이언스
트라움
김은별
선봉장
##나비엔
경동나비엔
이구택
유방암
이홍
사관
하저
최하
미성
오키드
세습
선친
외무
일석
계룡
##보이
배트
배급
딘
해성
##라기
호르
이상민
보유량
의료기
언락
##림픽
스타크
갈피
법률안
몸체
##555
##554
##553
전세기
맹주
함박
원리금
사령부
브로커
마운틴
장진영
황유미
구내식당
패럴림픽
부가가치세
사만
중징계
제격
증기
미터
오비
장군
한가
현미경
영접
종지부
거래제
포퓨
마산
산술
##ᆯ리즘
후약
교황
건당
양기인
측은
##바탕
컨틴
극한
담당관
송성
석화
친족
장단점
옵티컬
김영삼
스트림
신도리코
제이티
소사이어
조종사
##긍긍
트라우마
성형외과
윤태호
화석화
옹호
전전긍긍
신일본제철
포퓰리즘
컨틴전시
소사이어티
##둠
##ᆷ삼
##지애
##전력
상욱
##회관
##제라
##신용
일손
종용
확약
##터치
아나
놈
도산
에쿠스
원양
안구
##융합
##홈
리트
##디스크
당론
물방울
감청
인수위
와해
식구
타이트
##ᆯ률
보호자
덕목
퍼즐
확장세
선도자
##스티지
에이블
김영철
스코트
요리사
버클리
전해질
강인엽
바나나
##제라블
기주
상판
가단
중위
하한
정홍
투사
##부츠
실기
코발
일거
마의
##후식
판타
도화
요한
박은
##나와
광군
파마
폭우
물걸레
저주
##토시
완결
##타오
프리시
##레이트
##드롬
날인
스타디움
케임
친정
공공시설
앤드루
왕자
류진
전산망
카트리지
공영운
이태원동
크라운제과
에드워드
수작업
열화상
갖가지
럭스
##쾌
부익
만반
국격
소등
비티
빌리지
외평
성문
신드롬
동창
디트로
천정부
점화
무실
문명
아이나비
저우
명은
##바다
엔트리
레몬
육류
##투구
후보자
스태프
요청서
페타
멀티플렉스
밑바탕
스틴
베르디
이종욱
브라운스톤
경제학자
척결
후진타오
스포트라이트
일곱
아이러니
부익부
디트로이트
천정부지
##렁
##ᆮ기
기생
검수
수고
증원
반소
고층
선장
선양
예사
굵기
신반
발현
방심
진의
노영
대표자
어카운트
청바지
목돈
속초
손보
절단
타의
탑재량
면죄
용납
황상
담화
식탁
##에어
극비
송창
라이카
합의서
골격
발행주
함영
린카
아워홈
복사기
영종도
전라남도
오로라
지모
오크
국악
반란
##어링
##속기
평사
설화
##아프리카
테팔
다문화
변명
저층
치메이
크레이
플래너
국민대
북스
중요도
범삼
검사기
기념비
표현력
표현명
##필벌
이수영
신상필벌
환승역
단열재
콜라보레이션
불모지
다문화가정
따
사죄
대포
##ᆯ르
경전
화살
업력
미온
올랑
오영호
비닐
발제
천국
피셔
산국
안부
테니스
##쟁이
운신
본국
체전
임우
감경
##멜로
프리스
마카
악의
음량
황정
삼남
방법론
기념품
임대기
김정태
김종호
김용환
크리스토
봄철
##푸르
세종문화
일률
버지니아
이진우
아미카
마시멜로
비야디
코발트
케임브리지
면죄부
올랑드
세종문화회관
##수범
만하임
##체어
유네
유학생
반지
##구리
출소
##명령
##무라
테스터
초소
후자
카세트
필승
블랭크
인삼
남한
황개
백조
식량
허진
질소
티엘
##베르
군부
관광공사
몸통
마크롱
광역버스
권력자
서기장
희소식
닭고기
박선미
기싸움
경의
인산
스마
투숙
말기
말미
재즈
노년층
산악
광풍
참작
명맥
##바흐
용수
인도인
생활비
허태
보안법
덕택
수원역
착오
프라이어
감염자
대기전력
퀀트
텍사스주
##큘럼
싸이언
브라우징
김석기
휠체어
한동훈
홍종학
팔달구
커리큘럼
선입견
신반포
##흠
시승
가점
조상
화섬
정선
회유
고밀
구금
##익빈
우의
마침
생선
##테르
박철
행적
양지
당과
완자
절세
충무
##밖
문화부
허공
터주
존폐
폐암
인텔코리아
유명무실
자기장
빈익빈
예술가
##춘수
엄중
이정미
발명품
##타이저
오브제
스파클
즉답
아톰
총영사관
한신평
솔선수범
캐비닛
유네스코
##ᆶ이
이문
기둥
지선
##리나
대호
상보
가지
가소
공보
정명
관상
##프레이
고검
일동
보훈
확전
방화
##앓이
요시
법위
광동
양당
직수
향기
컨디션
권희
망신
사무관
엘타워
펄프
경상북도
폭등세
소설가
전염병
누진제
비씨카드
가디언
랑
##잠
##ᆷ송
수트
수축
대적
##세싱
##프라
한온
외모
##조세
발음
마에
요율
문지
박한
프로세싱
델라
입도
직하
##타페
##스테르담
네비
키오스
현지인
교육비
송치
한계점
암스테르담
##벨트
콤비
제이엠
프렌드
벌금형
자치구
형제간
이준용
이창희
치명타
기프트카드
록스타
백두산
싼타페
손보사
마침표
사공
대략
제련
인트
코렌
##프레
고로
구장
동경
생기
순감
피싱
무협
박항
교직원
심려
향유
##스트로
##폭스
절제
학비
캐치
홍진
토어
면회
디지타이저
터리
타이완
세탁실
최신원
신뢰감
비상근
스페인어
부지사
이승기
김동관
경부선
리듬
넘버원
파이어폭스
박태준
니켈
김원준
메타폴리스
맥도널드
항암제
모나미
당혹감
전유물
이남
시애
그루
화공
최동
장위
한증
비업
못
##데타
도메인
원부
원터치
특경
초임
바우
카리
어둠
창간
##연주
철근
앞장
##광호
렙
백수
조기상
노동청
전력망
사고방식
이영선
이영호
류허
낭독
경연장
조수인
왕성상
윤용암
마나우스
트로이카
시애틀
럼
렛
이양
사보
사파
시몬
지포스
##리즘
수세
가근
자주
연마
인조
스메
선후
외대
신천
##종양
##공조
이익금
##티노
다원
김의
어업
임철
철탑
네온
레고
웨인
뇌종양
교수진
##벨로
군무원
제작소
증거물
엠스
##셔티브
위안부
김정훈
김종덕
엄지
컨버터블
이니셔티브
이은택
모자이크
히로시마
라이언즈
변전소
현판식
이충
지에스
걷기
상경
개위
미네
투약
내셔널
##어스
배다리
디벨로
해빙
노화
점거
원더
피케
안시
여동생
담사
김부
박홍
후손
작정
리크
파국
롭
양주
나사
임태
참패
독설
민후식
심리학
북카페
단기채
##에스티
야마
전력난
막걸
스케이트
갈라
첫걸음
헌팅
은평
##킨스
최상급
불량품
비관세
탐구
샌드버그
무인기
스킬
이세돌
상영관
슬기
##팽창
막걸리
이언
임수
이솔
시효
기약
##정훈
제왕
개학
자임
최길
연애
인종
정회원
소다
일안
모더
성희
차폐
방조
규율
점퍼
##무대
다사
리비
직시
복직
각하
의료비
엔피
마이바흐
잔뼈
접근성
전쟁터
부산항
대조표
대장정
슬로우
예금보험공사
권위자
동맹국
박재홍
저격수
리노공업
섀도
최중경
번스타인
김예은
네이션
##ᆷ스
사다리
##사리
중급
유병
정인
소연
투영
##부인
일주
동건
디피
급팽창
집단지
##파스
양심
나프
당근
패트
펀치
칠러
악사
안정리
안정감
니트
터빈
덫
친밀
강남스타일
난민
엘에스티
임대차
보건소
싸이클
중개사
브뤼
영남대
레미제라블
##쉘
당뇨병
##져스
어벤져스
임우재
뉘
이율
이헌
시급
수오
대생
그릴
경산
만연
화이자
분향
최민
정종
스님
소폰
실점
비장
모종
강태
금기
##발인
특기
특명
무안
환입
리쇼
네스트
핵융합
홍삼
##랑카
통화량
조성훈
전지현
좌측
유니셈
##을거리
다변화
건축가
공인회계
후임자
법제처
망포동
핸즈
피고발인
합창단
허남권
컬럼비아
공인회계사
시외
시허
주먹
지렛
매드
##유산
국사
고금리
##몸
서신
##우리
배웅
해저
안드레
다용
후이저우
건너
로체
텔레포
이동성
용처
엔젤
항법
허영
혼신
희성
흥아
스포츠카
다이어리
읍
막대
번들
후반부
##600
##602
##601
##607
##605
##609
##606
##604
##608
##603
##620
##622
##621
##627
##625
##629
##626
##624
##628
##623
##610
##612
##611
##617
##615
##619
##616
##614
##618
##613
##690
##692
##691
##697
##695
##699
##696
##694
##698
##693
##680
##682
##681
##687
##685
##689
##686
##684
##688
##683
##셔닝
멕시코시티
아웃사이드
##777
##775
##774
##773
동원그룹
반사식
##754
##753
대학원생
포지셔닝
게시물
중화학
링컨
방청객
신사동
헤이그
메인보드
장당동
장쑤성
숭실
스포티파이
셔틀버스
애벌빨래
베이커리
엇박자
협성회
지렛대
짜
쫑
##ᅮ라미
전입
대종
##상훈
##원가
조우
공갈
서포터
##망라
재가
재보험
노원
노숙
김황
광파
청라
총망라
임진
임팩트
은행주의
학창
준조세
액세스
병세
골몰
슈즈
지지대
항공권
쿠데타
염원
염동
벽화
추격자
먹을거리
아세아
최장기간
응원전
앙게
탁론
드림웍스
귀뚜라미
안양시
뮐러
최고위층
파이프라인
스리랑카
##라미드
점도표
경전철
나프타
시험소
사가
중첩
경관
제하
개표
정인지
미혼
반송
종주국
우후
서두
과산화
한국감
애호
해시
노리
점장
원색
환골
박명
광업
로레
라벤
근래
민중
가스전
할머니
##창훈
컴캐스트
신용보증기금
루팅
난다
불법승
밀수
경찰관
화물차
김병기
폼페이
독서실
경실련
김황식
앙겔라
한국감정원
이ᄆ
기만
삼성사
수재
수목
##대역
조익
최은
오진
관비
구안
신민
발산
금과
계란
디케이
단부
##테리아
이상주
적신호
##각서
매출원가
카탈
양복
나오
감전
중심가
크런치
뉴코아
##시아드
국제선
복역
권순
러버
##듐
싱어
시청각
천안아산
양해각서
출입문
##꼴
궤적
정규장
공신력
청담러닝
방사능
유니버시아드
폴라리스
황우석
브뤼셀
텔레포니카
천안아산역
기국
##지세
##사키
비주
서약
서귀
내전
통량
노령
도곡동
피팅
바보
양날
나경원
정부안
총국
총집
전기밥
심천
워렌
수출상
명마
남해
##탈태
인력난
##투리
페트
듀크
홀대
귀족
쌍방
유진기업
벽체
직업훈련
튜닝
멸종
투싼
호매실
배트맨
스코틀랜드
가솔린
과산화수소
환골탈태
##ᆺ줄
공도
유경
유니스
연단
미연
장현
고마
방카
진가
노란
리언
광시
건식
나선
어윤
속앓이
학대
이재민
용서
키부츠
활동가
##ᆯ럿
발행가
덕담
공유기
전달식
사무기기
빅텍
병원장
레이터
길목
시험장
파이터
잉그
김경수
덩어리
플라자호텔
헤르메스
골칫거리
프런티어
전기밥솥
##ᆸ살
시분
기동
기형
##사냥
하영
조모
만능
##세종
정모
반색
세인
실베
모면
출두
우진
성주
마스
차체
아라
노드
노비타
영업권
다카
건배
패자
체외
저리
벨라
온스
장기전
닐슨
슈밋
민간단체
부자재
프레스티지
과기부
팽성
박병원
한라공조
생물학
난치병
폄하
하급심
다이나믹
숭실대
조익재
캅
##ᆩ시
주례
거인
거의
수뢰
대승
중량
조남
맷
정중
선단
성시
서양
발리
동석
판명
진에어
##물질
피곤
##석희
##경호
박문
##태영
교양
파상
물고기
정부세종
저명
벨루스
사상자
##앙스
타이베이
병가
잠복
##리스타
##베리아
이놈
룻
귀금속
정윤
파운드화
초코파이
알렉산
한라건설
한성대
벌크선
배성진
뉘앙스
어윤대
정부세종청사
##이조
##임사
임선
시약
지엔
전균
##가와
대산
대니
중진
정쟁
투증
장도
장고
예당
보선
발암
강윤
통근
재래
재촉
설사
아너
에보
##아지
특임
호혜
간직
변재
##초가
청결
##하우스
취임사
##론을
관리원
남대
부분품
벗
커리지
주문식
비즈니스맨
빅토
##웃음
##암동
옥중
구도심
동원산업
급여액
사면초가
갑론을
가늠자
그레이트
대유행
조용현
포상금
엑소더스
유연근
비엔날레
가톨릭
성탄절
일석이조
갑론을박
깡
사치
기강
##시험
지통
전조
분유
최석원
소호
고르기
예대
위계
신바람
서희
서막
포격
##차드
기술직
산둥성
요트
여인
급랭
변종
센타
필요시
라트
##메랄
##스텐
이용객
압류
겨자
쇼핑센터
현금화
덮
블랙홀
스탠딩
펜슬
찬밥
접속자
김병관
최장수
유전체
개관식
빗물
김윤서
스테이지
최문기
박항서
성희롱
껍
##잭
##일레븐
이프
이엠
##글라스
상배
경정
하부
매료
유위
연안
미공
미즈
코타
모국
모르
##행위
##위복
요처
##오석
바라
교세라
파죽
휴면
임계
완납
명당
캡스
##광장
##바오
수사력
전화위복
친형
##네트
뜻밖
행정명령
김영우
대전환
신영자
벽지
구제역
유해성
이인호
그린피스
세무서
발명가
윤석금
세븐일레븐
임종룡
카피캣
마니커
토마토
파죽지세
딴
떨
##ᆫ장
##처스
##ᆩ이
이혜
##기념
대투
그로
그쪽
중환
개폐
하태
매립
매킨
공전
분납
증익
현오석
비비
일보
서보
애용
기록물
에세이
이상득
담수
리차드
광운
데스
참치
승강
지역난방
타드
캐머
렘
커팅
응찰
얄
막말
맞교
가속기
정몽규
범죄자
수지구
지능화
이윤호
칸타
걸음마
필기구
노스페이스
낙찰가
스마일게이트
최정우
과소평가
스타크래프트
신천지
패트릭
서귀포
덮개
##자기
주진
거수기
등정
##상일
개각
화약
유익
자서
스승
스패
셀렉
성년자
내우
평촌
노른
점자
##서기
##나기
##딘
낚시
임치
##강판
##러기
형지
크래프트
학벌
캐디
환경청
##활약
홈피
속도전
티엠
트리거
펭
스탠포드
스페코
지지층
최신작
폴리에
스콧
하우징
국립대
심상범
유영하
심전도
매개체
펩시
대행업체
라벤더
팽성읍
노른자
칵
##멧
주미
##리움
대진
유념
미키
미슈
장자
고사장
비만
모처
위너
##금고
마장
##우징
배가
해방
설탕
천향
결손
안상
발표문
양립
폭격
임영
합자
##토스
불이행
라와
손병
손괴
악조건
캐로
토이
키노트
풀브라
열주
##은혜
재무부
##케시
밀양
##하이머
런처
겔
진흥기업
이병기
혈안
마을금고
김장철
##타입
##특구
김석동
임종석
##놀이
주원인
나들목
서대문구
풀브라우징
터스
##펑
이파
이찬
전필수
대훈
금색
##인구
자보
오승
셉
우일
배지
천사
테그라
적체
간식
##브리
바른
프로페
양화
심위
##ᅡ일드
##레탄
허수
윤희
발전상
티빙
알미늄
시각차
팔리
영화배우
스크랩
일시불
##흙
드라이빙
시위대
##죽순
오산시
구인장
##섬유
각축장
##미터파
휴무일
퍼블리싱
프로토타입
스트링거
탄산수
우경희
##진흥공사
우후죽순
자서전
켠
##ᆺ카이치
개포
만류
##세기
인시
정복
미노
미린
반반
현혹
##조선
구설
종신
한국쉘
##급부
설날
전망대
결여
피살
산실
욧카이치
무주택
다층
##본능
탠
불패
손명
팀워크
정도현
##카스
용적
북새
품관
골퍼
반대급부
켈리
루미
브리티
계산기
공포감
가로본능
헬멧
피로도
연료비
밀리미터파
후쿠시마
파우더
단결정
이맘
캐머런
맞교환
한국쉘석유
북새통
이보
이아
삼송
주일
최전선
연정
코코
한지
선강
보궐
우원
추계
강기
강송
동관
동분
통념
한국신용
순기능
다소
##호영
파비
임형규
최고액
##러리
취록
남기
구속력
열사
병력
삼강
페스트
푸젠
전지용
뒷전
원자바오
인천대
개척자
헤드라인
맹활약
까르
족쇄
소방서
몬스터
희생자
브루클린
애국심
클라이언트
열대야
로레알
내우외환
한국신용평가
썰
##묘
##국제
가인
중신
부식
제분
오지
일과
잰
##클라
무림
김시
박해
후정
광택
역주
체납
뉴베리
절도
민노총
면도
와일
헤리티
조성준
설계도
퍼니
촉감
##베이어
동일본
왕실
중계방송
##더슨
사명감
몬테
충청남도
아킬레스
미소금융
알렉스
이은정
운반선
물류비용
부유층
력사
입상자
트렌디
카니발
분향소
뤼
빠
##콰
##뿌
이분
시골
기즈
관용
관성
현충
비휘
구슬
위용
추상
동갑
차우
통돌
##명숙
도의
순금
피쳐
문어
광진
카라
남상
##야구
효능
##르드
##타기
베조
명복
근대
컨베이어
북서
황준호
##평동
분양가
조깅
범유럽
나노미터
##링크
스펙트
루스
갈증
권오갑
김현수
굴곡
분당구
칸막이
김진수
활황세
금성사
니콜라
드래그
최길선
노란색
칵테일
비휘발성
지중
수렁
대보
##사드
중공
제사
하인
조환
##유키
증빙
구태
구찌
우영
금오
포고
##위즈
판권
##루이스
진성
진풍
진압
진흙
단수
특전
##운서
##코스
후베이
카폰
로저스
역효과
##연수원
치하
손흥
미래상
페이도
헛
허들
터치위즈
##ᆯ린더
전경훈
체육계
사법연수원
지하철역
이인원
서정동
편집장
이석희
강경화
노광기
비대위
뽐
쇼트트랙
선후배
손흥민
쉐어
훌
##임새
사저
시모
실러
지그
지영
수중
화부
연승
소노
회도
투자은행
비책
비극
종부
모교
##영훈
평론
도리
##크리트
원환
작심
달력
나기
저수지
씬
치즈
향대
프리뷰
베인
명운
캘린더
콘크리트
토양
성공리
육안
알바
스타급
라이다
블랙잭
근무지
파이널
프린스턴
익추
늦
뮤지션
젠더
쓰임새
##특별
지명자
휴양지
성북구
지기호
접대비
황태자
크래커
정만원
베조스
이아이
사칭
##스토리
대문
상도
가민
가르
하례
##드기
자오
미화
오감
보가
보온
##조명
신시
강관
한국식
배방
피카
무관
김이
박일
리코
메트
필지
라파
악마
콘도
토피아
드역
담판
와콤
뇌파
재정경제
최종호
우선주의
에이티
##900
##902
##901
##907
##905
##909
##906
##904
##908
##903
##920
##922
##921
##927
##925
##929
##926
##924
##928
##923
##910
##912
##911
##917
##915
##919
##916
##914
##918
##913
##980
##982
##981
##987
##985
##989
##986
##984
##988
##983
엑스노트
몰드
스트라이
욕설
##667
##665
##666
##664
##663
상속분
크리스틴
시그네
김재철
김포시
탁고
##찍
서기관
뼈대
김명수
꼬리표
지름길
박탈감
아나운서
스팸
브리티시
헤리티지
뽐뿌
재정경제부
욱
##ᆷ토
이징
기네스
수취
등용
상신
##대성
##ᆯ랭
스펜
##동작
장석
일전
일침
굽
성대
신제
서북
강아지
금천구
재물
진경
진드기
원세훈
단합
요미
영업부
뭇
무전
##서주
브래드
바젤
멕
로어
임유
웍
채찍
불평
참담
승지
##극장
민상일
구매처
백스터
새끼
송광수
펠리
펨토
펜스
고속화
옥시
국무총리실
박정우
이창환
탑승객
템포
섭외
송전선
학자금
모리타
해수부
리소스
마카오
동분서주
조환익
사향
##자니아
그대
##ᆯ량
##정리
조부
매몰
##용품
자타
정금
미원
반세기
고래
위키드
우퍼
배신
아호
귤
단도
단조
단층
산호
문답
아이다
휴케
어지
창당
##르코
불소
라텍
타스
##바라
음영
백기
항생
무선망
동기간
##풍기
에스아이
수석대표
전력투구
멋
파일럿
좌장
김정민
부실기업
창원시
강행군
국책은행
칼럼니스트
미쓰이
정동영
한경희
사우스캐롤라이나주
우미건설
초소형
와일드
스펙트럼
휴켐스
뻥
짠
주치
지존
전임자
수제
##도시
제대
유시
유언
정일
정찬
오정
오타
국기
스도
관저
위키
##소음
강신호
금명
방기
배런
올스타
노부
원성
##블러
##건영
대표작
아이브
로브스
본딩
물망
청렴
저소음
라자
결정권자
뉴욕주
현재현
군포
신문사
루체
정유경
펜싱
쿠션
칼라
밀월
김현정
머릿속
갑호
오토메이션
프레임워크
윤종록
비행장
영사기
미슐랭
이맘때
뭇매
시당
시추
주둔
지참
전운
##그레
##계좌
조강
조흥
화가
유물
정철
스컴
코업
회기
##프스
고광
선글라스
영유
비밀리
##적분할
##마스터
내려
##우기
과민
에디
원거리
요하
여상
여과
파버
나미
어주
물적분할
역경
워즈니
클레
##타리
##항고
관리인
##탄올
과거사
삼광
이름값
퇴치
비즈니스호텔
특정인
좌표
좌초
메이플
후원자
##받기
김용범
흡수율
축구단
접촉자
금감위
트랙패드
쾌유
결승선
전투기
성동구
재수사
헨리
내려받기
워즈니악
##잎
사카이
지바
가오
##대현
부회
만매
##비시
오주
스로
##맨드
##출자
위세
##행철도
성기
성토
##급행철도
설영
설파
노희
##아리
피리
##ᆯ로러
##브릭
박혜
릴리
집사
로맨
양조
입어
입양
불빛
검침
뒤쪽
라쎄
승차
명화
용차
각설
엔비
입장객
헥
격주
질화
농장
두부
삼중
##얼음
야쿠
오프닝
납품가
인천국제
균등
거부감
무리수
상속권
살얼음
광역급행철도
안보리
외관상
대졸자
익스플로러
스킨십
윤영교
태권도
생동감
안현태
윤여철
시몬스
대니얼
진풍경
룽
##딸
가감
제리
억지
##체육
인격
스루
투트
##프티
한주
비드
##모습
동두
포렌
한국상
현대엠
운운
운하
##약청
리자드
파세
입량
임창
창투
감옥
승시
##응우옌
벵
복현
민트
환경친
용선
##순위
키위
접합
식약청
금속업
타이응우옌
##협력
망은
푸념
감독관
암묵
검색창
테일러
거주지
최성환
럭키
##쎌
마리나
홍석우
접착제
쿠퍼티노
널뛰기
세뱃돈
고육지책
##테르부르크
권희원
인천국제공항공사
동두천
포렌식
현대엠코
환경친화
##켄
사철
지창훈
거동
전상
수일
중인
##용지
자민
연필
인컴
정예
미니스
##붕
고한
##미오
##소자
포조
평사원
진급
원곡
호시
무마
초상
문병
리요
##ᆯ레이터
교복
카프
입안
##현진
워프
불능
혁파
무역투자
황도
문화유산
윤회
##라이어
혼동
송부
셈법
행정소송
특수강
##필드
익스포
남성복
판도라
마그나
##나이더
스타일리시
양형욱
앵글
희생양
틱톡
시흥시
미수금
돼지고기
입출력
##프로세서
소용돌이
에르메스
해수욕
관악구
최기영
감광액
페라리
판타지
애호가
고마움
무역투자진흥공사
##펫
기울
줄리
가대
부스터
하츠
조르
소란
영실
성폭
신음
신풍
##진보
말라
포터
##성동
##종합
방울
재앙
평의
노승
특설
요란
김범
리니어
변속기
하이쎌
롤스
직물
수요량
이동한
톨
이재선
데이트
언스트
남영
식단
버진
새한
혜안
친목
베이트
귀향
기부자
스위칭
대기록
둘레
압수물
시곗줄
사망설
안경식
서명식
김경진
외화예금
샌디에이
이석우
기저귀
재경위
매트릭스
던전
미생물
사공일
요미우리
로브스키
파세코
샌디에이고
##끄
##이치
임사
지옥
전횡
가급
부에
갯
##비치
##들리
자필
연회장
인니
##구려
선서
비콘
신보
신봉
##과세
##종이
판별
전자기
재항고
노심
원구
단연
안무
여천
무비
급전
김회
김보
김두
박범
바운드
집필
생산비
양현
양경식
물거
처사
총성
콘래드
토머스
이재승
드루
낙동
북단
조직원
팔레
윈덤
유기물
정몽진
김영대
긴급회의
가중치
고발장
##샤오
사인회
탐욕
구자경
낙찰자
김중수
카이로
가산점
김홍식
슬픔
춘추관
력도
성북동
신창재
낙제점
기생충
아킬레스건
기울기
280
282
281
380
382
381
300
322
311
480
482
481
400
422
411
580
582
581
500
522
511
680
682
681
600
622
611
780
782
781
700
722
711
880
882
881
800
822
811
980
982
981
900
922
911
##ᆼ이
##흔
##ᅣ오
이마
이너
##자치
시시
시버
##수아
##사국
중역
##드라
국을
한옥
선재
##소이
성당
서식
내방
방류
##안전
전자전
생사
현대미
결격
파르
폭설
##편차
완수
토드
##더위
가스공사
##범죄
알토
석부
삼겨
정치권력
표준편차
친지
1080
1082
1081
1000
1022
1011
1280
1282
1281
1200
1222
1211
1180
1182
1181
1100
1122
1111
1780
1782
1781
1700
1722
1711
1580
1582
1581
1500
1522
1511
1980
1982
1981
1900
1922
1911
1680
1682
1681
1600
1622
1611
1480
1482
1481
1400
1422
1411
1880
1882
1881
1800
1822
1811
1380
1382
1381
1300
1322
1311
2080
2082
2081
2000
2022
2011
2180
2182
2181
2100
2122
2111
##혁진
2200
2222
2211
현물출자
유기농
##먼드
상공인
여행지
이중과세
갑절
가로등
플로팅
그레이엄
포르쉐
무제한
희소가치
마이크로프로세서
시뮬레이터
홍성국
소송비용
튀김
링컨센터
광운대
굽타
삼겹살
##ᆺ솔
임산
기상도
##리얼
상수
##수단
유커
스트로
세서
기업사냥
##재해
성의
서태
동수원
포티
##명식
피인
##무중
특산
안민수
호통
메티
카펫
데크
나카
당구
어버
총책
심미
시작점
칫솔
완패
형대
승수
승낙
레보
허탈
질급
일정액
존립
삼국
탈수
퍼팅
칼리
자연재해
염료
명예퇴직
지출액
핸들러
강의실
오리무중
##타이밍
아바코
구로구
교도소
플리트
신기원
궈타이밍
강신익
의왕시
남중수
하마평
항공우주
정홍원
야쿠르트
물거품
어버이
##벅
##떡
##정보
화인
공량
최수
오영
오젠
슬리
반부
장흥
한스
한독
종도
서도
말문
괌
차석
차손
##보유
뱀
아주
피코
호스트
박창
직렬
예정지
창시
불합
불경기
항간
송우
네이밍
플레이오프
쪽방
출자자
정유성
##폐공사
전통문화
헌납
먹잇
김현준
울산시
엄정
땅콩
봄바람
블로그인
증폭기
김태희
센트리
코미디
불출마
쇠락
대동소이
유연제
감찰관
처인구
김소남
한승호
한가위
공도읍
유니슨
마장마
이아람
아홉
먹잇감
이신
사세
시베리아
지드
##가족
중금속
화토
분통
콜린
종착
모차
모욕
코스믹
서거
강문
판독
방편
##발전
안녕
##텔링
리야
프로슈
달리기
양행
나가
본회
트램
총기
총이익
임파
조정법
가치관
홍창
##베트
폐가전
##십리
부상자
헌화
신라면
김기식
김현중
무기력
이수만
스토리텔링
퍼스텍
싱클레어
지휘자
탁조
로스쿨
이주호
오산천
탑승자
인디펜
안산시
원정숙
중환자실
요하네스
해수욕장
모차르트
프로슈머
총이익률
기태
수부
수박
수칙
##그로
대연
상류
##수사국
중등
화고
유소
고선
플릿
서드
##망이
차인
재화
에러
산지
요일
##코올
받
교내
평가익
로이
전략산업
##민호
정보력
베스터
데이즈
침범
윤진
독일어
연방수사국
친문
흑인
제작진
답안
아랫
교통정리
테크노폴리스
찬장
고속버스
큐레이터
조원동
정몽원
엑슨
몰수
남북한
답변서
이정현
김재은
입학생
유의미
강호갑
현명관
마장마술
임파서블
팡
이닝
이춘
##장학
거스
거북
상견
가장
부촌
경륜
하프
##비행
연두
미디
서장
서관
동운
##과이
도량
도자기
결점
안분
무통
초년
운구
김낙
박테리아
리미
파운
어보
물대
##연재
검역
속사
라자드
크레인
독무대
베니
블럭
돌기
출발선
용관
눈빛
남근
웰컴
조선일보
혼돈
새우
뇌관
스탬프
단체전
푸른
뒷돈
토론자
픽업
이경호
게이트웨이
갑천
카운트
함양
김경숙
렉서스
이민자
##알라
##스팅스
최치준
아가방
세인트루이스
이효리
세르게이
발자국
호송차
펨토셀
임산부
##장학재단
##또
사티
실례
##스토
대기업
붙
하차
유세
유역
최규
연재
관인
반신
##승준
영속
종중
##재판
우가
신구
마디스
##니컬
한국장학재단
##의사
애칭
에콰
##무기
테스코
경제특구
##초사
데시
필적
목장
임채
불쾌
손연재
사회생활
콘센트
음모
남원
레바
백미
백기사
동기식
삼립
능선
외환보유
통합진보
수입국
배경태
치료비
##케이드
스텔라
웅진케미칼
궁전
엄벌
캡쳐
유선형
트레이스
패스워드
공로상
##특위
섭취
박찬구
자산관리계좌
박승영
바클레
힙합
꼭지
법치주의
샴페인
함박웃음
안드레아
최은영
이엠씨
노심초사
김회재
상견례
에콰도르
외환보유고
통합진보당
멱
싸
주대
주영
상봉
가혹
##상사
##용수
정광
미확
오퍼
##부답
장손
##고속
신변
내사
방준혁
재상
재양
해치
원음
안일
요코
이상원
운정
문전
간파
박효
리라
프로포
평가손
나자
나침
체어
워라
##교동
속담
크린
광고인
용액
황인
컴텍
돈줄
유리창
난국
원자로
미니멀
트레일러
##캠
세종로
싸이클론
김진표
싱크마스터
득세
묵묵
아메리카노
청주시
판촉전
장부가
세정제
모빌아이
비대칭
쉼터
##사이클
위자료
조력자
오진원
총집결
깡통
미즈호
평론가
어보브
프로포폴
미니멀리즘
묵묵부답
벙
이계
사벌
사기업
등시
상방
중임
중률
개의
인석
오마
국보
관도
세바스
고감
보로
서클
강승
동체
##종일
통감
통섭
통칭
무주
박민
바자
##음극
생산액
양념
패브릭
불탑
자산주
##폭탄
손짓
가칭
북아프리카
온정
레터
황사장
방송법
버리
윤장
냉음극
누이
탄신
새내
송인
과학고
기본요금
귀성
자연색
빈약
##욱순
증언대
##히드
경남은행
윤종규
김연우
##룸푸르
김진우
노래방
림스
한라그룹
트로피
지형도
햇살
옐로우
하남시
매일경제
윤창현
아비코
기현상
노영민
노희찬
살얼음판
낙동강
리야드
사하
##잡스
기권
전약
전교
대물
경식
화순
유배
최주
미완
미끼
국순
한산
선원
영대
예식
외양
신예
방배
계주
##공세
디어
기술료
설로
협공
문회
다년
김지수
##실베이
어부
트립
##하마
##하키
심신
##교수
불승
크론
명상
윤순
윤혁진
스타터
경험담
부정행위
혜지
슈나이더
재무장
관세법
태양열
펜실베이
암울
운동가
롱스
이승훈
너비
세이빙
스티브잡스
이수건설
광장동
외화채
김윤옥
럭비
사재기
정형식
이우현
옛말
용이동
양승태
##기념일
산호세
고한승
국순당
펜실베이니아
240
242
241
247
245
246
248
243
249
230
232
231
237
235
239
236
238
270
272
271
250
252
251
259
256
258
279
276
278
260
262
261
269
268
290
292
291
298
340
342
341
347
345
346
348
343
349
330
332
331
337
335
339
336
338
370
372
371
350
352
351
359
356
358
379
376
378
360
362
361
369
368
390
392
391
398
440
442
441
447
445
446
448
443
449
430
432
431
437
435
439
436
438
470
472
471
450
452
451
459
456
458
479
476
478
460
462
461
469
468
490
492
491
498
540
542
541
547
545
546
548
543
549
530
532
531
537
535
539
536
538
570
572
571
550
552
551
559
556
558
579
576
578
560
562
561
569
568
590
592
591
598
640
642
641
647
645
646
648
643
649
630
632
631
637
635
639
636
638
670
672
671
650
652
651
659
656
658
679
676
678
660
662
661
669
668
690
692
691
698
740
742
741
747
745
746
748
743
749
730
732
731
737
735
739
736
738
770
772
771
750
752
751
759
756
758
779
776
778
760
762
761
769
768
790
792
791
798
840
842
841
847
845
846
848
843
849
830
832
831
837
835
839
836
838
870
872
871
850
852
851
859
856
858
879
876
878
860
862
861
869
868
890
892
891
898
940
942
941
947
945
946
948
943
949
930
932
931
937
935
939
936
938
970
972
971
950
952
951
959
956
958
979
976
978
960
962
961
969
968
990
992
991
998
들
룬
##흑
이국
시료
상조
##숲
부머
조진
매너
##비용
화승
##화음
연회
연석
국전
국향
소기
##고개
우발
동과
배너
재조명
아인
순응
순혈
안국
호세
홀리
적색
문고리
리수
뎁
남선
폭언
역습
트란
##램프
불협
##말라
향연
프리어
민시
##스코프
접사
풀코스
임원수
윤병
혼탁
러셀
세탁력
1040
1042
1041
1047
1045
1046
1048
1043
1049
1030
1032
1031
1037
1035
1039
1036
1038
1070
1072
1071
1050
1052
1051
1059
1056
1058
1079
1076
1078
1060
1062
1061
1069
1068
1090
1092
1091
1098
1240
1242
1241
1247
1245
1246
1248
1243
1249
1230
1232
1231
1237
1235
1239
1236
1238
1270
1272
1271
1250
1252
1251
1259
1256
1258
1279
1276
1278
1260
1262
1261
1269
1268
1290
1292
1291
1298
1140
1142
1141
1147
1145
1146
1148
1143
1149
1130
1132
1131
1137
1135
1139
1136
1138
1170
1172
1171
1150
1152
1151
1159
1156
1158
1179
1176
1178
1160
1162
1161
1169
1168
1190
1192
1191
1198
1740
1742
1741
1747
1745
1746
1748
1743
1749
1730
1732
1731
1737
1735
1739
1736
1738
1770
1772
1771
1750
1752
1751
1759
1756
1758
1779
1776
1778
1760
1762
1761
1769
1768
1790
1792
1791
1798
1540
1542
1541
1547
1545
1546
1548
1543
1549
1530
1532
1531
1537
1535
1539
1536
1538
1570
1572
1571
1550
1552
1551
1559
1556
1558
1579
1576
1578
1560
1562
1561
1569
1568
1590
1592
1591
1598
1940
1942
1941
1947
1945
1946
1948
1943
1949
1930
1932
1931
1937
1935
1939
1936
1938
1970
1972
1971
1950
1952
1951
1959
1956
1958
1979
1976
1978
1960
1962
1961
1969
1968
1990
1992
1991
1998
1640
1642
1641
1647
1645
1646
1648
1643
1649
1630
1632
1631
1637
1635
1639
1636
1638
1670
1672
1671
1650
1652
1651
1659
1656
1658
1679
1676
1678
1660
1662
1661
1669
1668
1690
1692
1691
1698
1440
1442
1441
1447
1445
1446
1448
1443
1449
1430
1432
1431
1437
1435
1439
1436
1438
1470
1472
1471
1450
1452
1451
1459
1456
1458
1479
1476
1478
1460
1462
1461
1469
1468
1490
1492
1491
1498
1840
1842
1841
1847
1845
1846
1848
1843
1849
1830
1832
1831
1837
1835
1839
1836
1838
1870
1872
1871
1850
1852
1851
1859
1856
1858
1879
1876
1878
1860
1862
1861
1869
1868
1890
1892
1891
1898
1340
1342
1341
1347
1345
1346
1348
1343
1349
1330
1332
1331
1337
1335
1339
1336
1338
1370
1372
1371
1350
1352
1351
1359
1356
1358
1379
1376
1378
1360
1362
1361
1369
1368
1390
1392
1391
1398
2040
2042
2041
2047
2045
2046
2048
2043
2049
2030
2032
2031
2037
2035
2039
2036
2038
2070
2072
2071
2050
2052
2051
2059
2056
2058
2079
2076
2078
2060
2062
2061
2069
2068
2090
2092
2091
2098
2140
2142
2141
2147
2145
2146
2148
2143
2149
2130
2132
2131
2137
2135
2139
2136
2138
2170
2172
2171
2150
2152
2151
2159
2156
2158
2179
2176
2178
2160
2162
2161
2169
2168
2190
2192
2191
2198
##베가스
펠르
여성복
스쿠
2240
2242
2241
2247
2245
2246
2248
2243
2249
2230
2232
2231
2237
2235
2239
2236
2238
2270
2272
2271
2250
2252
2251
2259
2256
2258
2260
2262
2261
2269
2268
클락
##건설산업
루비
레이아웃
동양건설산업
귀빈
갈래
##가짐
빈부
숙지
라스베가스
##갑수
##997
##995
##999
##996
##994
##993
폴리오
연출가
운전석
안내견
##967
##965
##964
##963
##674
##673
##654
##653
##앤비
세련미
조현상
아이스하키
김유진
체임
서남아시아
##자전거
프로덕션
송영길
일사천리
매킨토시
신제윤
차석용
나침반
불승인
불협화음
펠르랭
302
301
321
402
401
421
502
501
521
602
601
621
702
701
721
802
801
821
902
901
921
랄
짬
##이디
##시효
수협
등식
가락
가나
경화
조광
만인
유투
유은혜
오아
오빠
세티즌
콜러
##치슨
코스타
강단
내연
딕스
아로
도킹
판매업
무명
초전
##민주
뒤편
##렐
##저축
명인
국가관
##바퀴
토출
북극
니어
단기성
허치슨
샤이
열거
인기리
송대현
표준화
1002
1001
1021
1202
1201
1221
1102
1101
1121
1702
1701
1721
1502
1501
1521
1902
1901
1921
1602
1601
1621
1402
1401
1421
1802
1801
1821
1302
1301
1321
2002
2001
2021
2102
2101
2121
초긴장
2202
2201
2221
갈매
칼루
엘이디
트래커
굴삭
아르셀
양재식
정호영
공과금
아토피
풋볼
햇볕
휴게소
부적합
내셔날
농축산물
첩보
권태신
##신문사
자주포
모르쇠
손병두
불합격
송우철
싸구려
순혈주의
띄
##ᆺ길
사방
##시스템
##지역
수화
댐
대질
억측
##비상
화산
연제
정훈
미재
국수
세중
투여
장국
한요
비호
비하
예멘
성행
내라
과당
##준형
잼
아난
여운
급매
초조
초비상
문관
문성
김건
##택트
리버스
교량
약가
나영
##현역
속옷
프리트
##배기
명이
달러환
액트
콘택트
용현
북동
바이올린
백광
##에너지
작업반
케이크
대한전선
##니스탄
융통
방어력
결산기
나이츠
축구팀
강요죄
이영원
펄스
##히로
##캡
김형식
죽전
청계천
이완구
미들웨어
송년회
강대국
임선태
고광택
푸른색
붙박이
세바스찬
매일경제신문사
시콘
주종
##그릇
대도
##대전
##인해
부다
조중
자백
정족
정사각
투스타
코더
장판
##치레
##고소
비앤비
보릿
신승
신명
강욱순
동래
마티
의기
의아
방정식
한국학
진사리
에반
원이
피파
무분
초가
박계
광픽
교토
카네
청도
##하트
합세
라바
바이크
눈총
온세
윤모
열성
맥아
수상기
답방
울타리
착취
플레시
관광호텔
법정형
랩톱
김성노
김상호
이종걸
공산품
고령자
미스트리
대성공
아이스테이션
재배당
환호성
잇세
송전탑
퍼블리시
떡값
헤이스팅스
교원그룹
농수산
##다이오드
임정석
황상기
크리스토퍼
인산인해
마에스트로
변재일
특산품
정족수
정사각형
보릿고개
광픽업
##ᆲ이
주스
주년
##장치
거명
상트
긁
##상블
화구
##화가
자폐
정범
미리
세사
세방
고추
비침
예판
일갈
##소프트
방갈
해동
해변
해리스
##라드
노즐
점원
##무장
테더링
급체
변압
지원군
역과
개선책
임병
저스틴
진행자
라쿠
관리제
##다발
항저우
식견
##페테르부르크
에스이
##베스
촉식
모닉
보상비
집행부
이해욱
쿠알라
엠게임
좌천
바람몰이
김상표
핸드볼
캐리비안
저가주
박종환
동물원
앙상블
앵그리
최성락
외식업
전해액
모로코
김덕현
쓴맛
시외버스
프로페셔널
오아시스
상트페테르부르크
라쿠텐
쿠알라룸푸르
헷
이훈
사돈
전하
대창
부고
부나
부광
경탁
제빵
함성
최인
연탄
정구
정설
오송
골리
모린
성찰
신모
강석
금도
과부
배율
전자종이
단죄
기관지
닻
##오카
바하이
어조
##총사
역공
임관
숀
음봉
언서
레포츠
축량
##웨이항공
혼용
러너
티웨이항공
삼총사
##ᆯ러드
캠퍼
모듈러
예고편
신호등
마음가짐
방지책
##던트
김동진
헤드램프
솔티
모비우스
오리엔
아틀라스
##히코
우상호
교섭단체
분담금
빙그레
젊음
메달리스트
광명시
포켓몬
끈기
유연탄
리바운드
유성기업
선불카드
일신상
백종석
패러디
자이로스코프
##꾸러기
요코하마
굴삭기
헷지
골리앗
##네이트
사본
기식
수하
등등
상명
증손
유조선
인승
정맥
미결
국군
스콜
투비
##플랜
현성
현덕
보미
모기
서베이
강영
방죽
계급
##룽
기술보증기금
노대
순경
호봉
무학
급파
문희
다기능
김익
박희정
##태현
파울
로만
직항
불교
검프
향년
헤라
윤동
윤성
##독성
병사
페리
선도주
맞고소
엘케이
졸업식
중형차
넓이
김성은
##스턴스
메가톤
걸기
출입국
##바이벌
이화공영
마스터플랜
##나이트
구자우
구자균
음료수
베어스턴스
박지영
인사이동
구로다
캣츠
##경기연맹
서병삼
가즈오
호르몬
투숙객
매듭
역주행
정금용
항생제
##저축은행
변압기
##튀기
##이식
전야
수완
대경
그분
금수
##사관
경내
조스
조연
유석
자이드
소련
반나
세류
장년
고출
##피자
비운
비견
성산
신증
서광
서큐
강병
동박
포니
##보네이트
##공격
배부
디디
애리
진앙
설거지
순풍
단식
안민석
요법
무모
##서더
문경
다나와
김국
파파
건희
로슈
나위
청명
활물질
##연수
불통
##배서더
##카보네이트
명작
타전
데이빗
용의
엔디
바이오센서
키네
웬
터전
##펠
에너지원
혼전
티보
송기
네임
페덱스
스피킹
좌담회
장주식
회원권
항소장
앤드류
폴리카보네이트
혈투
감정가
인권법
장외거래
이원선
이지원
천연자원
앰배서더
박찬호
구독자
계측기
인계동
박대영
도화선
##프레소
건너편
구슬땀
뻥튀기
주치의
금명간
주년작
방갈로
고출력
뢰
##마이
기압
주심
##가공
상분
##상경기연맹
경마
제자
##계현
조아
##체스터
자축
정자
반장
고참
현철
영보
일파
##졸
출액
우열
신의
동대
##성어
##성설
마오
##델라
애저
진해
아담
에미
순화
무지
박학규
멜라
카시오
개인전
직류
임가공
최고령
##버거
제조자
감격
##교부
불순
치아
참의원
##레버
##레스트
음장
##채널
침략
냉난
탄식
티머니
타이핑
열위
농해
송원
라이터
더원
##불란
증거조사
엠브
신고식
유니레버
쏠
##킨슨
남성우
구형량
이윤재
궁지
동작구
야구단
스웰
앙고
##에이터
탁스
장인상
이준우
디플레
김민수
반환점
휘발성
헐리우드
전구체
조인식
부적격
람보
일사불란
트렌치
서동탄
잰걸음
어버이날
고선명
##ᆷ마
##차일드
사배
긱
지노
상투
경원
하라
유급
유키
정혜
스팬
반스
한승훈
고스
위급
##금장치
강창
내야
지수인
배구
##데기
도스
##텍터
여학생
환일
김반
리퀴
변성
로젠
양허
입고
당대
휴처
어불
어코드
라비스
형강
철퇴
베스티
네바다
민속
면분
축복
웨일
견과
윤경
커맨드
요구서
알버트
잠금장치
케이엘
진입로
야생
팔찌
푸조
듀퐁
답사
끝장
강남대로
봉지
##완다
염호
허가제
픽처스
르완다
김성호
솔트
지제동
맨체스터
김진태
김학주
##관리본부
##음속
조현민
질병관리본부
박병희
리퍼비시
당진시
후진국
발신자
방화벽
##프라데시
임태희
창시자
받침
어불성설
럽
이비
실루
주물
지라
지디
전과
수배
##수리
하운드
만델라
공명
유찰
자비
연공서
정합
미인
관급
한명숙
영회
##필렌
예시
우딩
내화
내고
##일동
찻
통치
계회
천덕
피오
이익수
영업직
##서포트
박리
변방
메콩
건교부
로빈
본능
##현식
저음
래쉬
표절
독단
##광물
블러
드나이트
온종일
황색
헤게
테크니컬
알서포트
송담
삼환
##슈타인
회계부
로지카
분쟁광물
녹아웃
렌지
파이컴
암흑
졸자
익산
작성자
풍문
대장균
샌즈
세미텍
여론전
베르나
소액결제
류현진
스터스
금메달리스트
복원력
김인호
이규하
이순신
김희성
광양항
오세훈
무궁화
후불제
델라웨어
에볼라
소노마
김반석
리퀴드
연공서열
312
412
512
612
712
812
912
이매
이첩
주모
##스펀
전모
##리안
중상
제제
제당
매니아
##유리
##세다
분장
자일
스텔
회신
장문
고학
고태
##구멍
영곤
봅스
성식
신대
서청
내진
내열
마리아
의안
차로
해이
평행
아프
아스트라
순액
단발성
산분
##티드
무케시
립스
리플
광경
양천구
목사
창신
##놈
##저트
이동걸
편파
민경
핵무기
톱스
언덕
와세다
알라
##투합
송산
올림피아
별관
기획부
##커트
1012
1212
1112
1712
1512
1912
1612
1412
1812
1312
2012
2112
펠레
2212
뮬러
암웨이
임대인
왕십리
김영민
익과
휴가비
감지기
김정남
콩고
심판원
고공비행
그린스펀
콘서트홀
박재순
타개책
혹도
스테이크
히로시
신선도
허니문
인허가
감탄사
박중흠
수임료
슬래브
종잣돈
자가용
하한선
황정환
남해화학
승강기
짠물
센트리노
요하네스버그
유소년
의기투합
모린스
신증설
애리조
실루엣
천덕꾸러기
헤게모니
봅슬레이
톱스타
꿀
기유
기라
대극장
중미
유고
자력
미싱
슬러리
회차
고어
선라이즈
비일비
##신세
종양
신지
신랑
서바이벌
##반의
동식
내홍
##윗
##위안
방명
디보스
국내선
진천
진효
에메랄
피지
이상화
통신단
김근
박노
개발력
경쟁심
리워드
파사드
##파인
활개
목욕
수출보험공사
승률
바이트
타브
사이렌
##럼증
항해
식장
식음
교육장
윤세
조선족
누수
합의금
수입원
응수
다이소
페퍼
번화가
재료주
투신사
십상
트레인
난도
암모
입지전
김정수
수용자
운전기사
살해
쟁의
김경태
그린벨트
발사체
트랙터
파주시
전성훈
핑거
오성목
마사지
박동수
백지화
프로그래머
무궁무진
원종혁
어지럼증
박범계
반신반의
다년간
비일비재
방명록
에메랄드
닥스
##쥐
##낵
##며
심수
##리그
수난
##계산
분단
유머
자라
인큐
인듐
오재
오양
스팅
스낵
세스
코텍
선망
위비
##과천
차콜
통영
계양
##볶이
디저트
진디
진땀
도정
도너
에스코
결연
호우
무담
##각색
##나주
리시
로테이션
기준점
청량
센티
##만파
뒤집
철판
절망
각형
연결부
극우
러즈
쇼핑객
벤딩
송승
전용관
더리
망치
##엔에스
글쎄
교통수단
치료법
몸싸움
판정승
넋
굴착
혈세
서정광
튤립
스캐닝
노후화
린다
결단력
월급쟁이
틈바구니
아이슬란드
##르기니
무보수
이철희
김일성
신현준
박중섭
전병헌
경복궁
옥스퍼드
유적지
떨이
벵갈
윤장현
카네기
급체포
일파만파
람보르기니
스팬션
회계부정
암모니아
인큐베이터
깔
이으
사형
사커
기축
기독
지병
개국
화천
화평
유신
자행
최운
스완
세경
회항
선실
선데이
현빈
비바
##미답
구걸
##모드
서승
##로이스
##후퇴
진리
진과
노루
천호
천막
필로
##ᆯ리온
문무
김흥
김충
리본
리베
프로게이
카셰
달초
로프
로렌
입질
경기후퇴
트림
정부과천
마감재
화학사
결정체
바이든
학우
충분
권기
니치
헤리
헤알
제일주의
페이먼
##페스트
극성
티아이
스턴
더들리
탈법
막심
얼룩
머독
멀티모드
콜드
개막전
골드바
걱정거리
먹통
보증서
코오롱건설
연수생
함축
최경수
동문회
김창범
몇
이지훈
타협점
전인미답
매탄역
테헤란로
스포티지
투과율
햄버거
사제단
잉글랜드
정중동
유시민
익스포저
홍창완
연회비
반나절
방갈로르
무담보
프로게이머
카셰어링
정부과천청사
랴오
츄
콴
잎
주조
지아
등교
경첩
하스
##주형
업간
유광
인바
미학
코르
고국
##고스
현선
##미문
구급
종각
성열
강공
동침
##선지
방일
재야
에브리
원소
피라미드
##한시
##학서
여배우
무스
초자
김환
광섬유
파미
파슨
##초리
로메
로또
휴지
필사
체증
총궐
저택
##판지
##톨
감압
화학공업
라지
손복
완치
벨리
벨로
브랜드력
담양
접이식
백우
##더기
윤형
티몰
송병
잠원
스타즈
범인
탈리아
출고량
계기판
다우기술
선수금
광주신세
임대업
왕따
이경태
##렌토
급성장세
화물기
박상범
이수화학
##첩장
박성현
교차로
칠괴
창작자
##잔치
김희용
연례행사
전광우
이채욱
##네임
장대환
플러그인
홍준기
커스텀
전대미문
옴부즈맨
급제동
바른손
김낙회
연석회의
급매물
로만손
불순물
찻잔
##파인더
총궐기
광주신세계
깨
췌
살리
붓
제우스
조목
화위
인준
정회
오티스
스즈
세진
세타
##동성
예감
보태
##믹스
신망
동신
포커
##위권
##우레탄
##준영
##루루
아수
천편
결사
원액
기관계
여분
이상현
환대
리디
카오스
양가
당도
청첩장
측간
치사
##노소
손동작
타미
캐터
##광선
컨트리
이재환
##박사
각양
샨
농부
두정
신청인
대한육
울림
빌드
컬쳐
난청
내장재
신동민
신중호
셰이크
폴리우레탄
고도성장
##쿠라
투기성
비자카드
탕정면
김준호
담뱃값
스타일링
이현석
남녀노소
최재유
부천시
벤틀리
주전자
홍순표
유모차
허진수
일주일
썰물
박일평
부다페스트
조아제약
벵갈루루
성열우
파슨스
려
텅
##아일
##쿡
이그
이나
사심
##시드
주수
##기수
그리기
중원
경차
제니스
조식
유미
오기
반정부
코마
장과
##필러
구민
종량
##롬
의정
차년
진취
설리
도체
에마
천수
단문
산운
호도
##틸렌
무방
박도
광림
교직
카봉
##파즈
약서
양손
역수
처남
저전
전기식
폰트
감회
불감
불굴
승화
바이스
악세서리
근정
##바로
사이크
토파즈
쇼인
용두
##철호
키스톤
냉소
티모
운송업
골판지
야대
기본기
##벨리
페니
막지
국정조사
난수
엠케이
메이디
밀가루
##칼튼
독립기념일
심의회
신동방
핀치
이승호
구본능
연설문
파라디
이수형
헬싱
일회용
신장동
숙박업
권영진
리츠칼튼
근간인
마이크로일렉트로닉스
전인대
체면치레
스파이더
쥬얼
미용실
면역력
애틀러스
블리자드
기념사업
장안구
프란치
서북구
##끄럼
아줌마
띄우기
문희상
캐터필러
각양각색
무방비
국정조사특위
이월드
시프트
주증
##그먼트
대영
대의원
가독성
자조
잠수
미끄럼
오도
세그먼트
실직
코크
코포
코넬
곱
##적소
##재호
##소현
서커스
강탈
과밀
방관
##보르
배합
기록원
##아나
피츠
산고
산간
산부인
판매전
영업자
무능
적과
다케
박연
##직하
바늘
바리스타
남서
입비
플랙
어택
어웨이
첼로
태장
##웨스트
대형화
독방
사이공
홍정
##절명
마이너
허페이
냉전
타이탄
벤젠
##은기
##딩크
반대편
히딩크
회계감사
조셉
퇴보
금지령
재단법
최신호
머큐
메릴랜드
좌수
옥사이드
스티나
김영식
입찰가
화이트박스
년하
이정훈
류체
경부하
강사진
중화권
진공관
조양래
구자홍
록하트
큰일
시어스
우울증
##뮤직
물음표
이호진
고기능성
뷔페
매탄동
드롭박스
김관용
감속기
사카린
이격도
적재적소
미성년자
나오이
헥사
롤스로이스
급전직하
홀리데이
세류역
네바다주
스즈키
헬싱키
산부인과
##룩스
##ᆺ날
##일률
사결
대단
가품
가축
붉
분권
유압
인차
정청
오보
소나타
실화
장은
고바
외제
보임
보르
성은
강유
동아일
금춘수
##일대
마인
과외
배재
##근감
진원
##물단지
단상
단돈
산신
산불
##분모
안치
여소
염소
다락
행자
카나
나타
##민정
당좌
본보기
팸
패킹
전문의
채취
##강철
팀쿡
앞쪽
##희진
##희경
논술
논설
포스코강판
확인서
레슨
레코드
니티
##덟
허베이
질식
열림
범한
골수
과학기술
캠리
폐열
막후
번식
머그
레일
보상제
동양강철
교통편
에이킨
유니티
털기
출장지
스트레이트
풍림
통계학
이경훈
스테판
공통분모
김동선
회견장
크리스티
곡선형
제이슨
이정재
비보이
여윳돈
밥그릇
챔피언십
황성우
랜섬
바깥쪽
균일가
아가사
##벼락
영덕동
득표율
정승재
성진경
짜증
진흙탕
스펜서
##르코지
서큘레이터
키넥트
고태봉
보탬
천편일률
머큐리
동아일보
믈
이산
사르코지
시럽
지투
##그라운드
대시
##인터
##인증
중년
중서
개구리
##주로
분화
인스턴
국간
소나기
반일
장발
투자주
선동
영미
비이
외고
구이
구마
모도
우남성
서화
발식
강부
냅
방범
한국도로
아포
원두
안혁
테리
테레
판매원
여덟
변제
광다이오드
카인
집념
생산지
로미오
약사
나로
입회
##포머
휴고
##여객
##ᅥ스트
크랩
뉴로
타오
의료법
포스코센터
레트
압둘
헬리
생활필수
식이
식생활
견적
티타임
더페이스
##길동
참가국
대한체육
##예우
감사관
답습
표시기
프랑스어
부산물
에이지
##추위
##800
##802
##801
##807
##805
##809
##806
##804
##808
##803
##820
##822
##821
##827
##825
##829
##826
##824
##828
##823
##810
##812
##811
##817
##815
##819
##816
##814
##818
##813
시사회
은색
이승재
이승엽
##887
##885
##889
##886
##884
##888
##883
아산재단
안내서
활력소
함량
활약상
도심형
빨강
간부급
##샤바
탈출구
응모자
린데
과대평가
리퍼블리
구단주
노태강
서천동
김은정
옌타이
트랜스포머
김철중
그랜트
김도연
블라디보스
전관예우
수인선
사조산업
프리스비
우원식
조르지오
총책임자
윤순봉
심수옥
랴오닝
불감증
인스턴트
한국도로공사
생활필수품
더페이스샵
대한체육회
리퍼블릭
콕스
##갸
##캉
기화
##사랑
공분
분전
분홍
최나
정판
미상
스나
스파이어
반디
##해주
장서
##신기
구색
우루
동통
차환
한국사
배팅
전자회로
##급식
재치
재력
올드
점발
원피스
피닉스
안토
##텔레
테트라
여회
환갑
브린
박장
행시
행선지
본전
휴머
정보관
손녀
##카와
복업
복용
타르
온몸
담론
허드
샐러드
텀블러
##휴업
부정확
범퍼
친척
페로
망인
스콘
심사숙
갈륨
앤더슨
##윤석
밑바닥
영통동
아웃렛
경력자
김성훈
무상급식
부실화
굴복
이중근
곽승준
김상률
혈맹
견해차
류정
볼드
밥상
인민일보
앙드레
지휘봉
이스트소프트
이성태
강경훈
정진석
정재찬
둥관
타협안
클로징
어학원
개점휴업
정공법
폐막식
이호수
불당동
삼천리자전거
데드라인
드래건
결속력
김부겸
비주류
북서쪽
불쾌감
대물림
토출구
고학력
사이클링
프란치스코
중서부
심사숙고
렌트
카일
##ᆨ션
##타일
##번스
##뉘
##ᆺ집
이단
##자이
시형
지열
지폐
거금
전점
대나
##사래
경성
제미
제노
조너
매튜
정속
미녀
소금
반찬
장정훈
##산동
선경
보컬
위스
성태
신간
내서
사업소
한국자산
디텍터
##입구역
도액
피혁
##티지
요람
이상윤
초교
리즈
바텀
변인
변양
변칙
경영지
메기
교분
달갸
약량
약학
##하늘
체리
체지
총대
저스티
손사래
완다
복고
관리직
식욕
방문단
격년
방향타
##라이더
티폰
열의
팬덤
##컷
##커피
덕수
울주
레이티
정기선
홍보물
파이퍼
계산서
리얼리티
김용수
##메이커
봄맞이
임상시험
김준일
포항제철
피아니스트
이성윤
구인난
카트라이더
박형우
클로이
트루먼
빵집
왓츠
정태영
박준현
오롯
##탐탐
흉내
중흥건설
나들이
배기가스
반송동
면도기
호시탐탐
문무일
달걀
저스티스
쑥
##짝
##자스
기보
지치
##ᆷ술
수저
댁
대왕
가파
##상은행
하지
만유
##체절명
##회찬
정론
스지
반투
한겨
##신장
신헌
서안
서평
발품
말단
##어음
계파
##공상은행
디와이
기술전
진퇴
노회찬
돋
도배
중국공상은행
혐
엘컴
원공
필ᄅ
피어
호원
요우
무이
다윗
##홀름
박유
리어
파병
나모
체로
체불
총비
총격
##청역
라미
절체절명
혁신안
국민운동
드러
황철
##더미
헤징
스태그
얼스
장세주
빌보드
퍼시스
뒷거래
왕양
김영익
트위스트
김현미
먼저
박용성
굴레
이윤학
트레이너
스와치
스톡홀름
손익계산
비정질
마스터스
일렉트로닉
아이파크몰
득실
##줄기
챔버
번역기
루이지애
김유미
배수진
랜덤
수탁자
연주자
슬하
러스티드
유성구
플로리안
퀘스터
전초전
비엔나
게릴라
윤정선
남궁곤
바우처
박홍근
서약서
하영구
빅토르
##클라라
임창욱
상류층
텅스텐
한겨레
엘컴텍
손익계산서
쾨
이니스
지근
##지리
##그래
하중
만리
화백
최철
인광
오카
오하이
##문서
실린
코라
콜렉
비틀
프루
위스키
신곡
강일
##물가
도파
##아티아
피엠
산품
산점
##무게
호화
여우
다비
박두
애플뮤직
양종
양평
양쯔
물통
물놀
체재
최고경영
저널리
타수
액티
용돈
각급
##물산기업
의료관광
장기채
벚
윤원
할로
격식
새롬
조직력
스타인
야크
슐
바닥재
동양물산기업
출연진
##귄
공학교육
스위니
몸무게
욕망
어린이재단
체인지업
크로아티아
엄포
이종민
부도덕
##팔트
저작권
유한회사
쉐프
##게이츠
캔자스
제네릭
연예계
고소장
뚜레
이태리
윌버
동방신기
홍석조
무혐의
이형희
프론트
아스팔트
련주
바르샤바
아쿠아리움
##자동차
카메론
따름
벨라루스
파빌리온
까르푸
서태지
과부하
앙골라
서청원
에마뉘
오하이오
콜렉션
최고경영자
공학교육인증
에마뉘엘
챠
##ᆨ실
##ᅢᆷ
이크
이센스
사운
주경
##가게
상안
가창
##대교
부강
제원
화진
공교육
업사이드
분규
분임
최전
정적
정렬
반제품
기업주
장용
장보
고흐
영외
예심
종우
출도
위지
우와
서머스
발군
동수
동절기
포시
폴로
내시
마세라
##니커
전자계
애물단지
재전
높
피죄
급신장
교향
건도
집대성
약체
약탈
입단
##포커스
합정동
##토끼
##청동
감량
태아
손끝
벨류
작년도
타원
민형
이재웅
각고
입장료
품평
가스관
기회비용
커머
병설
내부자
운송비
범법
덕트
논란거리
페인
홀드
동탄면
##충돌
우선권
칼끝
웹캠
객수
상호저축은행
여행자
풍미
##촌동
##렌즈
봉사상
아웃포커스
이병태
쏘렌토
박용곤
제이씨
엄영훈
김재권
락스
불확실
이치엔
서민석
싱크대
죄질
불가결
위증죄
묘수
세분화
아키오
저지선
아크릴
쥴
천지인
원숭이
막내딸
안중근
절충안
양육권
원희룡
##프레임
이헌재
알렉산더
비빔
펭귄
붉은색
돋보기
마세라티
꾸
덜
##붐
##럭스
##케팅
##ᆺ돌
##ᅥᆼ크
사다
기이
주만
지뢰
대본
대회장
##대사
##상가
부직
경도
화환
유흥
연어
정택
관습
세후
세척기
한올
영혼
비르
예규
예결
일생
##모빌
출항
성일
말리
내곡
##후아나
배전
디럭스
국내법
혈류
원어
간담
김춘
##호흡
박남
박윤
광안
로스트
총공세
서울보증
저촉
월례
##토크
불구
불이익
##렐라
늄
국제여객
데이브
권은희
남인
니시
##퍼트
재판정
운수업
허인
티후아나
삼호
범여
희종
맥박
대한문
군침
탈모
사무처
머들
행정학
귀감
컬리
웨이하이
인구수
##윤경
고정우
제어기
대전시
숙의
숙면
최상목
혈중
이수창
엑시트
트렁크
포지티브
응원단
공익사업
실용화
남아시아
##팔기
이기권
오염도
일원동
탁자
일체감
이주영
왼손
빗장
묘안
로버츠
박진영
제보자
##네이터
##훼손
인터랙션
모나코
후쿠다
조약돌
오창석
우스개
최현재
임동민
온난화
림프종
##낮이
껍데기
조흥은행
안드레아스
손복남
췌장
조너선
필룩스
가창력
높낮이
서울보증보험
눔
뛰
벳
쳐
##ᆯ희
##ᆺ감
주추
지동
지르
전석
대심
제청
공권력
분분
분여
유탄
관사
세칙
코란
장형
선율
외래
종말
몹
모사
프록
신평
금정
##로더
디알
노정
도봉
에베
##무사
기관차
요새
다단
박양
교제
폭리
활주로
역광
체대전
임업
창안
라원
승복
결정력
##츠하이머
플래카드
명석
근심
토공
관리관
생명력
고려인
터프
중앙당
알츠하이머
농약
날치기
주택지
정칠희
슈로더
스탭
군용
청구인
빌게이츠
펜촉
스피치
칼바람
곡성
파이넥스
폭발물
뷰파인더
##홍석
레슬링
너머
제이지
철도망
합계액
뱅커
클리오
컨버터
김형태
정용택
린나
관료주의
김순영
섭씨
수료생
강북구
해운대구
튀니지
최진성
##별력
아미노
베이비붐
윤태영
급선회
난치성
일기도
임동락
임성기
미식축구
최하위권
지모도
군부대
서보익
인디펜던스
엑슨모빌
수하물
스텔스
뒤집기
행자부
나로호
실린더
320
310
420
410
520
510
620
610
720
710
820
810
920
910
##ᆺ빛
이덕
사부
기침
주은기
지국
전종
##리히
가디스
부제
경종
억압
공사장
자간
자청
코끼
선우
선보
영암
##피플
##매매
일향
구르
##종욱
차치
디바
애인
재조사
평산
진폭
점착
원의
원증
단련
피켓
피에르
호불
여장
무광
##오버
리히
바티스
바캉
파수
파편
카시
카림
양우
양봉
직제
직설
총아
저술
##범석
조정호
대형차
이용우
근태
액추
홍천
온탕
언행
접경
버퍼
냉면
격자
조선대
알코올
송민
송상훈
네이비
매장인
1020
1010
1220
1210
1120
1110
1720
1710
1520
1510
1920
1910
1620
1610
1420
1410
1820
1810
1320
1310
2020
2010
2120
2110
오프라
감사패
2220
2210
교통비
페이스타임
에이전트
비상시
신고자
왕래
밀어
박영준
객장
명예훼손
위안거리
인포메이션
포스팅
예술인
동원개발
혈전
이정호
클리닝
살균기
황금기
신상훈
상주인구
시한폭탄
아랍어
집권당
구인회
표창원
경비원
수납장
턴키
캄피
김선영
베어스
메세지
요지부동
조승우
콰이
파인더
브랜디
조동길
플로리다주
사교육비
발자취
에이디피
초대형주
함영준
사파리
임수정
폴리에틸렌
구설수
어부지리
지침서
스태그플레이션
최전방
내시경
코끼리
호불호
바캉스
액추에이터
뜸
##ᅭᆫ
##이스트
이질
시성
실란
시빅
숯
대망
함수
##첼
자투리
최명
미개
오동진
슬럼
회심
비에스
##적성
우석
거래자
서지
차출
##난도
통인
디렉
##근영
에디슨
산발
##무늬
연구용
안기부
급수
##서동
초간
##약품
##나물
행인
건영
나래
나태
##여름
물수
물타기
역도
역작
체득
##판토스
센카
효소
감점
불길
속기
결정타
학무
명과
타국
##스코어
홍현
이재갑
관리사
무역업
수사대
남학생
컴스코어
전장화
별동
군살
페소
푸네
장사진
엠파이어
압박감
관광업
빈스
위상차
은둔
풍자
도로망
르펜
##웅래
김정호
전담반
칭기
세이버
탄소성
제이션
라이브러리
아르곤
맹위
국방위원회
의뢰인
쾌적성
우면산
수료식
어학연수
동대문구
콰미
웨스트엔드
한승희
통행료
정승일
간선도로
이홍구
##베르토
프렌들리
하태경
주진형
동갑내기
줄리엣
범한판토스
에베레스트
288
388
488
588
688
788
888
988
랍
이쪽
시의
시운전
주호영
전우
##기호
중랑
##계식
화이
##제프
정근
정자동
미샤
오픽
장보기
고자
##피로
##적외선
##마라
##모어
신텍
서술
마스타
마음속
판재
계명
##보카
재일
아케이드
노미
에탄올
점입
피격
##석호
판매장
여심
이상봉
무소
적수
멕스
광디스크
행원
로이드
나바로
##하루
저개발
심인
검단
향남
랏
라디
##렘
뉴먼
월선
드릴
권성동
백억
식민
육로
탄광
공모자
에스피
1088
1288
1188
1788
1588
1988
1688
1488
1888
1388
2088
2188
퇴조
울릉
전지원
멀티스크린
레이어
##옥희
최적지
유명희
프라이팬
쌍방울
부지기수
익일
주의자
셰릴
김정숙
무기명식
크리스티아
##높이뛰기
고지서
감정싸움
락세
김대환
소방대
이원희
동북부
쑤닝
스키장
참관단
양수산
홍성호
장대높이뛰기
휴게실
전라북도
쿤산
엉터리
성수동
다용도
로맨틱
용선료
미니스커트
서도원
레바논
벙커
백광제
콴타
이산가족
반투명
부직포
다단계
캄피나스
308
328
318
408
428
418
508
528
518
608
628
618
708
728
718
808
828
818
908
928
918
##라일
이레
사지
사야
시물
기신
##스피
##가경
등한시
##금성
대마
상현
부업
개강
조계
조폐공사
화색
분모
분교
자통
인라인
정배
오상
관보
소견
장실
영정
비의
예물
외견
보물
##조목
구세
구균
구희진
##소문
신우
신지애
서용
강용
내인
마디
##종섭
방탄
계구
평방
##감독
노환
천신
결탁
원투
안락
호라이
경제부
블링
박봉
후견
작푸
멜로
로크
로테
양반
입항
직불
물기
필터링
총서
총면적
##현표
전기세
심결
합섬
채점
손석희
구조법
마키
절삭
명기
메모리얼
캘
민계식
홍길동
낙마
낙선
북대
축이
축전
헤비
침착
육현표
송사
병동
능사
라일락
에스컬
1008
1028
1018
1208
1228
1218
1108
1128
1118
1708
1728
1718
1508
1528
1518
1908
1928
1918
1608
1628
1618
1408
1428
1418
1808
1828
1818
1308
1328
1318
2008
2028
2018
2108
2128
2118
사고력
지식경영
번개
2208
2228
2218
갈비
칼라일
왕관
헌장
관람권
량도
대장금
이경자
조합장
자국민
김동준
##푸드
세이프티
입학식
포스트잇
김수남
지오니
동북아시아
마이크로폰
이철우
콰트로
쥔
이형석
최윤호
적법성
카탈로그
광진구
성폭력
초년생
체어맨
온세텔레
평행선
굴착기
조목조목
우루과이
점입가경
호라이즌
에스컬레이터
온세텔레콤
또
##ᆸ관
이나비
이펙트
사석
사나이
기물
##시도
거위
전분
수종
수포
##그린
대아
대현
대홍
상전
상온
가압
부츠
경지
경축
개업
조속
유장
국동
소프
소행
소임
코네
한금
한누리
영신
비접
##마르
외길
일비
우먼
신소연
발가락
도인
천상
##분해
초선
초봉
문상
##양동
리도
##민구
패기
어레이
청화
틀리
##현주
##열차
일본식
심축
센세이
##교섭
##스트림
속전
회복력
완저우
취사
##천후
명문화
타밀
용객
용광
음압
롯데슈
엔제
##악단
상대편
접시
백성
헤서웨이
정밀도
버터
버킷
완화책
중앙선
상당액
병렬
골인
##베데
흑연
돈벌이
충전율
##손가락
카카오스토리
홀인
개통식
쪽박
트렉
화성산업
경계선
차관회의
그래피
랩탑
도로변
인원수
너리
공소시효
텐진
프레지
네오플
임상국
이론가
김준수
정원석
주소지
칠순
구멍가게
박형중
혹한
무용수
권선동
산타클라라
올리버
원정대
표지판
썸머
코원시스템
최준선
식습관
생리대
비욘세
버거킹
허태학
백수현
에미레이트
올림피아드
타블렛
##몇
몇몇
종량제
천수답
구마모토
강부영
서평택
센세이션
롯데슈퍼
##ᆺ말
##ᆺ소리
##ᆽ기
이엔에스
주커버그
전회
수달
대칭
상패
부스트
경공업
##비트
##주니어
##용호
유년
최형
최창원
인전
인칭
정희
미약
국선
관식
소포
한탄
고혈
##식품
구스
구학서
모카
성고
서른
##반사
동휴
마관
##차원
방재
배점
배척
##명수
디너
##속결
설움
결말
단락
세계사
##코딩
문고
환금성
간디
##호원
메자
집무
하이데
로브
로쓰
양여
직경
어수
임씨
젖
심증
치약
향토
속설
##노이드
근방
국제법
이사철
민나
사이클론
눈초리
전시물
백년
풀프레임
혐의자
방송위
##스크로스
버티
윤택
##투아
전국구
흥망
노동계
최종현
징조
듀레이션
홀수
루터
루퍼트
증인석
슈퍼주니어
가정용품
곡반
염가
왕립
지도층
멘디
김영태
잠재성
배상근
벌점
전월세
제이브이
이종형
봄날
김승유
체크아웃
술자리
공산주의
킹스크로스
짝수
그레이스
포르테
이순동
가산동
클로버
적격성
압구정동
한승수
박인비
람다
##팽이
##ᆷ승차
썬더
홍기택
김범일
파르나스
이음새
기독교
대단위
안토니
무임승차
벚꽃
작품상
속전속결
쌈
##륵
##하일
##ᆺ개
##이동
이청
사력
시군
기표
주점
주다
삼성역
##지마
##가니스탄
수에
가연
가평
부조
부본
##원수
조니
##체능
화관
유창
연면
인감
미전
미간
오키
세크
콜럼
기업어음
한명섭
##고사
비너스
비무장
예체능
외근
보리
출정식
##소재
성악
신항
신협
신춘
추동
금채
확답
차오
방아
한국연구
배짱
##안석
평이
갤럽
노약
에누리
##아르
산행
테넌트
이상인
성장통
문종
환란
블렌
박건
후각
훗날
작량
리보
파탄
달팽이
입대
본거지
##방망이
물살
청자
서울광장
서울특별
저압
심주
대통령실
감명
손맛
##워팔기
바이럴
명세서
악명
악연
##혜원
회의체
각층
전시회장
황재
백금
하루하루
송경호
라이스
고가품
군소
감사장
망막
지식인
이노스
##불안석
브라보
방어책
홍보전
등록증
좌불안석
##케어
##윤호
가시밭
자랑거리
버스터
원천동
김지원
우승컵
포토샵
##벤처
##캠프
##토리엄
정면충돌
김진형
탐험
크로스오버
당사국
할당량
패스트푸드
재배기
어드벤처
제프리스
사우스웨스트
수험표
보라색
##ᆷ살이
힌두
통지서
토너먼트
손정환
진돗개
최광해
이대원
대양금속
끼워팔기
브렐
##느리
항공우주국
지엔코
미공군
노른자위
이분법
메틸
붙박이장
유석렬
삼환기업
아프가니스탄
논설위원
성태윤
신헌철
미개척
엔젤스
방아쇠
한국연구재단
블렌더
가시밭길
이콘
사육
시혜
시스터
기출
##장면
지우
지니어
전복
수월
##틈
중문
개요
##첸
##유진
자웅
연찬
미고
미츠
오테
오릭스
실황
현국
외과
외파
구용
몰렌
위도
성빈
신림
포위
포워드
##위성
마다
생년
재입
올보르
평수
진짜
설욕
##감경
노티
노역
노웅래
##아트
##무쌍
##ᆯ리프
문진
문근영
환구
닮
김제
김나
박춘
작사
프로야구
나날
당량
어반
물병
경기선
필동
체가
저승
진행형
태백
불로
치단
속칭
라데
손세훈
##메르
베저스
명망
눈코
백과
식성
교육열
격앙
둔감
타이머
알트
농지
삼청동
응집
슈와
폐회
촉박
싱에
광주은행
쪽지
난리
공공요금
에프엑스
암기
인천항
신영숙
권오규
플라워
풍수
이병모
김동철
김동욱
권리금
축구공
소모전
박상훈
훈련기
엄습
판교역
볼모
회전식
박종일
학기제
자이언
노스캐롤라이나
캔디
이원석
적응력
이현재
이현봉
흡입구
##ᆺ대감
조용병
즉흥
김석필
정준영
예선전
방청석
성원건설
침구류
찰리
사직서
후생비
불명확
정우택
최현만
동지점
이한구
엉망
첨가제
바비큐
스모킹
터줏대감
에디터
코스타리카
리베라
살림살이
노약자
작량감경
##헐
이도
이멜
사행
##자민
기프
전만
수녀
가해
중교
하키
하절기
만물
화보
공립
##회담
연세
인신
미하
오경
오메
올랜
국교
국철
솥
세화
세고
섹스
투하
코닉
장우
선종
##승부
##승철
예열
예일대
외감
##조치
##조약
모음
성관
신관
서모
서창
발각
동공
동간
동점
금장
내공
판금
계곡
디언
재반
진법
노병
안드
안태
여서
이상규
문량
간헐
박시
바리
바니
바레인
행간
데자
데포
로딩
나리
휴비스
청과
총소득
총알
임홍
##임금
전기공
불의
##노이
##노프
클링
##타주
부담액
##혜영
유통단지
데이비스
권부
니버
무선국
##득규
러쉬
샤피로
농기계
트리오
벤자민
송호
병변
석씨
베트남어
연기자
재정난
##은꼴
팔라
퍼브
퍼레이드
뒷좌
펜타일
가정집
가이드북
엠파스
에이브
금호건설
빈센트
구미시장
승부사
추격전
호응도
프레디
김경준
냉방기
이민호
월간지
김태호
김준섭
낭보
전동석
강경남
내실화
빙하
이순형
드로잉
김유리
최재식
김주영
미스터리
플리커
이구동성
마닐라
남대문로
직선거리
일리노이
안재민
하이난성
격변기
이시형
박은태
극비리
충무로
##프레이즈
캐치프레이즈
라틀리프
캐롤라
##안전공사
칼리파
속사정
휴머노이드
류정한
지근거리
##그래피
주춧돌
유장희
민낯
닮은꼴
자이언츠
오메가
올랜도
뒷좌석
꺼
##넌
##ᅣᆷ
이적
이다
주동
주금
지망
수유
가마
가법
중과
경수
제삼
하폭
매대
화세
분명
증편
유환
유림
자망
연희
인제
미납
장정
영솔
구시대
모란
성창
강훈
포유
내과
마더
##차림
방제
해약
평안
##당초
원목
원불
특약
다빈
김난도
박관
박완
행안
프로스트
로페이
폭파
청역
소비력
웡
태문
손주
승전
표상
보유고
근면
자금줄
##혜경
월터
이재성
변화무쌍
레져
전시실
고려개발
백인
허구
커서
누크
트리트
트리뷰
병목
스타벅
라이신
범현
매장량
목재업
##ᆺ짓
##애나
프랑수아
브라더
뒷말
염증
합작품
신동아
비디오디스크
브릭
부재중
부활절
궁합
웃사랑
결의문
이정기
류머
류주형
시내버스
##머니즘
스코프
우주선
소수점
대국인
구자학
맘마
야후코리아
대성그룹
섭렵
가산세
방사광
김도현
코스모스
한동우
성지건설
광전자
노원구
맥아피
김국영
이멜트
가해자
제삼자
다빈치
트리뷴
뺨
콕
##데이션
이카
##자본
시식
시즈
기립
주단
##장성
거미
##국해
##트림
##사람
하대
조로
조코
공금
유유
유혈
자니
미티
스에
소실
소로스
투유
##동탄
코바
장폭
선지
선납
볼링
모독
##목고
성추
강전
강령
내신
과속
방호
뱃
디펜
진인
진품
설도
설자리
아진
암세
##아비
점식
원탁
산세
산티아
특채
특목고
##ᆯ리니
이상대
문현식
다채널
박제
후신
변덕
##개토
광전지
광개토
아이티
양동
직판
어용
임페
저율
전기자동차
공급원
##츠와
철통
베라
이사로
앞자리
액셀
용제
온두
황득규
백승
마이피플
내용물
커트
정상영
러프
티어리
알프스
석탑
슈어
인공위성
답장
대리석
봉제
공공사업
객원
경찰대
기흥동탄
내외신
도로공사
헤지스
브리즈
김성진
진정제
김지웅
젠트
이종석
김승한
김재욱
메뉴판
바이어스
탕감
캐시비
쉰
쾌조
날갯짓
이준호
국경세
이규혁
충청북도
영동대로
형광체
이철환
최병석
솜방망이
말라리아
삼국지
파운데이션
전교조
방배동
정훈석
우스갯소리
서울특별시
원불교
암세포
산티아고
온두라스
##엉
##엔트
##네이션
##이슬
사사키
기질
##스퀘어
전합
중수
중력
조개
만발
매미
공자
##주환
최태
인트론
정글
미련
세면
실차
실거
콜레
코펜
장구
장롱
##산세
한보
고경
고창
비스트
비박
비누
성매매
서호
서판
서빙
강동원
계보
##안길
애사
평탄
진수
순찰
결백
안충
##티모어
##테가
테코
이별
운집
간발
다인
다날
김징
김헌
박천
##파니
당권
어선
임재
씨모
정보국
은행법
참이슬
뒤안길
라시드
유지비
구조대
플래닝
이동수
편제
하나다
취침
명제
타조
사이먼
각성
북당
온천
키자니아
웨버
종합부동
격감
격론
##에버
오르테가
러드
트리니
뇌졸
혜인
라이더
스포츠센터
부족분
다이너스
항공료
대외비
심사관
루피
임금제
관광부
제곱
유진룡
바람막이
김영훈
파크뷰
워크스
학습지
수소탄
웅필
이영하
시금석
##리바람
젠틀
오리엔트
입법화
연령층
볼티모어
이인재
실력파
중개업자
최경주
김학현
헝거
탁상
다섯째
##번호
교과목
며느리
링스
기륭
알짜배기
김광두
김희중
진열대
이희국
심포니
백지호
윤영찬
마법사
회오리바람
포도상
비어만
완결형
경의선
노림수
조남호
사치품
현충원
대연정
예식장
구급차
블라디보스토크
체지방
콰이어트
고혈압
메자닌
연찬회
성추행
김징완
종합부동산세
299
399
499
599
699
799
899
999
짱
##갱
##꺼
이혁
이프로
사마
시에
기력
주익
지관
##ᆷ생
##지감
대각
상민
그물
하오
만호
매세
##비엔
화목
공종
##주부
윰
자크
정해
정각
정육
소학교
반군
##동욱
코콤
한울
선공
영도
영흥
보신
구치
구김
우등
신디
추방
추광호
##보도
디에프
##의종
애당초
해초
##라지
아제
점대
단박
피서
##무지
호민
이북
경제난
초동
문디
김화
김완
##나두
바위
행가
로그
양안
어감
경기력
임모
심해
대통령령
합치
합참
씨제이
##만큼
불고기
검열
손수
뉴트
특허협력
근성
앞길
캐너
민변
홍광호
이재형
권계현
레반
축포
##더더기
임원직
교육대
두말
라이징
팬클럽
기획력
스폿
야적
야경
1099
1299
1199
1799
1599
1999
1699
1499
1899
1399
2099
2199
##베네
켈
케리
군더더기
구현모
##애폴리스
##불락
정기영
갈망
도전자
넥셀
빈발
미니애폴리스
엑스코
선거관리
숙고
휴가제
체육공원
콩나물
김용태
위성호
전세원
보복조치
아르노
임명장
카페베네
코엑스몰
##캔
추종석
세종공업
##꼬리
일조권
아우성
양재역
크리켓
나뭇
오산대역
윤석헌
##미트리
스카웃
김중원
윗부분
교대근무
잇츠
병점동
떡볶이
과천시
유람선
찰나
엘리자베스
마르코
이돈태
헌정사
동삭동
슬램
폄훼
애완견
장현경
지중화
쉐어링
와일드혼
제대혈
노승일
내방객
##정보기술
조진호
타밀나두
미하엘
안충영
대각선
특허협력조약
선거관리위원회
쓸
##ᆫ시
이토
깁스
지소
지티
지카
전태
전곡
대나무
상지
상층
그만큼
##인사
##ᆯ록
중관
중핵
부칙
매점
분립
유이
자아
정크
반종욱
세례
##부제
장선
장타
장윤
한기
한불
고아
구의
거래원
강하
과오
##니치
##공명
##공불락
재회
##발디
진중
진홍
아의
결전
원시
피디
##무소
안식
예상액
이방
##서니
문법
간지
간탄
##올리
박충
작별
리허
리무진
멜리
교문
파식
파랑
카푸
##파고스
양모
양말
입방
당직
본청
휴리스
휴머니즘
##검사
##하겐
총감독
정보량
태핑
##교류
라스트
라덴
클러
철골
##천사
학연
이재경
보험공사
장기화
책장
전화번호
버버리
터득
격세
누가
극약
##랑스
두루
석박
존리
정치학
골디
영국인
친숙
페아
푸마
루브
사자성어
##좌파
난공불락
에이즈
염태영
박영춘
빈축
커버드
줄서기
몸짓
벽돌
공항철도
체육부
김동완
회로도
김용균
김상균
맹목
메드베데
최장기
그린코
무풍지대
간부회
김태훈
연루자
이석수
피부과
전동차
글램
잠실동
최성제
##누스
다리미
삼각형
송전망
##ᆷ서비스
##프로필렌
공관장
단시일
한신공영
격전장
천주교
슬래시
데니슨
##축구연맹
갈라파고스
미공개
삼중고
##스톰
샤이니
받침대
윤세욱
라지브
백우현
과학기술정책
비빔밥
덜미
울릉도
양옆
임페리얼
코펜하겐
레반트
휴리스틱
전화번호부
메드베데프
껌
쌤
##쌀
이와
심술
주정
지코
전추
그리
##인물
경증
화원
공해
##회생
연발
연환
미덕
미라크
스판
세네
셀링
##부림
한광
한웅
영전
비비안
옌스
일어
구스타
모직
위고
우타르
성성
서증
서다
발기인
동승
동거
포인터
낸시
마제
##공산
애견
재인
재규
해관
해남
진솔
노비
노랑
여제
##블린
##오공
박신
박싱
박카스
리스터
리어드
바트
행세
파열
양준
나락
본교
역기능
##하라
합헌
불시
검거
손오공
미래학
##타리오
절박
국제교류
타우
캐스
캐드
##혜진
온타리오
발생량
황규
백재
허정
견실
재계약
##레이크
타이드
석우
스톡스
세탁소
케이비
범람
더그
##베르트
아몰
블랙스톤
페드
##ᆺ짐
번국
사무라이
순환고
##돌프
골드러시
이어링
기사회생
졸속
앤서니
빈민
빈틈
다수당
타임리스
##칼리
몸매
몸부림
폴리프로필렌
김종민
벨빈
살시도
이영국
포토북
옷차림
김병준
김장욱
꽃가루
꽃다발
민영기
이준재
죽백
박병대
박진감
겉모습
비관론자
경호실
아크틱
라이온스
러스트
장동훈
박주선
박기석
이웅렬
박광식
박광온
박세리
봉담읍
라가르드
횡단보도
남중국해
민병규
페르난
허태수
강기정
가르침
팔레트
유키오
황철주
임홍빈
뇌졸중
격세지감
세네갈
우타르프라데시
재규어
국제교류재단
시터
기와
지질
지앤
##기류
##전략
##대기
하비
조시
매혹
공계
##주머니
유태
유레
유독
미투
미풍
스물
실격
코믹
장연주
비발디
예림
##락스
윅스
우전
우라
발원지
강모
동천
말띠
디터
딜리
애덤
평동
아노
노벨리
도둑
원다
원텍
피프티
산모
산양
요식
무가
무위
초면
환소
간염
##호우
리용
리슈
교신
아이캔
양정
나트
플럭스
직도
어트랙
##담비
필하
우림
##토토
래커
라츠
손담비
타지
콘티넨
집중호우
홍명
토닉
이재영
드미트리
낙오
수사자
축산물
백의종
압출
생활상
페이스트
기계식
버추얼
발전사
병석
삼전
에어로
덧
친교
대한주택
야망
페가
베이너
음색
청구자
##겔
역사관
컬링
고위층
##완전
정의석
객인
##던지기
익스트림
법인세법
이경묵
아웃룩
박용인
셔블
년수
랜드리
타임스스퀘어
제이앤
이정민
담보부
걸프
조리실
요리법
실력자
집안일
엑사
엑세스
이기주의
커넥션
지대섭
퇴근길
스킨케어
브로츠와
최재성
김민정
대동공업
김운섭
세단뛰기
김혜원
블레이크
호프집
손길승
절연체
열전도
댄버스
겁박
무주공산
최나연
밀어내기
센카쿠
다이너스티
쓸모
한웅재
유레카
어트랙션
콘티넨털
백의종군
대한주택공사
브로츠와프
쐐
##ᆺ가
이록
이환
사피
전승
전출
상어
상작
경방
조홍
##비티
화염
유희
연천
연못
오가
오동
오펜
소인
소구
소나무
소도시
투지
실책
비언
외빈
보타
우기
성범죄
신데
신박
발틱
강풍
동정
말투
마늘
##니크
한국투
디에이
##발력
진변
설현
설악
아시
아지
노장
노준형
현대정보기술
중국산
순발력
원임
피너
안나
호킨스
요카이치
무음
무조건
가격표
리자
밭
파타
파카
##디포
카레
카다
집시
아이맥
데브
폭포
창건
창궐
저부
저급
심형
##노동
승합
프리덤
##카라
명차
민수
민법
##스코트
남포
엔트로
##철민
니프티
홈디포
마이니치
버트
허세
##라이프
탄자니아
열선
열혈
송경
두정동
병폐
잠적
연방은행
야전
슈프
얼티
윈터
홀더
##불리
레이디스
뒷부분
##폴리탄
견인력
밤하늘
정지택
런닝
관람료
명예박사
한정석
골프클럽
소외감
프라하
수용성
자극제
꼬마
권리락
무기물
예금자
위탁생
김지혜
장려상
경상남도
오리콤
무한정
포화도
수업료
김형준
냉동식품
정관주
핫머니
쿨러
시한부
이현순
진위면
스카페
스티븐슨
한미정
임차료
처방전
무용론
메트로폴리탄
동화약품
발레단
대원칙
회고록
주안역
토니상
김양규
코디네이터
지킴이
초록색
박중선
핸디캡
탁구장
렛츠
껍질
딴판
체임버스
순화동
로메티
재전송
뜀
애사심
클러치
쐐기
신데렐라
한국투신
엔트로피
께
마일
씀
에이트
##죤
대모
글렌
##상회담
부이
제막
하토
조한
조창
업인
업주
분말
자작
미봉
오점
오존
오쿠
장한
한달
고베
고임금
영포
비등기
##미리
위화
우동
우왕
성종
##영수증
추인
강선
동백
동교동
##로이드
##윌
##성시
스마트북
차동
방비
방황
배호원
디밍
생업
재스
기술대
##클래
원망
단대
단인
피죤
산입
##무근
안감
여승
무빙
김평
김혁
리지
리크스
리포터
수익력
집들
약값
양곤
양창수
역조
전기장
##연자실
감식
불완전
치장
라셀
완연
승모
철관
베스텔
학식
국가원수
인사동
쇼메
각개
##글스
담요
항아리
마이닝
식재
페이커
문화관광
견차
사실무근
누스
송유
송달
병마
현금영수증
능인
범호
에스프레소
스포츠토토
아모리
군중
망연자실
등장인물
228
루돌프
광주비엔
레이디
고민정
클라우스
귀농
태양왕
빌더
봉급
출자금
##좌왕
난타
맞춤식
은혜
흡착
나일론
김종현
벨소리
스프레이
격려사
아트멜
샘스
입법부
체인점
편집자
김준성
담뱃
소방방
##알데
소득세법
무인화
오산동
일용직
강경파
큰형
지명도
고강도
김광석
심재철
추도사
장미란
만년필
모리슨
##보일러
직수출
빅토리아
무관용
문전성시
솔트룩스
다케다
분홍색
코라오
후견인
수에즈
오텔리니
에이브릴
서판교
골디락스
한미정상회담
하토야마
우왕좌왕
집들이
문화관광부
광주비엔날레
289
389
309
329
319
489
409
429
419
589
509
529
519
689
609
629
619
789
709
729
719
889
809
829
819
989
909
929
919
쿵
이데이
일레븐
주봉
지가
지프
##ᆷ순
전단
대계
부녀
경재
조대식
##비츠
유불리
연명
연암
정강
정남
정순
정옥
미트
오종
스ᄑ
슬ᄅ
관서
장가
장전
장신
장물
고요
고열
##핍
비삼
##매수
외판
모젤
##모사
우분투
성낙
신태
서형
서든
포리
포리오
의논
통법
재할
아그
아저
아라미드
노위
도포
엥
에타
순대
순정
원적외선
단발
피칭
산별
호두
호퍼
홈서비스
텔러스
판매업자
영업용
박옥희
작금
리가
리원
바벨
광자
교전
교학
##결의
양증
당증
당직자
수준급
처가
총통
저속
씨도
##질서
화학계
향응
공개매수
텔렉
보유국
학내
국제축구연맹
복심
월봉
안정기
용평
##다스
장기근
남곤
인상기
지급기
헤인
방송망
커패
##창민
둔갑
극일
알로
##투데이
송무
상무위원
##월동
해결사
1089
1009
1029
1019
1289
1209
1229
1219
1189
1109
1129
1119
1789
1709
1729
1719
1589
1509
1529
1519
1989
1909
1929
1919
1689
1609
1629
1619
1489
1409
1429
1419
1889
1809
1829
1819
1389
1309
1329
1319
2089
2009
2029
2019
2189
2109
2129
2119
시즌스
덕양
블랙아웃
2209
2229
2219
루시
연장자
펜티
난사
쿠스
엘오
초고압
폭발력
밑천
강점기
호주머니
줄자
유상호
은하
대기실
풍향
진술서
욕조
제주특별
어린이날
김성우
김성철
김동영
##몬스터
팟캐스트
제로섬
##살이
연수구
수신료
제이미
##노스아이
맹비
맹공
인쇄용지
정례화
유수민
김장원
족부
경로당
노인식
로스차일드
이원식
티켓몬스터
코노미
충성심
김수영
수송량
드롬
환급금
특례법
연주회
지부장
김홍기
켄터
김한길
이의동
장병규
우방국
오인환
최원영
이장한
아드보카
사립대
상급자
마시모
이근면
강정호
탄탄대로
프런트
윤정석
소아암
배급사
엄지손가락
모더니스트
그로브
아이다호
톨게이트
새한미디어
부에노스아이
##자치도
장흥군
윤진혁
##사관학교
립스틱
잠수함
지투알
제미니
만리장성
커머셜
가압류
이청용
리허설
신박제
아저씨
커패시
제주특별자치도
아드보카트
부에노스아이레스
깜
딱
##ᆷ블
이회
이앤
시영
##리크스
대임
가설
가옥
##대일
##트럭
##ᆯ롱
부르
억류
조은
공회
##주쿠
유린
최연
인행
오드
스릴
실의
##플러
한수
고글
고뇌
선시
##권선
볶음
구연
##행동
우오
서준
동락
마스코트
차수
차도
##날두
계간
##봄
##데스크
평온
노마
노타이
도요
원매
안모
호분
호날두
금융정책
이상호
무도
다르
박순
리기
리저
그룹웨어
변리
메종
교시
##디엔
아이보
양치
본류
직방
물줄기
##ᆯ레톤
씨름
불면
형인
형벌
##타디엔
독촉
넬슨
시간표
근황
브랜드전략
홍승
홍재
드가
용해
##다매
레모
전시품
황산
백만장자
헤네시
교육용
평택동
고용자
하루히코
변동성
결로
열애
특별기
존치
능비
라이즈
희색
보호용
다이빙
베이더
##뉴타운
자유민주
윈텔
스컬
싱이
빅터
루멘
##충분
봉준호
부산광역시
유로파
##헌터
저장실
공공재
등록세
엘리슨
지도력
법률가
시트콤
신경민
헤드헌터
휘슬러
굴절
횡령죄
이정환
류성
라이트닝
##골프
김재훈
국방과학
박성수
이인영
끌기
도심부
술년
시공간
구자은
김준동
쉴러
묵념
신상흥
이성한
추경호
스켈레톤
트윈스
쇳물
김석준
카트리나
세척력
한시름
세포주
툴리
수동형
여대생
최진석
스노보드
장병완
마르쿠스
박기현
##이클링
미라보
매탄권선
제천고
계량기
리사이클링
펑크
총사령
강봉균
쓴소리
골격계
은평뉴타운
임계점
합자회사
무주택자
메트라이프
위키리크스
둘레길
양현석
미확인
윤병세
딕슨
티볼리
하라주쿠
박리다매
김근태
설리번
정택근
슬럼프
중랑구
##마라톤
구세주
멜로디
지니어스
절박감
에어로빅
오펜하이머
피너티
뜀박질
장기근속
펜티엄
맹비난
국방과학연구소
매탄권선역
둑
##빼
이페이
사투
지탄
거처
전소
전근
##리자
##가격
수갑
상일동
가루
##사인
경박
하정
조미
만곡
유호
최두환
소병
세출
실타
코보
장종
선교
옐
보료
##조림
구정
위업
우파
성년
서훈
동업
내무
마모
의석
과수
##어크
방공
디파이
##심판
진격
도가
천식
결부
결식
피도
산증
홉
요체
요네
염색
카즈
양태
당연
분석력
총결
임주환
창성
심계
속셈
형격
뉴어크
들러리
바이올렛
킵
키이스트
백산
공실률
터로
##펙스
러링
열공
알마
사진첩
케이트
케이드
더미
야드
최종심
흑석
페스
으름
재단법인
자유주의
다우닝
스칼
끝판
수돗물
클라인
길잡이
슈퍼맨
스피릿
난임
좌시
메이슨
스크린골프
빈혈
스티지
화장지
출장비
출장소
스위프트
권오승
풍수지
독점권
이승준
이승한
김현용
김정우
체육회
건축사
흥행작
곽병
김지영
이종호
김병욱
임상민
공고문
건전지
김진해
묵살
이관섭
빨랫감
김민규
산화수소
엘시티
란제리
클로즈
실종자
강력부
브루스
김한중
퀴즈쇼
연인원
쥐띠
모나리자
박광기
무덤덤
세르비아
흡연자
어벤저스
엽서
샴푸
마운틴뷰
반소매
미네랄
남상태
전상용
베르나르
리시버
캔자스시티
원어민
췌장암
홍현칠
어수선
프로야구단
나리타
재할인
커패시터
실타래
풍수지리
겐
##싹
사교
사노
사견
##기름
##가온
상아
그레이드
가비
##인상
##상정
개명
하동
하금
하모니
조태
화대
공멸
##세프
분투
유자
유교
연륜
정찰
오퍼스
한용
영문학
##마당
구절
##모닉
위너스
##소영
성곡
서측
추어
동산
##우병
과테
디즈
재적
진북
돛
도당
도형
엘레
결항
원당
원방
피제이
산위
안배
호들
여중
무배
무바
다반사
##블루
김훈
##양난
리젠
파진
파스텔
롤랜드
##포화
어사
어항
청력
심원
채도
라라
##웹
##타라
##워싱턴
프리스타일
학동
네프
넬리
국제결제
홍은
인사처
컨템
이재원
권재
온게임
##철균
##란다
마이애
허핑
윤호
폴디
새싹
##흥식
작업대
잠자리
합의부
납치
네이티브
스포츠투데이
슈넬
보호구역
동력원
제작물
단체교섭
막스
머드
동양인
펜션
난티
기념회
첫인상
공학자
소환장
앤트
밀반
박영호
김영수
익위
스트립
먹이
리얼미터
김성민
도쿄대
알파인
소요량
엄기준
류관
류량
류철균
인쇄물
건의서
볼펜
중개업
톰스
린트
진동수
룰렛
블라우스
박재근
김수희
묘책
조지워싱턴
성인희
여객선
겉면
아만시오
클로로
정수장
발레리나
최진균
박승진
서남쪽
청계광장
이우종
컷오프
김효준
최윤희
황우여
제니퍼
남양주시
리소그래피
배스킨
정명훈
최동환
오승환
박해춘
지영조
기네스북
##종합기계
바자회
무분규
벨로스터
대한육상경기연맹
진퇴양난
구르가온
외견상
버티컬
백과사전
폐회식
선지급
스판덱스
필하모닉
승합차
으름장
과테말라
호들갑
무바라크
국제결제은행
온게임넷
마이애미
266
366
466
566
666
766
866
966
뿔
엄단
푹
##ᅬ르
##ᅱ드
##뛰드
사급
기다
주니
주근
주강
##스포츠
삼성병원
수속
수레
등반
가폰
가람
##수일
##정신
부타디엔
제명
제살
개띠
하르
조비
조감
조희
조철
만사
만보
화봉
분재
유홍
자락
미동
미쉐
소피
##햄
##부모
한잔
선곡
##고비
영면
비통
예절
외삼
일탈
보톡스
모진
우바
성서
신기술
서미
발작
추명
포집
##일전
##공주
##간다
##의식
생화학
##라면
중국은행
에뛰드
천당
원회
산본
안선
호지
무성
무손실
초토
다트
브래
박석
법경
후학
##건평
카오
데카
달서
로게
양파
양키
어망
조정자
속락
승건
독소
독수리
학급
준칙
타켓
충정
충동
캐서
캐스터
액상
홍세
토치
이재찬
관리국
용병
용띠
게이지
음파
눈살
##란스
아시아인
규제책
버로
견이
윤선
냉온
##레일리아
티오
티탄
진단서
송두리
두절
연금법
별내
범어
친디아
1066
1266
1166
1766
1566
1966
1666
1466
1866
1366
2066
2166
케네스
페놀
구입가
2266
글귀
흥국생명
난소
패션계
경계현
파워넷
비상근무
왕족
줄거리
풍속
숙식
소장품
이제이
이경상
김기영
오디오북
발주량
이영훈
강제력
크로노스
이수그룹
이종철
양해정
옷장
클리브
김재중
친화력
팝콘
고무줄
조리법
앙금
탁사
휴식기
록히드
보드게임
챔프
##삼공사
자매지
최성호
헤르쯔
충청도
박진석
웃음꽃
오스카
김원기
한성숙
김철교
볕
청계산
쥐꼬리
해군기지
물리학자
애경그룹
조동근
안중읍
던킨
강봉구
고육책
야스오
강태진
김시우
라파엘
무전기
나가노
아로마
아난드
반딧불
아미노산
용광로
거미줄
진홍국
미봉책
딱지
산증인
##ᆨ선
이리
사시
사복
사천
사탕
기복
주승
질량
##ᆷ섬
##지구
##지영
대해
가야
##ᆯ른
부로
부방
부주의
만석
유어
연우
연막
미야
국력
스니커
반팔
실비
##동산
장법
한비
한페이
고초
선견
선천
현격
영천
영부인
외생
일면
일거리
종횡
위암
성완
발트
동제
동고
동적
##관위
내분
##우유
계장
계고
배명
재시
설왕
아버
아리스타
도외
규합
에비
산안
안수
금융채
급조
##설래
문태영
환형
다다이
김강
##나베
##개구리
행각
행방
파킹
카로
로더
양진
입술
플랭크
본산
체형
총평
저기
##러미
형세
##렉터
베컴
학번
근교
판단력
##바나
면책
각본
반영구
합병계약
황후
헬리오
세대수
식감
지배자
기회인
냉수
중앙수
특별결의
조직법
농작
##투기
송장
송곳
병환
케이윌
삼박자
에어플레이
에어백
##월일
희원
과학관
친필
폐점
페레이
페리어
보수당
##앨
항공모
울프
루니
레임
클라크
갈취
음악가
컬렉터
곡동
##맹이
메이커스
##윈도
인천공항공사
조절기
김영춘
풍년
허용량
픽처
안건준
김기동
프라우드
딸기
김용훈
셔플
##김치
훼미리
동의서
김상곤
중대성
김지현
습식
엄태
일대기
함대
김경훈
##짓기
김학용
학술회의
린치
김창권
김창진
수성구
덴코
이선종
이지영
리치먼드
빨래판
워터하우스
산자위
고의영
삼각대
고순동
특이점
차선책
신학철
윤상현
농어민
최정욱
안승호
거제시
미스터피자
김규성
라마단
그레고리
임지훈
해리포터
송성엽
안상희
피카소
로빈스
쥬얼리
강유식
대시보드
카다피
우오현
원매자
무배당
미쉐린
설왕설래
다다익선
훼미리마트
쩐
##넘
시브
##ᅡᆨ이
대령
##사가
##도너
부티
부즈
부축
부베
개천
개악
하반
하니스
조바
자심
최지수
오초
오다
국론
관록
세차
코젠
콧대
장천
한축
한빛
고든
선스
##마사
외계
일성
구룡
##재선
동맥
##로비
포로
내곡동
마천
마네
차암동
사업부제
배역
디시
디브이
해병
노프
노형
엘르
원광
##무니
안기
안영
안과
텝
무언
##서면
##코트
통신대
담소
블레스
리온
데미
데어
디스트리
양품
양양
나파
입후
##여지책
어피
역기
첵
##현정
임안
서울우유
효시
불성
정책금융
승급
##헛
프리브
편곡
이용철
복싱
민경원
논산
논현
블랑
이재일
각론
북용
##순간
권양
온수기
엔카
상태기
##철곤
담철곤
게임패드
기계공
버레이
방문길
허승
허재
터드
격인
하룻
에너지부
극작
티아
열등
두둔
석재
삼거리
자료집
친일
응징
##베니아
퍼듀
푸어
촉비
울진
##불급
머이
##벽해
대리운전
교통량
행정력
곡정
파이팅
##젠버그
왕시
가시광선
빈티지
정몽윤
시사닷컴
풍기
선발전
라이프사이클
이자르
김기호
슬로베니아
이영애
궁여지책
옷걸이
함부르크
웰치
박성순
박정준
##씀이
술집
일렬
이석재
수술실
코믹스
유인촌
##관리공사
빙모
오른손
고소인
민족주의
정재훈
랜딩
김희정
밴더
손정의
조승환
인가제
전해진
쥬라기
장동건
이완영
피자헛
김일영
후쿠오카
권혁세
하수관
하이파이브
최창식
지중해
브래들리
##도시가스
박효신
강승민
짬짜
미리넷
김익상
무지개
암흑기
피츠버그
박연차
한국자산관리공사
울주군
도봉구
로테르담
상전벽해
노틸러스
우등생
야적장
씀씀이
한달전
헤인즈
켄터키
요네쿠라
캐서린
스니커즈
성완종
쩐의
렴
허스트
이응
이에
사선
사투리
지트
지온
##스카
##스칸
수이
가림
중식
##도생
경단
경악
경범
제체
제법
조순
화랑
자손
자숙
인양
정교
미모
스펀
반해
##부리
장편
장에
한석희
고흥
선에
선순위
영수
비엘
보해
보리스
구명
종국
##폰테
모성
모스코
위직
서흥
포곡
내추
##후무
차사
##면체
애너
재우
아커
아크로
##중앙
천시
천일
필러
피데스
산배
호킨슨
요제프
##ᆯ리나
이상언
영업소
초광
##콥터
환품
##오토
김응
박호
작물
리포
리타
릿지
메지
메사
대표소송
프로스
프로테
카풀
데몰
##플레이어
양시
낱
본분
##포밍
청개구리
필진
임은
조정관
##남부
라유
철옹
광고업
취리히
준중
##북자
타제품
##키니
민항
##바예
토비스
권평
남극
황의
풀기
마이어
공시가
허경
허명수
윤관
냉담
격의
격랑
##펠러
오르막
알음
알맹이
컴팩
주택가
전무후무
##슈랑스
색조
폐단
폐허
페레
망이
망명
막차
얼라
교체기
##콘서트
북한산
클럭
갈지
갈음
투명도
맞통
대구텍
청정에너지
트래블
왕조
##윤근
조원선
김영세
김영호
##하이저
그래퍼
벌택
이탈리아어
롱런
기흥역
픽쳐
르베이
##사슬
텔아비
화이트데이
도쿠
김용희
선제공격
소화기
곡선미
비밀주의
젠슨
광교산
김재경
공제액
##멘소리
포장지
볼멘소리
쓰루
김형오
소지품
김태현
지휘부
각자도생
무효화
소사동
록펠러
김창용
전철역
박재현
윤석화
스탁스
조용철
베타서비스
평형기
제지업
조지프
빔포밍
김문호
델파이
포레스터
경호원
베네스트
기내식
고질병
클레임
오세준
미용사
박주영
김소현
원작자
국공립
패러데이
심기일전
포도주
급진전
찜통
고밀도
방카슈랑스
이찬진
미확정
고추장
전야제
변양균
혐오
양종인
대홍기획
생년월일
##자본주의
홍명보
위화감
##클래스
송유관
스컬리
달서구
##앨토
레임덕
곡정초
내추럴
초광대역
권평오
픽쳐스
텔아비브
##앵
이과
임석
이귀
이륙
##자일
시합
기입
기연
거행
등사
대공
가석
##대리
부탄
제복
하객
조향
조연주
만병
매달
##비어
화근
##세일
##용준
분법
유실
##제너
최한
인벤
오모
스무
관가
관동
소세
소고기
반중
반석
장차
장다리
고주
##구장
선권
선형
##고르
영식
비오
비회원
출당
우표
서성
강운
마구
마티스
의리
과표
계륵
배준
디터스
해사
##라도
아차
아스트
##중일
산우
안연
이복
문방
문정동
작명
바티
광선
##결승
패니
휴비츠
직감
어번
분석기
##방석
물탱크
역방향
처신
목수
저금
채윤
씨스타
##를
##르바이
감단
은행원
##워스
##저린
표주
프링
이동열
바이더
명의자
네그로
악어
근력
메모장
사이다
주주자본주의
토요
돌체
##박물관
드리스
권상
수사망
구매욕
남태현
항복
세대주
##탈리
냉탕
고용주
커밍
샛
티즈
달성군
열병
알스톰
##투족
전용배
더블린
##커처
친근감
케네
출신자
감사원장
긴자
##손님
근무일
229
입주식
쿠퍼스
##스틸
첫손
자기공명
박영태
스피커폰
상공부
풍성
유사시
핀잔
획정
이경식
아웃백
##첨화
너희
김정식
##몬트
김상열
캐리커처
클리앙
김재정
김재윤
걸작
##쓰기
투기지역
##개발은행
세무사
이민화
소극장
고시원
구자영
꽃샘
사단법인
김준식
수술비
유행어
이현중
신성록
묘소
묘년
금상첨화
척추
브롬
딤플
위조품
정운호
사출기
신일철
##광역시장
뚝섬
도미니크
오세정
단골손님
김소영
최병광
김남호
키스카
정영훈
백종민
서병문
백남육
박대출
소아과
일거수일
저명인사
탠저린
알라딘
아폴로
헬리콥터
쾰른
액티비티
저작권료
광안리
천신일
경축사
아제르바이
루브르
죽백동
이회창
자유민주주의
곽병렬
밀반출
농작물
오초아
디스트릭트
하룻밤
가석방
##제너러스
자기공명영상
일거수일투족
아제르바이잔
296
396
496
596
696
796
896
996
먼스
##즉
##ᅪᆼ
##ᆽ나무
사비
주판
줄리아
##스톱
##리밍
대남
대들
상록
가자
가발
##도전
부세
부성
부차
하얀
##계리
조제
만국
화분
분진
유현
자메이
연하
정환
미라클
오판
올라
코파
회당
장류
장다
고구
고형
고하
영산
비사
빕스
예언
외손
보락
종영
모산
위트
우윤근
성차
서수
서현
서포트
발로
발란스
##선매
차문
방유
통수
한국외환
배영
##데르
애자일
재로
재교육
진시
진력
아웅
노코
도망
##중기
##중래
##중독
안제
안규
안타
호크
호야
호튼
무승부
적지
적분
김구
김갑
리토
광센서
##딜리
건폐
집토끼
아임
디스코
로저
약력
입실
플뢰르
어메이
청강
체장
저물가
##벚나무
##토중래
공급사슬
불변
점유율
손혜원
독신
마커
준결승
논스톱
콘티
##바위
홍기준
드제너러스
권토중래
준비서면
남유진
키퍼
접종
혐의점
식중독
윤갑
할지
커널
격동
##창호
알칸
날벼락
신용현
혜선
범망
골밑
맥심
응력
관측통
1096
1296
1196
1796
1596
1996
1696
1496
1896
1396
2096
2196
회계학
베이로
닝보
자유투
##콘신
기소유예
오피러스
공사채
녹취
길드
선전자
넥솔
한계선
좌중
에이드
암로
겸허
왕벚나무
운동화
정지훈
전원주택
은어
스트레
롱테일
공항동
예술품
김현숙
김정욱
보완재
중고생
애니팡
김성근
세이코
바닷가
엄치
한국인삼공사
스트릭
고발인
건의문
용산역
무한도전
공로자
권위주의
진료소
이스트만
포항시
수영구
페어웨이
이성민
골든듀
위법성
민원기
제트기
베타테스트
집적화
파란만장
김선욱
랜턴
부속실
예수금
박지웅
떡국
임종필
히어로즈
이호상
정병국
정우성
성취감
빈곤층
디젤차
니콜라스
전병서
집합체
최준상
할증료
공예품
배기량
투썸
첩첩
최창호
입도선매
그루폰
미네소
김부회
전조등
탠디
현충일
스트라이크
이신구
에반스
무분별
현성철
도넛
압둘라
미상환
위스콘신
할로겐
박남규
또래
재입찰
노병용
얼티밋
슬라이스
전근대
종횡무진
항공모함
일성건설
갈지자
네그로폰테
대들보
자메이카
한국외환은행
건폐율
어메이징
죠
##샹
##런스
##쏘
##일로
이택
이스타
이쿼
전제품
수산업
수잔
상수원
##요시
##사로
중성
제논
개리
하리
하산
하네
만개
화음
공덕
##들러
##래스카
자퇴
최지
인장
인질
인솔
소변
세린
장막
##플스
##곶
##신항
##마을
일격
일촉
구토
모인
모라
모른
프놈
##금주
우치
우롱
우간다
신료
신은
서문
추신
강금
금비
포섭
##일체
##훙
한국오
배아
해협
노와
도국
도드
에센
원급
원외
원디
##무이
##티즘
##티컷
##테스
요정
요망
문강
##오모
##오븐
김무
증가량
박건영
##남선
후순위
글로리
리파
리셋
변기
변별력
변천사
행체
카비
카페인
카젠버그
달치
개인용
휴직자
어인
역인
##하복
##하르트
목도
목현
임경
폰스
기능직
불운
불찰
불볕
치타
##놀로지
라크
형수
뉴노
뉴런
베스타
이용훈
메모지
공정거래
이재정
쇼파
쇼퍼
용스
바이오테크
레비
레코딩
키드
마이셀
게임하이
생활관
식상
가스오븐
버사
버레
##패션
격노
티엔
티시스
열심
농공
층수
잠룡
칩거
신용장
국회법
야누스
슈라이어
유동주
히데
군기
와이셔츠
공격수
울음
##백옵션
멀리
역사박물관
갈란
부과액
출자액
가정용
엠아이
밤낮
실패작
메이어
전통주
공학도
선거인
빛깔
리스본
룸바
경고장
예술계
여의도동
이병훈
운전대
박용기
모터사이클
칭송
전파법
곽진
최상층
힐즈
##쇼이
접촉면
수신자
캡틴
커피메이커
볼쇼이
##겨울
김태영
구자용
쾌척
플로어
이원준
이원욱
김인수
묘미
놀이동산
소공원
강원도지사
신혼집
오스트레일리아
옌청
에릭손
풋백옵션
농림부
다자녀
##타인데이
땀방울
바겐세일
스릴러
례사
정태수
박준영
얀센
전대리
재수출
황유식
시보리
꼭대기
윤재윤
크레이그
이문한
중량감
미키오
##야구장
스트라이프
가장자리
스쿠터
콘택트렌즈
오리엔탈
상명하복
노대래
로렌스
스파이더맨
덕수궁
루이지애나
코네티컷
승전보
류머티즘
우라늄
알마티
주승용
아버님
짬짜미
장차관
##즉발
장다사로
엄치성
일촉즉발
모른다
프놈펜
후순위채
공정거래위
바이오테크놀로지
가스오븐레인지
286
386
306
326
316
486
406
426
416
586
506
526
516
686
606
626
616
786
706
726
716
886
806
826
816
986
906
926
916
##ᆯ드
##ᆺ세이
이길
##자키
시소
주구
전정
전창
전홍
##국장
##대우
##사유
##사미
제온
##원동
억만
조주
조림
##회복
유양
유작
유러
유타
자분
인주
오석
국의
소령
투르크
##부심
실측
실에
회인
장제
##산역
고와
고농
##피언
##신소재
일벌
일봉
출세
##소정
성업
성보
신유
신식
신당
서아프리카
강상
강박
동사장
금광
말경
마츠
차제
차고
방도
방폭
밸런
해밀
해독
아젠
도와
도곡
규슈
순연
순번
결원
원진
피상
호언
호컴
이상무
급박
##서한
초산
문광
환부
##오피스
##규식
리엄
리즌
리틱
리투아
바바
행량
카디
카잔
아이즈
로잔
양정훈
당자
패셔
어셈
체스
창해
심비
공개서한
참맛
라응
승현
금리정책
학세
준지
타월
##혜정
논거
토르
심리전
돌다리
권용
눈부심
남초
니즘
축산업
키디
백모
버섯
요구르트
테크론
##투사
벤큐
이건웅
삼계
삼척
능통
더반
에스메랄
1086
1006
1026
1016
1286
1206
1226
1216
1186
1106
1126
1116
1786
1706
1726
1716
1586
1506
1526
1516
1986
1906
1926
1916
1686
1606
1626
1616
1486
1406
1426
1416
1886
1806
1826
1816
1386
1306
1326
1316
2086
2006
2026
2016
2186
2106
2126
2116
발행자
히스토리
인공호흡
퇴짜
최신식
2206
2226
2216
루지
루즈
멀린
클라리
교통안전
콜버그
셀바스
갈색
변호사법
취득자
쿠스코
칼리지
사양인
엘크
동일시
횡행
큐어
빈손
울트라건설
정몽근
김영학
김영섭
##칼라
은수
게르
##짜기
공업용수
괴력
코드네임
셔리
구제책
전파연구소
곽상
공포심
궁중
거주민
동서양
잉카
경상도
김재현
이슬
박종운
참고서
이민혁
링크드
출판물
구자원
쾌재
이원진
넥스트리밍
전성배
칠곡
김수천
이순희
이오티
방영민
신조기
정장선
분포도
망원경
방사성
오딧세이
켄싱
공중분해
발렌시아
텃세
노르웨이숲
교도관
코스모신소재
이형근
권혁태
이효성
유대감
원상회복
도미노피자
댄서
부평구
송성원
송성각
송창현
은평구
미연방
오승범
문병호
상수도
종착역
##의사당
최운열
의정서
허드슨
다용도실
미래학자
페르난데스
유독물
허세홍
조바심
해병대
한국오라클
문강배
유러피언
아젠다
리투아니아
어셈블리
라응찬
에스메랄다
인공호흡기
교통안전공단
삐
쁘
##쿤
##이몽
이항
삼상
시음
##시위
##시울
거침
가젯
개상
개탄
하교
하얼
화양
업진
분회
자양
자책
최일
인해
인부
정돈
미타
오수
소티
소피아
반칙
세우
세콤
세몰이
코닉스
##구구
##고야
현곡
영삼
영농
예찬
외도
외통
일익
모레
위락
우레탄
성경
신방
신광
서스
발진
포일
마창민
##종환
##선거
통안
한국남부
배낭
진선
엘렌
단소
피에
##분류
연구개발
안위
홀릭
테디
여실
여풍
##ᆯ리스트
이상은
초역
##콜리
문대
간첩
김밥
후안
후카
리만
지원국
집기
낯
나고야
본이
##포러리
창장
##ᆯ레트
심부
합체
태림
불요
뒷짐
##폭력
베아
벡터
베란다
##카즈
명부
준우
타다
앞마당
##바시
홍주
인수인
토스터
음란
의료인
권해주
눈시울
언리얼
레크
황모
웨스팅
홈그라운드
홈오토
헤센
제시카
허무
터무니
연결선
육체
트릴
##투표
두언
스탑
흑색
징시
페북
탈옥
스톨
푸둥
최순호
필링크
유일무이
에버그린
지방채
봉인
맞짱
비전고
지하상가
등록제
엠마
사양길
메이시스
웹진
밀봉
근거지
김영배
약정서
톱니
그래픽스
스튜어트
허용수
제주시
멕시코만
셴
계산대
김성원
뮤직홀
##쿠르
젠하이저
샘플링
함평
헬프
출입증
유무형
김진한
축하연
족적
방진복
낭만
묵비
피크닉
몽고
전성인
묘지
조윤호
황성진
베드타운
김희철
김주원
접견실
동상이몽
공군기지
김명환
브루나이
이채필
##뱅킹
히든카드
조수석
이강신
항고심
영양소
유정복
양승석
최문순
급행열차
리카르도
조지아주
솜씨
[...]
