[PAD]
[UNK]
[CLS]
[SEP]
[MASK]
,
-
0
1
2
3
4
5
6
7
8
9
_
d
e
o
p
s
t
x
ᄀ
ᄁ
ᄂ
ᄃ
ᄄ
ᄅ
ᄆ
ᄇ
ᄈ
ᄉ
ᄊ
ᄋ
ᄌ
ᄍ
ᄎ
ᄏ
ᄐ
ᄑ
ᄒ
ᅡ
ᅢ
ᅣ
ᅤ
ᅥ
ᅦ
ᅧ
ᅨ
ᅩ
ᅪ
ᅫ
ᅬ
ᅭ
ᅮ
ᅯ
ᅰ
ᅱ
ᅲ
ᅳ
ᅴ
ᅵ
ᆨ
ᆩ
ᆪ
ᆫ
ᆬ
ᆭ
ᆮ
ᆯ
ᆰ
ᆱ
ᆲ
ᆴ
ᆵ
ᆶ
ᆷ
ᆸ
ᆹ
ᆺ
ᆻ
ᆼ
ᆽ
ᆾ
ᆿ
ᇀ
ᇁ
ᇂ
ㄱ
ㄷ
ㅣ
中
人
位
前
務
北
反
名
向
外
安
家
專
對
常
新
日
會
朴
株
樂
異
社
秀
種
美
西
車
逆
長
非
韓
##ᅩ
##ᄂ
##ᅦ
##ᆯ
##ᅵ
##ᆸ
##ᄎ
##ᅡ
##8
##5
##9
##4
##3
##1
##6
##ᄆ
##0
##2
##ᆼ
##ᄇ
##ᅮ
##ᆨ
##ᄀ
##ᅧ
##ᅥ
##ᆫ
##ᄉ
##ᅨ
##ᄌ
##ᄋ
##ᆷ
##ᅢ
##ᄄ
##ᄅ
##ᅳ
##ᅭ
##ᅬ
##ᄑ
##ᅲ
##ᄒ
##ᅯ
##ᄐ
##7
##ᅴ
##ᄃ
##ᄏ
##ᆺ
##ᅪ
##ᅱ
##ᅣ
##ᅫ
##ᆽ
##ᆹ
##ᆶ
##ᆾ
##ᇁ
##ᄁ
##ᄊ
##ᆰ
##ᇂ
##ᆵ
##ᇀ
##ᆲ
##ᆩ
##ᅰ
##ᄈ
##ᄍ
##ᆮ
##ᆭ
##ᆪ
##ᆻ
##ᆱ
##ᆬ
##e
##x
##t
##ᆴ
##ᆿ
##ᅤ
##o
##p
##d
이
##ᅡᆼ
##ᅥᆫ
##ᅡᆫ
##이
##ᅥᆼ
##ᅳᆼ
##ᅩᆼ
##ᅮᆫ
사
##ᅧᆫ
##자
##ᅧᆼ
시
##ᅮᆨ
##ᅡᆨ
주
##시
##ᅥᆸ
거
##ᆷᄉ
지
##ᅥᆨ
##장
##스
##ᅡᆯ
기
전
##ᆷ성
삼성
##ᅩᆨ
있
##ᅯᆫ
##가
##ᅮᆯ
##전
가
그
##기
##국
##ᅪᆫ
##리
상
##지
하
것
수
##수
##그
매
##인
##업
삼성전
##ᅧᆨ
삼성전자
##도
##대
대
##ᅢᆼ
##요
##래
##ᅥᆷ
##ᅥᆯ
등
증
##ᅩᆫ
억
부
##상
##ᅣᆼ
##정
##유
##사
조
업
천
아
중
##트
##ᅳᆯ
오
##주
연
##화
미
##세
시장
코
경
##락
##ᅢᆨ
분
상ᄉ
외
##권
상승
거래
자
유
보
##일
제
##원
현
화
고
##ᅧᆯ
개
투
##체
##드
코스
##계
실
국
##문
##익
한
##러
##비
만
##로
인
##종
##용
##제
반
투자
외국
##피
##르
우
##회
하락
다
순
마
외국인
최
공
관
회
매수
##하
##재
금
##치
장
##산
##적
정
##식
업종
내
##해
차
선
##금
##부
##매
바
코스피
소
##모
영
모
지수
##내
어
##ᅣᆨ
세
분기
예
나
##위
종
증권
##니
##행
달
비
##각
##표
일
##목
추
##동
##구
##나
##차
##ᅮᆷ
##ᅳᆨ
##어
##력
스
##조
실적
강
미국
원
##ᆨ스
##ᅦ이
##명
포
발
##관
기업
##망
말
##준
위
노
증시
##히
국내
##고
##미
##진
##출
확
신
##반
##분
##물
##격
환
##후
##려
##향
##신
##선
배
달러
종목
전망
않
##영
##소
##품
##입
##루
올
동
##량
##우
계
##급
##과
##율
##중
현대
때
각
주가
##간
##마
규
출
구
##ᆫ행
주식
##서
##능
##속
사업
##당
##융
##점
설
##안
##액
금융
##단
점
연구
##증
성
##감
##라
##크
##플
의
##난
기관
디
##년
##폰
급
재
예상
서
지난
평
각각
##만
##아
생
##데
중국
거래일
##날
애
##근
##ᆯᄅ
##록
##룹
이익
결
규모
##오
올해
##환
연구원
##심
대비
##한
영업
통
가장
환율
##마트
특
##외
폭
##다
해
한국
##합
가능
##면
##보
##의
전자
매도
스마트
##성
기록
하이
판
역
안
반도
반도체
여
##증권
방
기대
##운
##ᅳᆫ행
없
약
##직
크
##매도
단
##닉스
과
무
업체
도
##무
더
순매도
하이닉스
작
##석
##련
물
설명
이날
##닥
때문
현재
전일
이후
##터
호
최근
피
##공
에
받
이상
##총
수익
높
스마트폰
보이
가격
##ᅧᆸ
지난해
증가
##인트
##ᅡ르
영향
회장
또
##ᅵᆷ
프
발표
운
당
수준
포인트
##발
총
적
상위
시가
이ᄇ
##억
데
##ᆯ로
우려
관련
##등
간
천억
##황
같
##료
##포
##술
##총액
시가총액
진
##벌
변
초
확대
##형
##폭
코스닥
부문
저
갤ᄅ
##ᅥᆨ시
갤럭시
##프
##두
협
기술
리
은행
##규
##쟁
평가
관계
##ᆯ리
##레이
##바
제품
##역
그룹
현대차
애플
매출
##험
가운
글로
글로벌
가운데
기준
##ᅳᆷ
요
##개
따르
테
유가
마감
후
##본
##달
##ᆫ드
##학
산
금리
##통
심
배당
경제
전문
##태
집
이번
판매
많
성장
##복
상황
타
##설
계ᄋ
강세
##널
메
펀
오르
개인
##임
개선
사장
##호
조정
##방
김
경기
##건
업계
주요
분석
##비스
트
경영
##회장
부회장
##담
##티
##결
경우
자산
플
##실
##책
##버
로
지분
경쟁
관계자
합
파
##략
감ᄉ
법
수요
양
##타
래
지속
우위
##코
직
펀드
투자자
처
##션
특히
##플레이
문
디스
채
비중
생산
불
뉴
필
##여
앞
전문가
##현
##거
##획
선물
##존
전략
행
출시
추가
최대
프로
##테
부진
##양
건
디스플레이
##편
##음
##경
전기
##름
센
유가증권
통신
그러
본
수출
대표
자금
패
회복
##작
넘
##반기
##파
##민
두
##레
위원
세계
##울
오전
##디
최고
완
심리
입
##초
##ᅯᆯ
상승세
예정
##그룹
##노
박
##균
강화
중심
감소
작년
##욕
급락
반면
회사
뉴욕
보유
어치
증권사
흐
바이
전체
계열
아니
대형
필요
산업
매수세
카
치
감
##말
램
##약
##스트
삼성그룹
약세
다만
##천
악
목
우리
계획
##램
대부
지점
참
##저
화학
##물산
삼성물산
대부분
물량
정책
아이
인수
생명
차익
급등
유지
구조
무역
진단
줄
일본
낙
측
공개
##들
프로그
정도
프로그램
##별
전환
다르
가량
운용
계열사
연합
흐름
늘
##너
그러나
##ᅦᆫ
시작
##즈
주주
다시
공급
##습
낮
자동
맥스
진행
휴
힘
향
인포
서울
##큼
평균
해외
내년
손
##송
승
및
##럽
##병
매매
딜
속
부담
모두
반영
임
외환
서비스
효
기간
자동차
##론
##생
컨
##령
결과
##택
다른
##연
추천
라
수급
##축
##응
개발
일부
상장
전년
소비
정부
##채
모습
체
점유
돌
제한
##케
내리
되
활
##배
역시
지표
문제
유럽
건설
보험
지원
한편
만큼
미래
##강
등락
창
연속
낙폭
좋
##시아
들
메모
##언
지주
결정
##류
강조
단기
소폭
제조
##께
메모리
##어지
위원회
노트
나오
이미
함
뒤
지적
휴대
작용
관심
교
협상
사용
인상
##법
함께
##희
##토
차지
##ᅳᆼ정
긍정
이사
주목
하나
장중
##ᆷ세
안정
코로
코로나
집중
못
열
##교
팀
초반
##은행
합병
유입
요인
향후
플래
##런
국민
기존
브
바이오
준
주도
달러화
##극
##웨
커
나타
우선
##스크
압
사상
##ᆯ레
절
모바
하반기
##브
하락세
##카
형
매각
##러스
조사
아이폰
모바일
센서
담
충
##럼
레
회의
지난달
목표
##할
공정
##측
##통령
##움
제일
풀
##랜드
광
##야
오후
연기
##접
대통령
팔
이재
실제
인사
완화
청
배당금
가치
새
딜러
효과
철
고려
월
##허
##견
장기
##객
언
##판
##욱
아직
##널리
애널리
대상
지급
소송
지배
출발
엔
취
편
아시아
신한
북
호조
변동
##립
쇼
축
소식
태
##전히
국제
##함
연방
제기
상대
##팅
##례
특허
둔
협력
맞
검
천만
낸드
애널리스트
매물
논
텔레
##콤
##모비스
현대모비스
둔화
키
##블
본격
준비
리스크
센서스
소비자
신용
추정
원대
더욱
힘입
집계
반등
이동
많이
연기금
변화
액
센터
##질
장비
핵
어려
통화
앞두
다음
위기
이유
그리
자리
이재용
운수
악화
계속
확인
마케
부분
텔레콤
##밀
##청
동안
상반기
확보
사이
기아
##ᆷ직
다소
##까
고객
##남
포함
비교
처음
##공업
##사장
남
독
##지만
계약
네
##키
경쟁력
보고
하지만
움직
가까
##ᅳᆫ
결제
부품
견
온
판단
풀이
현금
##란
##차익
적용
발생
대응
나서
기아차
니
근
드
위험
##족
부사장
원화
삼성증권
이ᄉ
제공
##델
축소
전화
대형주
황
채권
버
중공업
롯
가까이
주장
##전력
개장
한국전력
혁
연금
의료
롯데
방식
대우
시스
##모직
제일모직
적극
기대감
제도
이어지
재정
방향
워
제외
비차익
행사
못하
전날
분야
공장
명
거래소
참가
제시
마이
보고서
매입
패널
정밀
##탁
##추
또한
여전히
##처
사실
##침
확산
신규
법인
동반
국가
곳
인하
관리
씨
추세
비용
과정
##ᆷ석
상태
##템
송
유동
참여
모델
표
상품
불안
베
매출액
##텔
재무
##놓
프리
추진
라인
##박
비율
시스템
홍
상당
헤
핵심
혁신
참석
발행
동기
돌파
오름세
이달
포스
지지
성공
권
당국
팀장
직접
당시
기능
책
##엄
지역
인터
시간
등급
트리
##ᅧᆷ
내놓
찾
운영
사회
로지
##이익
셋
13
11
10
12
##절
##찰
의견
저점
철강
##혜
##럼프
이런
트럼프
##더
순이익
출하
카드
캐
##퍼
로직스
우선주
마케팅
미치
정보
전반
고용
움직임
뛰
하향
잡
이건
민
##ᆷ속
네이
자체
위안
이슈
환경
##평
전장
합의
입장
블
실현
압력
이건희
삼
종가
폰
##네
기조
##항
##탈
네이버
적자
##순
경신
윤
텍
플래시
침
성과
어렵
가전
텀
##메
##회사
종합
측면
##돌
##웨이
분위
유통
금액
의미
분위기
토
상향
잠
주로
대신
중요
##프트
탑
정상
자본
현물
없다
역할
방안
접
리서
리서치
여부
면
나타나
담당
스태
##열
화재
악재
규제
포스코
##어나
속도
재료
프리미
갈
알
없이
연말
소프트
프리미엄
참가자
중소
과거
##투
익
스탠
##너지
부정
##월
백
##악
플러스
##독
인식
이ᄁ
장세
끌
지금
셈
##광
만기
유로
##라이
승진
삼성전기
기기
에버
##워
주말
간바
간밤
##득
동시
##털
누
해당
##철
고점
커지
잔
지난주
책임
조치
연결
에버랜드
신종
격
실시
호재
임원
실제로
화웨이
##ᅦ이션
따
눈
티
##링
공시
내부
당분
##동안
주력
자문
막
의약
혼
당분간
하루
달성
위축
쏘
마련
디지
인도
단계
시각
의약품
너
##앙
기반
발언
보도
본부
활용
##베
첫
데이
탑재
##착
웃
검토
관측
석
수혜
언급
보합
음
쉬
이전
중앙
자사
사태
복
가스
##북
생각
##게
손실
현상
시점
역외
북한
주간
##츠
그동안
마이크
모드
타이
이용
부양
감안
나타내
##느
시기
어ᄄ
웨
연간
물론
선정
푸
해소
바ᄐ
결국
연초
차원
국채
기계
투신
차이
이끌
잘
맡
##턴
꼬
##활
##람
바탕
##ᆯ드
##머
조선
옵
오히
극
##ᆷ사
소재
조직
메리
오히려
페이
불과
대만
이르
상무
##웨어
구매
##터리
##픽
테크
##메라
해석
화면
##어들
##은
##징
구성
항
형성
판매량
휴대폰
대외
일제
배터리
이어
콘
반응
송금
진입
흥
기회
변수
부각
##에
갖
선호
일제히
국면
일정
전시
수주
디자
논의
개편
##창
디지털
베이
##막
같이
빠르
퍼
카메라
겨
동향
##리아
##틀
꾸
밖
내림세
##핑
##ᆯ류
##린
육
어느
여기
벌
샤
경계
한화
의장
직원
##염
디자인
밑
쉽
에스
도입
##운드
##변
##ᅦᆫ트
##카드
편입
출하량
##준히
##무리
##렉
꾸준히
회담
노력
모든
밸류
탄
흑
##찬
최초
허
현지
##글
옵션
긴
반대
##패
다우
무선
##디어
##투자
관세
닝
##검
##보합
##움증권
키움증권
아모
떨
##색
바이러스
제조업
흑자
나라
재계
##넷
##ᆸ스
마무리
따라
끄
중단
전무
안전
게이
순위
장관
용
내용
브랜드
활동
션
##럴
인터넷
공식
원유
##와
##손
시행
주문
그간
질
차별
러
급증
일반
동양
밝
위원장
털
진출
거래량
공격
포트
터
특별
박스
##훈
금속
현대증권
설비
충격
날
매니
놓
##괄
분할
개별
필리
##즌
만들
환시
조언
분쟁
벤
가입
재고
##휴
이틀
시도
##릿
롱
작업
##투자증권
생활
수입
자신
기자
얻
##ᆯ리오
감염
구글
꼽
시즌
매우
나스
단말
높이
당초
포지
동부
출회
이벤트
줄이
떨어지
인력
##널드
갈등
나스닥
구축
얼
대체
달리
##폴리오
체제
포트폴리오
선임
##집
포지션
도널드
늘어나
흥국
부장
##받
케이
바닥
##니어
##인지
개ᄎ
능
콜
##엇
보합권
후반
타격
섬
##시스
침체
##랑
회계
세대
##라인
데이터
##협
나노
안파
안팎
지정
부동
느
농
확정
장단
존
경험
독일
삼성카드
판결
통합
식
내수
섬유
##페
##블릿
이탈
하방
홈
당기
상단
부채
솔
들어
필립스
부족
##들이
자료
최종
##지니어
숏
예측
열리
동력
쪽
시리
새로
대금
호텔
논란
##티브
네트
##콩
일단
##엔
여러
뜨
##직원
그리스
위주
올리
헤지
단말기
##세대
배럴
홍콩
##예
임직원
관망
방침
공모
달하
가지
보수
탓
늘리
승계
에너지
해결
요구
음식
주인
후보
양상
조세
##불
##효
인정
클
살
칩
매니저
스타
법원
우리투자증권
매력
##이드
반전
공동
발전
처분
견인
부동산
와
인텔
아래
시리즈
기획
##사스
소니
정치
원선
##률
감염증
태블릿
잔고
텍사스
석유
아울
경쟁사
##기업
의지
##커
모건
채용
방문
별
고가
총괄
간담
아울러
음식료
대폭
매주
##루션
품
##대로
구체
간담회
##ᇂ게
쇼핑
##흘
시중
실장
아모레
##범
최소
서부
무려
변경
감독
게임
차세대
점차
##벨
업무
검찰
중앙은행
방어
##시픽
여건
퍼시픽
순환
처리
광물
거의
최저
여력
도시
##레드
군
창출
설립
행진
줄어들
##지니어링
야
미디어
대거
의사
공세
외부
랠리
따라서
국내외
어떤
워치
개최
능력
지주회사
하단
견조
컴
베이시스
총액
영국
라이
이름
기여
가동
중간
겪
차례
소형
그림
##승
수사
좀
선택
출자
재개
레벨
##탄
폐
##건설
종이
선진
돌아
누적
##푸
주당
부과
약화
플랫
솔루션
희
할
한국은행
역대
유리
재판
사들이
여파
일시
도움
##폼
플레이
통신사
##옥
##상영
조달
자회사
서상영
소프트웨어
끝
플랫폼
##듭
골드
##봉
시대
거듭
올레드
북미
감사
폴
중개
##는
금지
머
먼
부양책
##ᅤ기
싱
##운용
얘기
##딩
청구
##퇴
주택
뜻
며
으
##흥
이외
삼성엔
재산
또는
삼성엔지니어링
사고
징
스페
이제
##슨
촉
##닝
신청
##금속
제약
##ᆷ스
전지
만기일
병
조성
직후
어스
##케이션
자산운용
중소형
케
##컴
중반
성장세
창고
##뢰
소개
비금속
쓰
원가
총재
양산
##더드
스탠더드
덕
사례
대책
세탁
강하
제조사
어려움
범
##길
원인
##존스
웃돌
다우존스
확진
앤드
호전
의원
직전
홀
뿐
쏟
내려
##워크
##랙
납
기초
계기
##맹
신문
배경
활성
##ᆺ지
##지수
오너
광고
사실상
탄력
우호
통과
공정위
인공
설정
협의
건강
절반
밝히
제재
만주
공방
##풍
##ᅡᆯ리
##총리
앞서
##너스
체결
샤오
네트워크
##드로
사옥
코리아
노동
효율
국민은행
벌이
샤오미
이노
바ᄁ
일가
경영진
소속
엣지
집행
기금
탈
보안
쏠리
안드로
##늘
물가
사업자
안드로이드
기본
상회
출신
구속
총회
##텐
뱅
수지
신세
환원
앱
총수
사람
제고
먼저
국회
유일
온라인
##ᆯ스
##키아
##ᅵᆨ
손해
##지능
맥
##요일
양사
팬
잠정
몇
인공지능
주시
다양
##덱스
심화
가입자
대출
조기
영상
단행
뒷
사내
유진
일자
파운드
급등세
##켓
학
사건
서초
쇼크
대리
양국
완료
급감
압박
얼마
퇴
현장
패턴
대주
실질
추이
행보
##ᆯ러
전국
한진
노키아
파트
##거래
침해
세탁기
냉
부총리
오늘
상속
위치
신뢰
낙관
블랙
스탠리
루
##수기
보호
##군
##혁
정기
점검
회사채
개정
신세계
시설
지연
밀리
당장
주총
차입
더블
요청
교수
커버
##텐츠
연휴
##40
사전
보통
통상
지주사
교체
관망세
전월
역량
웃도
마이너스
출고
폭락
변호
마켓
##ᆨ터
매체
닷
지정학
할인
경영자
비즈
단순
싸
##니스
##카오
상용
초과
중소기업
히
길
요금
카카오
콘텐츠
##없
접근
동결
등장
순익
이미지
글
하회
형태
##씨
확장
##프라
대량
개입
엘리
헬스
넘어
취득
칼
물류
주체
협회
키우
##듀
육성
시트
##ᆷ상
조원
강보합
격차
혜
##베이션
##십
이노베이션
일각
##런스
연구소
회복세
연동
분리
고민
마지
##충
##퍼런스
오프
유출
인프라
레인지
이하
지나
서버
엘
##ᅧᆷ의
찍
인덱스
음식료품
나가
즉
하드
실패
증가세
충분
두산
##짐
혐의
##얼
중저
투명
공사
##신라
호텔신라
중저가
고위
섹터
파운드리
급락세
색
부근
조금
대주주
충분히
##념
##41
제안
모듀
의결
초기
승인
육박
기어
예약
사업장
페
장치
본사
입찰
##클
국고
창업
마지막
다이
채택
조건
##부진
방송
##짝
선전
팩
오래
회피
포럼
슈
스토
약보합
선물환
교보
도시바
착
##리지
실망
움직이
성향
긴장
관점
모토
파악
모듈
심사
바로
더불
상당히
##윈
특정
절차
어떠
전시회
골드만
돈
이해
차액
피해
비즈니스
대학
연장
##때
현실
우세
차명
타임스
##ᆨ트
전면
제출
재벌
##받침
뒷받침
선도
절감
응
##층
의존
브렉
시사
취합
케어
##먼
잇
몰
통신업
유로존
##백
민주
돌아서
상하
정리
성능
끌어
귀
##컨
이마트
가시
##육
##칙
대한
자율
##제품
내달
빅
폴드
환매
질문
늦
엘리엇
뚜
##트남
##콜
##디스
조원대
프로제
베트남
연계
종금
청산
보조
소화
신영
방법
벤처
혜택
사물
대화
기타
매년
조짐
계절
##ᅧ보
삭스
완전히
온과
번
답
절상
듯
망
이내
시너지
##앉
파이
극복
스페인
십
테크윈
##센
마진
위협
기술력
한계
소득
##혹
표시
프로젝트
##넘
##째
매장
대차
올라
선진국
중순
역사
월드
뛰어
전쟁
투입
트레
치열
목재
넘어서
어떻게
행위
권고
##ᆺ수
전용
그만
반복
재차
문화
범위
대선
반발
액면
항공
이맹
밀
무엇
요소
하드웨어
이맹희
##벽
회원
무디스
상한
##사업
최신
공략
배제
구현
프랑
친
면세
사외
신호
익스
동일
근거
##칼
구간
자기
태양
강도
##라이즈
둘
실시간
그만큼
##리트
상업
소형주
##58
##53
##51
##56
##50
##52
##57
##48
##49
##43
##46
##42
##47
증권가
##59
분명
노무
평택
결산
양호
존재
겸
빠
뛰어넘
##ᅦ이트
에어
법률
나머
낮추
창구
지배력
별도
나머지
사항
거론
##리케이션
과도
진정
대내
연일
자유
유효
부인
외신
##소리
재편
통사
너무
팬택
##화점
개혁
장사
설계
앤
호가
호주
저널
대체로
실업
성격
##올리
상장지수
벗
##가지
영역
비판
신임
특수
보조금
트렌드
퀄
원고
신흥
행정
이사회
납품
퀄컴
가속
보급
보다
리더
##춤
##장고
횡
의혹
안건
새롭
##없이
##쇄
걸
우수
프랑스
##퓨
공유
집단
완성
목소리
##온
상관
##트로
곧
##레이드
표준
민간
밑돌
멀
훨
##귀
사안
연봉
각종
무게
아침
##확
스와
연중
제대로
선언
서프
차질
##씬
훨씬
마찬
공매
소매
웨이
러시아
얼마나
마찬가지
##굴
우량
해운
여지
패션
목적
건설업
엘피
뚫
서프라이즈
이러
연설
덕분
엘피다
##쪽
##리오
선방
스크
로라
잠재
파트너
##베이
고시
모니
과학
법안
##디오
면세점
사흘
대장
##격히
단독
초대
향상
베스트
터치
좌
연내
보험업
라인업
##88
##99
##63
##61
##60
##62
##67
##완
파월
재정부
찬
증자
교육
컴퓨
##잉
한은
동양증권
냉장고
모니터
##좌
##페이
인기
리콜
불안감
전달
##웃
약정
브라
막판
노무라
에어컨
빌
체계
근무
##새
유망
보장
국정
정유
바스
신고
과제
대내외
윈
##스트리트
창조
월스트리트
보통주
과잉
생산량
그리고
까
##섭
자극
고정
인증
셀
설치
급격히
용량
벗어나
종료
애플리케이션
행주
언론
바뀌
##애
##이스
절대
츠
가정
상환
외화
규정
결합
##83
##81
##80
##82
##87
##93
##91
##90
##92
##97
화질
선대
소각
의식
과열
자릿수
근접
백화점
바스켓
##빈
선행
곽
부문장
샤프
##패드
##닉
원장
안착
넷
홀딩
사양
지출
가중
숨
부상
외국환
출장
##ᆯ린
돌입
권오
난
주관
제로
금감
금융업
파생
##평균
##콘
경고
정지
균
특성
책임자
내려앉
홀딩스
##던
전력
나흘
염
도전
취임
일자리
사무
수행
##ᅥᆷ단
상생
보상
##ᆯ라
지목
몰리
배상
필수
체인지
남북
느ᄁ
곡
소유
여성
프로세
지원금
사모
##기획
특징
##답
트래
##거리
##생명
콘퍼런스
게
기구
부합
현황
비수기
신사업
아이패드
쌍
대기
장주
해양
양측
제일기획
##덕
지방
그런
수수
한도
금호
세트
원칙
타결
불리
월요일
##항공
테크노
힘들
##ᆨ시
지위
제휴
저항
문사
뉴스
##란히
##ᆫ트
공간
비전
무리
레버
##처럼
블루
케이프
병원
끌어올리
##셔
사망
증거
구도
액티브
스크린
##뷰
스ᄐ
발광
현대건설
씨티
캐피
복귀
슈퍼
##뮤
검사
그대로
감독원
레버리지
##ᆷ산
##로스
인용
내외
추락
기대치
변호사
##스타
의복
특검
##젠
예금
과장
영향력
테마
멘
샌
민감
메리트
##몽
증설
만약
##제철
정확
##참
그렇
요금제
스와프
녹
코어
공매도
정의
엇
엠
합작
치료
품질
뱅크
빠지
듀
첨단
##73
##71
##70
##72
유상
##ᆯ런
##갈리
이부진
밤
##납
신설
##마크
협업
최고가
벤치
겹
띄
사진
##싱
융
신탁
##우드
전작
테스트
쌓
상하이
수수료
##혀
주행
깊
영입
구별
초점
외환은행
엇갈리
##셜
자원
밑도
상여
유기
고전
##미칼
서로
##케미칼
넓
층
시험
전격
맺
대구
##윤
중립
##밍
저조
단기간
현물환
눈길
꼽히
희망
떠
부여
정례
정몽
선두
김용
김영
##것
큐
퀀
위탁
해상
서비스업
블록
들어오
스타트
##림
등기
차량
신라
최대치
압도
신종균
메릴린
클라
메릴린치
##쁘
그치
하만
최적
##어드
출범
크기
교환
이승
캠
차입금
출고가
다수
선제
강남
성적
##암
이병
##텍
##창규
들어가
스타트업
울
##렬
사과
전혀
가상
비상
문재
##저리
탭
##파르
##ᅰ손
가파르
부재
조절
최악
정점
굿
호황
김동
권오현
균형
걸리
수석
##트리
경향
고조
빈
타워
흡
윤부
민주당
괴
전후
조만
단지
커뮤
언저리
태평
알리
이탈리아
최저치
커뮤니
전개
스위
가전제품
살아
음성
컴퓨터
조만간
먹
싶
가족
부산
위반
산정
##플레이션
충족
넣
긴축
휘
중동
경상
화소
실물
만드
마치
내내
농업
올림
훼손
##번
##자재
시나
전통
대조
한때
스프
언제
사이클
넥
잡스
겹치
시나리오
##괴
##텀
전경
수치
명예
##징금
개정안
윤부근
주제
한층
##니아
노트북
##녀
##리스
아마
와이
벤치마크
빼
슬
##33
##11
##00
##22
##이트
미리
유사
실리
과징금
##포르
라운드
독립
##베리
##잡
거시
##가포르
연도
개막
##모닝
통계
단위
적정
싱가포르
굿모닝
테이
잉
이경
분류
유치
##서현
급여
팅
뷰
펼
##낙
##66
##ᆫ바
##펴보
이서현
자연
세로
심의
입지
이른바
살펴보
금감원
퀀텀
레이
증대
미니
출근
점진
##아지
운송
후퇴
박근
체험
재판부
골
단종
프라
감산
의존도
문재인
덜
량
기소
가계
미만
예탁
노출
신중
밴드
##영향
현대제철
구제
입사
악영향
엔터
태양광
올림픽
펜
영장
어제
##오드
##보이
간접
담합
버스
바꾸
##거래소
윈도
이병철
##취
차관
배치
##공사
복합
클라우드
끼
짜
반락
소장
예고
총리
##태원
청와
명회
청와대
빨리
##를
##헌
만족
모색
일회
발굴
치우
휴장
컨설
다이오드
전경련
##곡
##ᅮᆯ이
완전
상한가
프로세서
##으
이례
부가
젠
만나
달라
스티브
여론
##레스
근로
표현
러블
색상
##케이
부실
추종
포기
김현
법무
충전
##냉
##쩍
김ᄉ
정체
젊
컨트로
플래그
커뮤니케이션
꺼
메이
##55
##44
투표
##영상
##다리
사이트
퇴직
##ᆫ들
주춤
현안
##몰
세력
각국
크레
단체
##야기
리더십
일회성
이야기
상사
좁
최지
장착
내정
선거
위상
당선
메디
횡보
주의
최태원
증권거래소
추석
라스
갖추
끊
대한항공
깨
##걸
##휘
고르
##낸
나쁘
당부
청약
극대
듀얼
최지성
##리카
수정
예전
증권업
동영상
구본
레드
##싸
실행
만회
법정
반등세
상무부
염두
인플레이션
차장
차기
강점
##렴
플레
권단
블랙베리
오픈
틀
##냥
소통
옐런
의도
서명
도약
김유
채널
##거스
관리자
베를
스타일
파이낸
태평양
##31
##30
##32
시현
##가드
대다
경직
화장
##러지
생태
폭발
##다보
저축
최대한
닛
책정
##셔널
아마존
대다수
주석
##ᅢᆼ크
화성
##나라
확신
의문
우려감
##킹
드러
잇달
올라가
쿠
장점
묻
액정
베를린
##스턴
고문
선발
파워
##거지
담보
월말
명령
토대
품목
##베이거스
라스베이거스
옥
##겸
이자
이래
지키
부스
추격
발주
준법
페이스
인정받
머물
봉
##89
##86
##쉬
##77
수율
수단
##내셔널
예년
역전
소비재
인터내셔널
음악
웨어
폐지
지나치
흡수
##져
##ᅮᆯ기
미세
반납
폴리
발탁
초고
몰아
찬성
잃
사우
대대
##부족
소외
강등
동의
성명
약품
##ᆯ로지
협약
불거지
목표치
근본
테크놀로지
이루
시그
시황
삼성생명
대변
부지
##금리
##동진
성수기
역부족
협정
손익
##ᆯ레드
워낙
아몰레드
크레디
김유겸
##흐
기념
분양
공백
선점
추산
결론
도달
메시
##현실
버냉
인터뷰
갈수
들어서
버냉키
증폭
오버
공포
##솟
약속
핀
치솟
취소
이끄
허용
자신감
멀티
펼치
컨설팅
갈수록
##촉
##죄
거부
##릭스
수원
선보이
도분
픽
김정
##실히
팹
살아나
##10
##12
##스티
상호
수상
암
아웃
제회
박용
타이어
스위스
메시지
거리
##ᆷ색
연이
상쇄
관건
##나다
##다가
방지
닉스
캐나다
깜
##누
##그레이드
업그레이드
고수
국무
단순히
컨트롤
왜
##ᆨ정
기지
기다리
보증
고동진
##필
선고
일감
원자재
신경
약진
감소세
브로
접어들
경계심
시선
시티
걱정
김상
대세
증인
졸
유안
##닛
굳
점점
건조
독점
지지력
고위급
제롬
깜짝
르
##54
##ᆷ돌
##스터
믿
공공
기업인
신동
동원
동조
성장주
라이프
페이스북
##96
고급
다변
##칭
세제
후계
의사록
폐쇄
협의회
브라질
연대
미사
반박
관광
##붙
예비
확률
종목별
리스
김기
랩
웍스
게다가
크레디트
주변
전량
가ᄂ
대안
인민
투자가
최선
##바마
행동
홍보
루머
정몽구
졸업
붙
오바마
인재
스ᄏ
##디스크
드라이
느끼
몰아주
미사일
가늠
##롱
거두
값
수도
대중
연출
개방
빅스
##솔
건수
쏠림
스토어
정의선
김용구
런
잭
##뉴
##폐
##톡
연관
제치
다가
모양
판정
저장
임명
효성
백악
닛케이
백악관
##02
이중
매집
경색
바라
초청
감지
톱
##엘
무렵
이렇게
그래
##주의
공산
금요일
장남
소문
발목
디바
전기차
감시
긴급
희석
촉발
의결권
오랜
화장품
빅스비
뇌
##홍
기점
붕
조심
유도
회동
나란히
계좌
진화
우리나라
혁명
샌디스크
짧
훈
##뜰
자랑
유보
##산업
오름
불만
헤드
알뜰
웹
착수
##둘기
##스로
수년
비트
비둘기
스피
무산
저금리
배당주
트레이
##란드
잔존
이승우
디바이스
붕괴
렌
랭크
내다보
계산
저하
경기도
대우건설
법인세
쏟아지
박근혜
부자
실수
확충
피치
임기
개발자
취지
왕
끝나
주재
거치
상공
부당
반사
소액
안도
홀로
합리
합류
격화
가구
수장
자주
국장
한전
스포
재단
단통
욕
로보
임금
제어
실무
산업은행
브레
취하
백신
전시장
좀처럼
좌우
뮤
##엽
이행
전주
가세
등록
인물
소요
영화
세부
구입
역임
로비스
흔들
칭
##머스
분명히
잉여
플렉스
꿈
펌
##셋
유니
발사
동남
서울대
맞추
허브
노동부
셔
##꼬
갑
하원
환전
##성장
진전
요건
경쟁자
##테크
##렌
입주
건설사
답변
##곤
##숙
사원
짓
유명
갭
노조
제품군
넘기
아이디어
팔자
이용자
식품
웃돈
캐피털
쿼
분산
자세
인지
스스로
##소시
무너지
파장
##연합
원활
빈소
##흡
오름폭
객
훌
##몬
만찬
공통
폼
프라이
후속
직면
채무
박차
플랜트
독자
견해
캘리
게이트
뱅가드
낙관론
드라이브
지ᄏ
가트
미스트
화증
동참
통제
여타
##포니아
건물
수출입
산업재
줄어드
유럽연합
철회
편의
지지부진
##네시아
토론
인도네시아
실리콘
캘리포니아
가트너
쇄
##촌
##기금
수량
중기
회견
특화
호실
직거래
불법
두드
컨소시
타이젠
긴장감
프라임
로봇
동남아
컨소시엄
##꺼
##시브
짙
매기
오포
코노
제이
고리
##못
일선
포진
의회
평결
생기
여의
표명
대림산
융합
걸림돌
끼치
훌쩍
대림산업
톡
##45
전사
거래법
##계기
구상
파나
카운
잘못
농협
테이블
비둘기파
스포츠
혹
##98
##76
대수
부국
보완
바짝
예산
추구
강연
통운
항상
숫
##트라
유력
현행
##드시
반드시
우크
종전
일평균
성가
불편
패시브
##파이
절하
새해
철저
##퍼스
##ᆨ시코
잭슨
여의도
유산
개통
스터
##곧
환산
도ᄏ
테일
배당락
멕시코
레노
##페이스
이경민
140
곤
##심사
거래선
제작
인환
최창규
비서
스티
출석
재원
호남
줄곧
보험료
충당
검증
누구
틱
##던스
캠퍼스
두드러지
숫자
##13
##20
시세
##ᆷ선
수립
대목
고도
한솔
마음
정식
내장
모르
예의
일렉
발휘
서브
메르
파산
##딜
컨퍼런스
탈퇴
류
벽
챙
##짜
시위
지식
매일
부활
아무
고공
공조
공판
회수
비관
##곳
배심
피스
이상훈
패키
##노스
얇
즉각
귀국
##핵
##덜
##ᆷ수
전원
##삼
코닝
##제표
##플라이
##오르
회의소
호조세
재무제표
알파
겨냥
개척
번호
사우디
지켜보
##데이
사자
기각
전방
투기
공업
몫
모간
급속
승리
형제
네덜
러브
스튜
카운터
도쿄
네덜란드
대로
개시
인원
마크
출국
건전
##법인
광장
고용량
스탠스
격려
쇄신
챙기
촤
##ᆯ영
##혈
이것
대법
아프
중점
코오
경력
분식
최유
세우
환자
성사
의무
딩
단가
단일
도이
피하
당일
박람
이재현
##평가
첫날
클럽
내려가
런던
패키지
촬영
코오롱
시진
하한
미결
자급
##크로
호평
트레이드
임시
##투스
흥행
터키
미팅
자제
##소닉
##포인트
리그
산출
##실험
행장
교역
가치주
핵실험
듣
상당수
케이스
홈페이
닷컴
우량주
메디슨
파나소닉
홈페이지
컬
##쿼
이란
시절
가하
매크로
부서
유발
유형
인센
몸
##내리
원금
노리
환차
당사
김형
형사
취업
괴리
파이낸셜
신동빈
뇌물
인센티브
시민
##가스
가이
공기
관행
엄선
일조
평판
엑시
회장단
멤
파리
태도
##워드
웨스턴
베이징
오프라인
창업주
김현석
시그널
대변인
카운터포인트
지법
##튼
경감
다각
최상
관람
관심사
재닛
서플라이
결의
방해
테스
후면
감축
온도
명단
혼란
플레이어
촉진
웨이퍼
환차손
가이던스
기흥
그나
수위
연고
공화
##하우
빚
빛
비난
##어도
##밋
신주
적어도
내년도
편리
보험업법
김상조
##을
이스
이수
이견
시계
주기
조명
고개
개념
마찰
일어나
출연
##앞
과세
작동
작성
##ᆯ리티
직격
##연설
체류
청정
황이
권리
캐리
기조연설
따로
옵티
##창수
스펙
행정부
흔들리
시진핑
그나마
은
##줄이
지도
기울
기판
전송
가져
##셀
##회계기
##적분
정전
세금
스카
##선스
##라지
크로스
##무원
에릭스
##레이션
월간
태국
국제회계기
면적
담당자
풍
라이트
라이선스
미결제
직격탄
에릭슨
국제회계기준
에이
##띄
이주
이명
시상
전하
전부
매파
공헌
비보
추측
노하우
서정
필두
줄줄이
측정
승부
논리
워크
성과급
잠시
타이밍
농단
심의위
꺾
드러내
김기남
박람회
##적분할
##쓰
시안
상원
상존
정비
바람
세일
나이
##찮
확실히
김병
플립
필름
본안
##민수
박영
안정세
브리
청소
대상자
넥스
귀띄
상여금
귀띔
셰
##살
##튜
이인
사정
등극
아주
연평균
분사
자국
차단
예방
##압
버전
울트라
건조기
바라보
스터디
임상
시정
보건
정통
불황
창립
롯데케미칼
티지
빌딩
저항선
법무법인
핀테크
다가오
레노버
##즘
시카
김성
수직
외교
국감
##러나
장악
신년
배정
##포트
연합회
철수
닷새
창업자
올라서
이렇
치료제
가상현실
##쿼리
22
32
42
52
62
72
82
92
덩
##겐
이종
주자
검색
외형
자치
인적분할
반기
공학
원하
폭스
받아
##브로
132
112
102
122
캐피탈
넓히
엑시노스
20
30
40
50
60
70
80
90
##자리
기사
상표
조작
믹스
자격
보내
한정
인근
세미
노이
##마켓
해체
엑스
산하
내리막
이사장
광주
월가
프린
130
110
100
120
허가
곡선
먹거리
훈풍
멤버
숙
택
이론
보복
##피아
공무원
정무
차트
소수
어음
비하
일치
파손
충돌
견제
##더스
누리
노동길
맥쿼리
사무소
굳이
옵티머스
록
##척
##85
##84
##95
##94
##겁
주우
##김
##짓
##숨
아파
우한
획
발견
여행
단연
리스트
리포트
전문지
##호텔
파크
양도
맞춤
##킨
납부
년
##ᆯ트
이영
##세우
인방
일환
##어붙
점포
##덴
하이에
파급
체감
구본무
모양새
객사
주우식
아파트
하이엔드
##36
##37
##16
##17
이머
거점
전선
연임
유인
화이트
최우
##재단
모처럼
어디
재발
로버
장기간
##징마켓
받아들이
이머징마켓
시청
주파
금산
고유
최순
##명섭
##아가
##다운
##바로
텐
메탈
엔진
사이드
토지
폐렴
느낌
와이브로
시카고
##멸
##캐
##ᆺ다운
이통
사록
기정
그것
##기지
상징
대용
대처
고스
##제당
웅
선명
바르
##웅
##섯
무시
무료
트위
프로모
##저우
제일제당
취약
토탈
친화
녹스
메이커
욕구
셧다운
메르스
주파수
전제
부도
상선
잦
보사
고부
다지
모비
모기지
일관
구분
핸드
도래
진영
패닉
휴가
##륙
송명섭
뛰어들
한화투자증권
한화케미칼
최소한
하한가
고스란히
헌
##갈
삶
##수종
##래곤
아산
아들
오찬
오디오
공단
##칠
세종
스트리
##운트
총선
두께
팔리
독주
황창규
워런
항소
스토리
대학교
응답
모니터링
관람객
엄
콩
탁
이민
전이
상기
개설
공감
비디오
강자
신입
신형
디램
크리스
텔
플라
##버그
그렇게
접수
케이티
칼럼
둘러
둘째
사망자
아프리카
칸
##꾸
업과
신수종
구주
설득
의심
호흡
저가
플렉
필라
임대
##연히
축적
##퍼레이션
눈앞
한화그룹
싸움
##먼트
트레이딩
시상식
대용량
론
##뇌
사운드
##갑
가액
그로스
수전
자수
제거
인단
##젤
##피스
현대그룹
##크스
서서
물질
핏
텍스
로드
##민국
##카운트
청문
드라
조선주
에스원
따라가
용인
롱스
잠재력
해상도
서정훈
스트리밍
쟁
삭
시일
수용
만료
인구
순차
공고
장애
선별
일상
##찾
동행
궁
해명
방역
변하
##달리
파업
신한은행
이윤
근처
##델피아
접촉
너스
혹은
대법원
테슬라
웅진
프로모션
필라델피아
서서히
띠
##풀
사학
기인
전담
상정
##지먼트
대립
증언
##사실
중대
오브
최치
종류
일종
포스트
동월
결권
해제
무기
향방
되찾
교통
재정절
항목
전시관
매니지먼트
대리인
테마주
밑돈
스티븐
끊임
갑자
우크라
기정사실
재정절벽
멈
##찌
지문
수시
부연
부처
중형
다운
순수
정착
##서스
재환
재현
##아웃
여유
방통
운전
로스
패소
박상
박정
레스
맞서
킷
접목
탄핵
얼어붙
착공
떠오르
도이치
파리바
사의
미지수
관여
정규
모으
포착
배분
평소
델
관계사
직무
패드
패러
입원
속속
활력
쓰이
맥락
퇴진
대한민국
빅딜
빌미
넥서스
스카이
트위터
멈추
괘
굴
##최
##ᆼ장
사라지
주최
지시
기미
기저
수령
대북
아예
중재
오리
한신
공채
역내
약하
돕
물러나
초래
은행장
타임
통신비
승소
문제점
소식통
맞물
눈치
##엠
군인
탈출
굉장
김승
브레인
뮤직
김형렬
김병연
브리핑
괜
굉장히
##풀이
##혼
지구
대행
공항
정용
##냅
비싸
스냅
노르
##반도
동국
급성장
##환경
약간
무풍
적립
리먼
##톱
사이츠
씽
면담
##라이트
벌어지
촉구
##ᆯ러리
친환경
정확히
##싱턴
맞물리
뽀
##맥
##ᇁ이
시달리
지하
전형
##값
가로
하도
천안
유독
보좌
순자
모터
나누
스몰
강제
발동
계정
서밋
묶
양성
되풀이
셋째
꼬집
##스틱
스피커
렌즈
프라이데이
톡톡
청문회
맨
##요타
조문
조처
중구
미칼
##셀로
콤
##드래곤
한반도
만남
인천
예견
원천
발간
##밀리
애초
결함
판가
##석현
##높이
논쟁
눈높이
와중
커버링
##번에
픽셀
실수요
세미나
바르셀로
괜찮
스냅드래곤
바르셀로나
141
##춘
사랑
지침
수렴
##랜
조병
아메
중견
고배
소진
소극
##구심
말레이
배출
의구심
급변
안심
김지
경영학
건의
##디아
완공
입증
삼정
백색
곧바로
기울이
톡톡히
말레이시아
이드
이목
대결
부추
밀러
보강
고무
실험
정관
내주
소멸
세이
배포
##우스
돌리
총장
디스카운트
교류
윤종
별로
야간
머니
당선인
배심원
가져가
이주열
쪼
##쿠
이선
살리
짐
상법
수균
증명
인권
##친
장소
환차익
구자
디포
재평가
본인
##언스
워싱턴
##박스
면제
##렉터
징역
병행
곡면
이자이
철저히
로버트
부추기
##멘트
##뜨
읽
시연
상임
경북
다섯
세무
밸
동지
구사
디렉터
폭등
##다임
방산
과대
도발
피터
롤러
래리
박사
커브
트리플
잡지
##에스
배상금
트랜
봉쇄
패러다임
디폴트
락
지상
상거래
중시
오피스
코드
화해
밟
비리
발의
##반등
급반등
생존
단숨
리얼
##본부
로열
파격
준공
엔지니어
참석자
얼굴
##시스코
군사
돌아가
힐
쌍용
울산
기지국
뽑
단숨에
꼭
지능
전실
상고
수소
##수수
##화기금
미포
보류
화두
실사
빗
스테
##고리
##신저
급하
여름
도요타
피고
##통화기금
메신저
김학
##버스
대표부
박석현
체질
편안
북부
국제통화기금
드리
벨
인터페이스
잠식
##늦
일단락
돌아오
대리점
그래픽
쿼드
하도급
조병현
쿡
지진
기한
전동
##기찬
수신
대유
대역
부별
조합
아우
투매
국물
인피
##제강
비스
일별
포괄
구광
과시
##발히
메가
김종
김민수
합계
불량
##경식
입국
입법
##연금
활발히
창의
국민연금
새벽
독보
##란시스코
따라잡
##손실
여러분
학습
브로드
꺾이
최치훈
한신평
동국제강
구광모
21
31
41
51
61
71
81
91
룰
##렁
기종
전파
가공
가담
수십
중보
중남
실천
한꺼
우정
장내
소집
모집
비드
스무
강원
동생
각자
규격
##서블
의류
호응
메뉴
로이트
양해
필터
감정
뒤늦
131
111
101
121
##턴트
##와이
방어주
머무
조성진
교보생명
김동원
내정자
청소기
중남미
##툼
##데이트
##끼
심상
전액
##돈
증강
업데이트
중고
옮
고지
실효
한양
순손실
내일
선수
일방
추모
위아
위츠
노근
피로
피력
프레이
##프란시스코
협조
본드
두루
형식
독려
누출
잔여
이어간
##예금
공모주
샌프란시스코
곤두
중형주
룩
##팀
##씀
사드
가리
가처
대두
아세
중론
국세
##비아
##로그
우상
다툼
공인
장부
장외
정실
내구
원기찬
신속
동탄
##맞
점치
##라스
서류
안내
##틴
플로
처지
##렛
박성
책임지
웰
허창수
용도
대림
넘어가
파트너십
플렉서블
가처분
23
33
43
53
63
73
83
93
룸
쓸
##먹
##써
시내
거대
대가
대전
중화
믹
자발
제철
##빙
솔로
비료
말씀
신장
출구
한국가스
당액
파견
패스
133
113
103
123
잔액
벌써
탄생
컴투스
촉각
신세계그룹
변호인
합작사
동지점
한국가스공사
꽤
이석
##스ᄐ
가권
##깃
##유예
조율
##체인
투자액
순조
공기업
장벽
##매김
소규
모데
모션
옛
강경
발효
환영
성숙
##난히
재직
통일
안보
여신
방한
##바바
건축
박종
##택근
광대
위기감
자리매김
드레
토러스
집행유예
블록체인
신라호텔
알리바바
##쉽
관광객
제임스
당사자
청정기
획득
최우선
소규모
##쳐
사퇴
걷
거주
기부
김세
가이드
증여
아연
##칩
소리
소환
스코
배런
동맹
각서
구동
점하
성전
도출
에디
점수
김재
합산
랜드
문서
체인
버팀
명분
캡
면접
히타
응용
끌어내리
##스타인
##트릭
골프
안도감
최상위
드라기
쟁점
한꺼번에
솔로몬
버팀목
톤
혈
이메
사유
주저
지향
그때
하위
조용
아트
아베
거래세
자녀
공표
소스
신화
의외
특혜
##다지
안진
무한
호암
변곡
##개발
산중
산타
경영인
직급
문자
불참
수출국
완제품
박현
치중
철학
액수
복지
서초동
강남구
달라지
파이낸스
드러나
왜곡
스튜어드
궁극
증강현실
아세안
히타치
이메일
변곡점
궤
떼
즈
쥐
##녁
##컵
이기
이정
거액
그다지
대국
옴
외인
제동
제프
제너
제자리
고발
국인
국산
최다
공제
공습
장담
비스타
스파
스케
##심히
폭너
하이텍
방수
무상
물리
본관
패밀리
참고
들이
남용
표결
따지
##창원
퍼지
클린
즉시
월드컵
자칫
갑자기
아메리카
김학균
폭넓
17
27
37
47
57
67
77
87
97
##펌
이준
수순
맹
억제
조항
중지
연령
분당
외평
고속
실정
장례
##산물
정권
정신
소강
포커
발판
위법
재택근
통보
##볼
프레
운동
저녁
립
링
후임
로펌
공급량
효력
137
117
107
127
민사
막히
풋
게임즈
근로자
##걸음
로열티
재택근무
##따르
##헨
시한
##지배
수백
##돌리
##정선
앉
##트론
오퍼레이션
경로
율
고성
##제과
순간
장충
정하
선포
예외
낳
일간
추후
##어링
포드
위쪽
배임
재투자
후폭
##홀
팟
생산자
통신부
완벽
체력
광범
##밀히
대응책
버블
버튼
##라이나
누르
특별히
오랫
스톱
##센트
컴퓨팅
그런데
증거금
성적표
와이파이
컬러
오리온
옮기
에디션
제너럴
광범위
사임
기일
기재
전세
대회
대략
증감
##셉
경찰
경협
우주
최경
장려
정성
소모
일류
포화
평면
##아보
판도
에프
가격대
변환
기술원
리뷰
타사
##버지
박재
공급자
손보
활약
열풍
청년
가깝
홍채
캔
첫째
푸르
극도
별개
늦추
번스타인
초고속
취업자
이민희
끊임없이
널
##며
##벤
하강
수마
조현
아르
중계
오해
오토
제정
공여
선박
비밀
##구조
원도
발화
기업지배
계수
출렁
구형
##서리
설문
##단지
해법
프레스
간신
관계없이
타협
타깃
김경
감수
##경제
손경식
##브스
광공업
윤정선
토로
벌금
질의
케이블
라이브
징후
촉매
##센스
##걸이
스캐
일렉트로
워크아웃
텐센트
노릇
모뎀
김세중
후폭풍
수많
기업지배구조
메이트
즐
##츰
##팔
시보
하와이
중복
자재
유예
유튜
화폐
최장
횟수
금일
차츰
추월
원격
사업단
##아들
이익모
결렬
적발
후원
산은
처벌
손목
##스크린
취재
권한
혼합
야심
약보합세
넷째
난항
스틸
설득력
율촌
고성능
간신히
유튜브
16
26
36
46
56
66
76
86
96
쉐
시범
지대
수천
##대문
연료
분포
보관
보직
제목
국한
##핀
순서
마스터
##재료
선법
영위
분기점
##동력
원재료
포브스
결코
판사
도로
물품
엑
총력
분석가
양극
손꼬
뒤집
##교체
압수수
136
116
106
126
세대교체
며칠
몇며
##사업본부
##스틴
수상자
류허
이인용
택트
우정사업본부
프레임
포커스
오랫동안
손꼽
압수수색
몇몇
이때
주지
상반
상실
수뇌
증액
부작
미주
외채
봇
모스
종결
비록
비디아
일괄
노사
계단
##플링
재부
재경
평화
##성호
무대
핑
저해
##바지
법칙
두기
구조개
워시
명시
캐시
복구
구매자
선호도
뜨겁
범용
학과
학교
##ᆯ러지
대학원
테크놀러지
슬로
구본준
후계자
급속히
노이즈
플라스틱
둘러싸
이선엽
추모식
가이드라인
수뇌부
##찍
이월
사기
시바
거품
가맹
##기소
대치
부대
##유럽
거래처
고강
실태
마스크
관찰
내지
바겐
솔리
소셜
##구정
스웨
##미디어
##의원
무효
물산
산재
롤
합치
양대
디스크
챗
채산
통신망
손상
손잡
이미드
열심히
압구정
이재만
엔지니어링
특허법
명암
적잖
창고업
뱅킹
##센터
김동연
믿음
핸드셋
론스타
국세청
최경환
솔리드
스웨덴
이창
기평
수리
부쩍
조양
코멘트
외면
유의
마그
마을
정창원
차감
소지
모범
비자
비대
추경
원형
발급
윌리
##소연
동필
구미
##라엘
##아오
하이트
방크
에코
변신
리조
템
김주
불기소
행사장
카테
인수자
##넣
새삼
키워드
액세
자본금
##착륙
##머니
극히
러닝
잇따르
쿠폰
일렉트릭
이스라엘
탁고
정용진
세이프
대국민
흘
##뉘
##룸
이성
##ᅮᆨ희
김석
##가상
##지스
수차
증정
부의
유티
화정
고집
##롤
마리오
관료
내재
선위
소위
모임
일축
스트
출처
약점
저희
후발
심장
타진
김인
김준
##틱
팜
양수
양회
문구
문의
산업단지
커플링
압축
상대방
이숙희
명동
막바지
푸드
품사
터지
농심
폐기
내려서
히트
프로세스
멘탈
박근희
골자
##늄
인지도
예산안
넥스트
덩달
모빌리티
호흡기
드레싱
부작용
리조트
카테고리
사인
지니
가ᄇ
수면
##래스
##사채
아버지
유엔
한중
반격
공로
모닝
세상
낫
강행
신약
##곽
##단히
섣
엿
집안
김장
로이
파고
법조
직장
불식
본질
자금력
입력
박소연
전환사채
##채권
활황
열정
명품
명의
곳곳
송종
권역
접속
격리
극단
필리핀
농산물
주인공
클로
아래쪽
야기
희비
탈레스
냉각
실망감
과학부
깊이
큐브
이경수
##으키
덩치
##맥스
립식
수차례
유틸리티
레이트
셜
춘
##ᆫ스
이치
사명
사후
그램
##상승
천주
##화질
미술
경품
분배
고등
고화질
국토
한창
만일
닫
공신
회로
정세
정황
영주
세수
남성
##나가
원동력
포석
##믹
각오
##마스
성영
급성
서두
무난히
타개
파기
패블릿
##저히
손절
돌발
##밸리
##토리
취급
신용도
더욱이
##질유
사이즈
상품권
베젤
복원
소득세
횡령
터치스크린
블루투스
떠나
칭화
실리콘밸리
프린터
꾀
던
턱
##겨
##셰
##랭
##덤
이라
##자체
지자체
상상
상담
매진
대미
연세대
유감
제개
고인
국방
한모
반독
회관
내세우
모회사
습
출력
의뢰
딛
통하
##보험
없애
단점
호환
이바
##바겐
심근
양자
속보
청사
언더
버리
마이클
셋톱
보합세
페이지
겨우
겸직
허위
칩셋
발전소
견인차
쇼핑몰
노동자
펫
스토리지
사우스
##껏
스튜디오
박영주
폭스바겐
잦아들
전동수
가볍
한몫
셋톱박스
팽
##쇼
이세
이코
기억
기말
전역
##같
부친
중질유
경매
유죄
현정
만장
우회
다스
공지
공익
금전
장녀
정국
정당
내역
선태
예컨
##어넣
동종
동작
출원
안대
적격
간과
초저
리츠
탐색
김예
합동
채우
뉴먼
##현수
행태
감원
휴렛
서울시
특허청
네오
황금
뛰어나
윤주
윤곽
유통망
막강
##어들이
용석
##승훈
액면가
빠져
브라운
난야
비관론
피로감
부의장
송종호
반독점
퀴
##ᅰ어
시초
주권
주초
전미
상방
수은
대항
##래도
유선
##일류
화우
##든
반짝
예술
일중
신정
##감치
##라운
##플레
의하
재작
재생
판촉
단정
당연히
초일류
저성장
은행업
매출채권
##티나
본토
개발비
체크
##카메라
충남
광학
월마트
월등
계약자
견고
베타
갈아
백라이트
##에프
밝기
존슨
폴크스
머리
맥주
신뢰도
펠로
다이슨
대화면
곽현수
살아남
캘리포니아주
톡스
아무래도
다각화
외교부
##찌감치
김승연
##스테이트
솔리드스테이트
예컨대
김예은
재작년
똑
이관
이평
이득
이집
사절
주역
기설
그랜드
하우스
증세
조립
중도
중공
오션
미흡
코트
코덱스
자택
제주
##원장
갤러리
한발
만하
공약
관장
차녀
선인
소버
나뉘
일련
일임
신차
구원
구두
##랍
중국인
안방
옆
과다
호소
피처
프레드
저지
파일
파괴
수출액
박중
감면
감가상
라디오
사용료
형국
레저
광저우
샌드
편집
홍라
##퍼니
민영
윤용
디지털카메라
동부그룹
해결책
끝내
골든
탈피
위칭
전용기
융자
김정은
삭제
##뜨리
머무르
##헨티나
##셉트
아르헨티나
즐기
김장열
빠져나가
이집트
만하임
소버린
감가상각
##큐
이원
이현
이곳
이혼
전성
##감사
수반
##랠리
부응
조회
연락
미행
제소
개미
##계약
한시
한미
##빛
만도
인위
다목
다면
회전
정면
정작
선회
어시
나이스
비야
일으키
일찌감치
스턴트
##조건
원단
포털
##준호
##힐
동계
##마블
##아내
##ᆯ렌
폭탄
단축
테러
로비
##테나
흐르
지점장
효자
결과물
편광
킹
워커
마케팅비
톰
토막
맡기
퍼스
퍼스트
관세청
날씨
범죄
탈환
기본급
착용
넷마블
금호산업
녹색
스퀘어
##파이어
공감대
수시로
윤종용
국민연금기금
강원랜드
장려금
조양호
세이프가드
꾀하
홍라희
다목적
비야디
술
죽
##묵
##알
##ᆷ해
이화
이격
사주
주방
주류
거세
##스탄
전례
삼성동
##지오
수조
수탁
##그라
부착
##상태
조화
오스틴
연루
볼
보너스
보아오
현기
고비
고덕
실용
실명
##로드
인가
인간
다루
장면
정말
밥
세기
##나항공
##ᅦ이스
발송
##미늄
현대산업
출입
재해
##아라
여야
도착
간부
린
김중
로직
파라
랩스
화학주
컨벤
##연대
열기
청주
아시아나항공
롯데제과
참여연대
헬로
석사
허리
##불리
얀
컴퍼니
켐
파운드화
퇴출
글라스
브라더스
외화예금
윈도우
좁히
멀티미디어
공통점
동남아시아
이듬해
##쳐지
산타랠리
취재진
워커힐
현대산업개발
컨벤션
콕
튀
펴
사법
시공
지검
##가동
##지아
대답
부부
오렌
##화문
코미
경연
분주
유용
보세
보쉬
현직
고소
고심
반성
##핏
움
다행
마트
정정
모티브
일체
##골
배송
동아
##마디
급부
##보드
안테나
방증
과태
물건
적대
초미
저커
리처
요즘
오르내리
김대
김치
김윤
법령
문책
박수
휴일
교차
렉스
철도
편중
니즈
니콜
버티
찾아보
콜라
야구
청구자
상속세
출고량
조원태
항공기
밀접
##앤
숨기
스프린
프라자
프린팅
항소심
보좌관
소강상태
가맹점
액세서리
섣불리
사절단
민영화
윤용암
오렌지
과태료
저커버그
리처드
첸
튜
##첨
##멘
##컬
##끄
이학
이스트
##이너
사은
##리어
연착륙
외관
보인
##일랜드
현저히
고의
개연
실형
한쪽
한마디
반올리
다니
정액
소손
일찍
원주
노중
밸리
딥
서치
평창
##만히
##다드
단장
요약
산유
심지
합성
불어넣
본점
최고점
완충
돌려
##브리
광화문
남방
명성
명칭
혼재
복수
시행령
질환
석유공사
##퇴직
보안법
카카오톡
제안서
연계증
회원국
걸맞
완성도
김수
퇴직금
국무총리
브렌트
우크라이나
비서실
사우디아라
신년사
다운로드
일렉트로닉스
수천억
마그네
스프린트
반올림
사우디아라비아
19
29
39
49
59
69
79
89
99
껑
딸
료
사별
##장구
가라
매달
부르
아랍
오일
유량
화제
화답
고착
한풀
우대
장인
장학
바다
비브
놀라
##영민
계층
성률
디아
서기
##ᆯ란
한국인
하이센스
역설
단과
작품
불화
박병
카우
감자
감당
낙하
향하
승승
뒤지
축하
사이버
버락
시스코
139
119
109
129
민관
윤리
익명
격상
용품
살피
징계
국회의원
할인율
펙
응시
신호탄
증거물
정몽준
대졸
슬림
##으로
깨지
이명희
곤두세우
스케일
이라크
급부상
산유국
심지어
가라앉
승승장구
##샤
##테이션
##ᆺ대
이진
이온
싣
주거
##ᆷ새
미루
시장법
자부
자존
유수
유임
유승
보드
투어
인접
최성
내비
차용
##맵
세라
일용
원래
포천
폴란
##관리
신상
환불
동요
급상승
재미
재난
서한
특이
피아
엔드
메드
김창수
트랙
로켓
직결
뉴딜
두각
##즈니
돌풍
들여
광명
샘
남기
남아
의료진
명목
명절
표면
잡히
누그
조선업
콘셉트
징크스
스페셜
##클레
상관없이
유망주
김정일
셰프
폭스콘
로드맵
거주자
국산화
클린턴
##볼루션
똑같
껑충
폴란드
18
28
38
48
58
68
78
88
98
례
몬
탕
##럭
시판
지불
전적
전균
그해
상근
수명
등재
증후
부결
오류
연달
미미
유배
고령
투심
실버
한종
회생
##적으로
모이
나름
종업
종식
추수
강력
강의
강호
원수
포장
포르
신림
##영수
##과점
성균
서원
##닫
방진
프랜
진작
##프레스
리티
리튜
김포
카셰
감리
낙찰
되돌리
##밴드
준수
언스
독과점
견지
근원
버핏
138
118
108
128
##순환
디지텍
머티
이해관
테이퍼
끊이
르노
이종우
브로드밴드
주저앉
장례식
분포도
엿새
서두르
이세철
사은품
자존심
증후군
성균관
리튬
카셰어링
촌
##넌
##츄
잊
이돈
##이자
사로
사채
주축
수업
대열
대손
##랩
부탁
##상도
조준호
아끼
오가
자진
##일치
국경
인플레
공연
내츄
##금융
어플
어두
##니티
원환
원론
신도
환송
동대문
##당기
성립
##아나
해지
해임
##성민
과점
과연
피델
데스크
플루
파주
양쪽
##코웨이
불발
전략가
입금
손쉽
승자
플랜
충실
철폐
지급액
엔도
키몬
남부
남짓
온의
이순
홍완
돌파구
잡음
블로그
토종
잠실
디자이너
에스에프
##렉트
용산
질책
능성
##효과
야당
학위
서초구
상속인
폭락세
다이렉트
슈팅
올라오
밀크
익스프레스
사무실
보상금
스테이트
암시
브로커
이중호
오랜만
급속도
헌법
둘러보
공고히
웅진코웨이
박상진
박정호
심상범
궤도
스팟
맹점
채산성
김인주
이바지
만장일치
갈아치
##감사절
##지않
추수감사절
이해관계
이돈주
내츄럴
어플리케이션
어둡
키몬다
벅
체이스
펄
##논
##슈
##줄
##쓸
이력
주고
주효
##시계
##ᆷ소
전인
전진
핫
수개
수혈
매월
조지
업도
아일랜드
코퍼
코에
잣대
제척
고해
투수
한라
인테
우도
우월
공원
공석
관전
회귀
선영
예치
나아가
비핵
##나이
포부
위생
놀
노선
##소싱
##루미늄
##우지
##마리
출현
점심
##오린
여당
방점
무겁
무조건
도구
호아
에볼루션
진짜
변론
##ᆯ링
집약
탐
김진
김철
직업
필기
앞당기
센스
플래닛
광각
##남기
남미
독식
홍남기
알루미늄
백만
##페인
케미
뒷면
신세계백
##먼지
걸음
배상액
정례회
김동관
통계청
펼쳐지
발주자
미세먼지
아웃소싱
행동주의
잉여금
이명박
모빌
박상현
내구재
이석채
손목시계
김주형
감가상각비
이학수
유승민
플루오린
갈아치우
비핵화
신세계백화점
뚝
묵
킴
턴
##ᅨᆫ
##뚜
##펜
##흠
시차
시리아
지리
지사
상해
##지로
수성
붐
부위
부임
아카
밀레
유종
실트론
##피탈
정현
차남
##맨
모방
어린
##얹
스페이스
원전
원료
위니
위성
노보
확고
신축
배우
설사
재배
재가동
##앗
통관
##다이스
안민수
도모
물려
간섭
진보
진술
저력
##바이
산비
심재
트론
##코드
센싱
참관
평균치
내림
열흘
커드
레지스
이재훈
청취
월별
편성
사이언스
근절
당국자
삼양
접히
알렉
백혈
이어받
콘덴
안전판
존중
감사원
강보합세
어떻
피해자
연장선
응급
역삼
밀어
친구
찬물
레이크
끼얹
##누르
토론회
아무런
숙제
##캐피탈
인권법
김종중
플로우
옴니아
출렁이
파라다이스
포르투
장례식장
수개월
코엑스
고해상도
호암상
콘덴서
득
틈
퓨
##팡
사익
사와
거절
거짓
지기
지명
전공
하성민
매번
증서
부풀
##상조
조종
업자
오승훈
연수
미달
유화
유무
실력
실마리
##빗
인내
반환
투자처
우시
##횡
##회의
다짐
순방
마주
소공
섹
세도
추적
강주
포토
출주
구로
##감히
재용
서면
앨런
결단
해산
역동
안성호
과감히
이상재
당주
리브
메우
김태
양보
##탑
박강
회사법
악순환
활기
보험금
창사
브릿
풀리
광교
편법
키트
드론
롯데칠
명확
혼조
음원
복제
시기상조
구성원
##렉션
와병
품주
노동당
상속권
루프
힐러리
팩토리
대학생
빌트
깎
블루칩
##젠테이션
휩
충전기
메이저
기념식
박용진
훈련
헤드폰
헤드셋
곤란
도이체
컬렉션
지하철
아우르
성숙기
재경부
박중흠
피아트
주고받
확고히
백혈병
포르투갈
박강호
브릿지
롯데칠성
명확히
딱
척
톈
##띠
##깔
이우
이즈
##자원
시술
기프트
전수
전염
가산
가오
상식
상각
##인드
대면
대덕
증진
조수
아날
아무리
아쉬
상승기
자평
유한
보름
고통
실세
##러들
반감
순항
마인드
금채
내실
바인
세율
예단
비결
추첨
##조합
원내
##미터
환호
##간접
의제
디즈니
통지
해킹
##보스
하이브리
여간
과기
무슨
작국
데즈
리빙
요동
후베이
심하
경제인
김택
김광
파티
법리
직간접
건립
넘보
목록
아이콘
임박
##연주
되살
열세
회의록
청장
고려대
키보드
##킷
닉
버즈
동반자
##절히
유통점
면밀히
##벳
데이코
석방
웰스
차이나
능동
최종구
재판소
먼지
제약사
학계
커버리지
색깔
멘스
떠안
캠페인
휠라
꺼리
고수익
르네
형제간
격려금
세일즈
모터스
쫓
브로드컴
장충동
널리
스캔들
시초가
이격도
한종희
강력히
벅스
유종우
정현호
빌트인
톈진
하이브리드
되살아나
이은
##이행
시야
주액
거물
거버
짚
기가
전고
##가락
##전지
##릭
하현
하노
하순
수술
맵
대박
등지
아쉽
옷
옳
오성
경남
자식
유행
보편
##일리
실내
국영
국책
공적
공언
장밋
차등
##부르
소음
모로
옐로
위즈
노광
신일
올레
구심
점도
평사
안주
무ᄒ
무르
도마
에지
보잉
적응
간주
##룡
##둥
산전
집권
김홍
랜
##여대
행업
본계약
박승
박삼
치킨
줄기
휴식
임차
##켈
지원자
사용량
커머스
인사말
맞대
##청사
온이
황민
베어
찾아가
캐논
윤영
첫해
타이틀
극명
흥미
베이스
베이지
터널
놓치
소매점
스크롤
좌수
인증서
트래픽
사과문
대조표
거시경제
김선
쿠팡
이루어지
다가서
벽걸이
가져오
풍산
사이드카
삭감
인피니티
손보사
촉매제
이화여대
세라믹
##넌스
어린이
아날로그
아쉬움
거버넌스
하현회
장밋빛
닥
묘
을
##ᆸ업
##38
##35
##39
##34
##18
##15
##19
##14
##ᆫ손
##랄
이연
##이치
줌
주만
##시간
##시점
기류
삼성메
갚
##기적으로
하스
수여
수습
##상의
중장
중가
##세이
코퍼레이션
분수
분실
자구
유저
봄
제습
현우
현시점
화상
실탄
국공
##문학
반문
##르트
다중
다발
다투
마당
내성
바클레
영원
나중
##구나
강현
원년
##미리트
신생
올인
구역
재심
재협
서킷
##데미
특유
안랩
여전
방위
과반
도어
더구나
적층
초코
##두리
경제학
집적
##임자
##버터
감상
두뇌
##디슨
박원
카날
승기
##케인
뒤처
교섭
인사이
엔지
편승
그린
드물
홍하
권유
권영수
삼전
##네마
자본재
익일
##라이프
##라이언
마이크로
조선사
##에미리트
탄탄
떨어
수입품
##받치
식자재
할부
공방전
유일호
학회
이해진
재벌가
대한상의
동일인
뚫리
##베이터
스톡
쌓이
##윤모
희망퇴직
떠받치
빼앗
잉크
레이저
옥석
기념일
박용만
굳히
트레이더
몸담
이스코
이수빈
에이스
응답자
오븐
운전자
김지형
##뜻
혈압
아베노
제프리스
박재완
던지
##그라들
김중현
허리케인
니콜라
아랍에미리트
서원석
촌동
아카데미
부풀리
김택진
박삼구
삼성메디슨
재협상
뒤처지
카르
헤이
##68
##65
##69
##64
##ᆫ쪽
##섬
##뜩
##78
##75
##79
##74
이점
이채
이지수
사도
주차
지인
지준
전직
##ᅮᆯ리
감성
가을
그레이
매직
맴돌
대하
대어
중신
오스
연맹
미수
코리
코웨이
경과
자전
유료
보폭
젤
##원표
현존
개당
국적
국부
국외
##문화
##익재단
한데
인건
인연
인더스
마포
공존
장마
장터
정제
정진
내다
선출
소상
영우
세전
종로
##어트
강국
강구
원만히
위조
##미널
각계
구하
성금
##플릭스
급식
결심
##외선
단어
무제
도매
##공익재단
덱스
리모
리니
테두리
산시
판매가
메트
합하
불가
행복
##팜
입성
흔
감내
목동
##들리
속출
##ᆯ렛
형주
광구
엔에스
편하
편취
맞먹
논하
계약서
표출
윤석
스탠다드
##철수
잔금
석탄
탄소
##왕
질서
질타
놓이
식수
식당
야후
중간재
##승희
할당
납입
힌
펠
상한선
넷플릭스
스테이션
김영준
김순
삼성생명공익재단
꿈꾸
자세히
김성인
획기적으로
지상파
준공식
조현아
응시자
홍완선
심재엽
지기호
신일본
점도표
강현철
인건비
내다팔
낭
쿨
##ᆼ지수
##텁
##톤
##테이
이직
사스
사재
사면
시동
지양
가결
##국적
상충
##지부
##지우지
대의
대단히
부시
앓
오뚜
연산
##셍지수
분경
자이
보태
볼류
고치
실감
##비전
##비드
인버터
반론
다보스
다국적
장대
정준
정서
정공
내밀
내걸
##해튼
소량
소기업
어워드
세련
세션
예수
일원
원익
발열
위약
##고소
확립
신작
배수
배려
동서
주식회사
##플러스
급기
서민
평양
##다나
하이얼
단언
도연
더군
발표회
당황
간격
진흥
저울
##ᆯ릿
심정
##태호
김창
플라이
##버전
파마
본연
두텁
입구
치명
휴전
임돌
컨테이
컨버전
국민카드
바이오팜
커네
충원
렉
레디
맞고소
키프
황기
표정
홍원표
잔류
데이비드
꼼
항셍지수
이어서
이어폰
겨울
한화건설
홈플러스
##예산
머신
냉방
정기예금
힌트
엘리베이터
페어
착시
번지
좌지우지
##덕수
휘청
차관보
컨설턴트
컨트롤러
봉사
신경전
웹젠
실무자
이명진
승부수
이영원
선명도
핸드폰
끊임없
굴지
눈치보
맨해튼
스테인
룩스
증여세
윌리엄
이성태
스트레스
손절매
누그러지
부위원장
알렉사
기프트카드
초콜릿
메트라이프
신일본제철
오뚜기
볼륨
더군다나
저울질
컨테이너
찰
켜
헝
##죽
##펀
##타르
이낙
사격
사간
사파이어
주한
##시안
##시디
지오
기법
##가기
상의
수세
##수사
##대표
대사
대성
##정예산
##삼성
##사태
조업
연한
미군
경합
경질
상승효과
자매
유관
유증
##일보
고액
실체
국빈
##문일
한영
인쇄
##종연
우스
정경
정립
내국
소자
소감
모험
모디
종사
비치
비행
비단
일차
스가
스미
##조사
강판
원안
포켓
위사
위로
노태
신조
출퇴
구리
구호
사업비
디플레이션
애니
역풍
안목
안타
물색
프라이즈
적다
이베이
데드
심포
경제력
##방향
김신
트로
자산가
합종연
##코아
추가경
##테랑
입체
바이어
치르
감익
우리은행
측근
임무
##생활
##연구
열람
충성
철광
취향
준비금
니케
워스
베테랑
추진력
철강재
##퍼드
데이콤
음향
이어가기
에스엠
질병
날개
날짜
존속
클래스
내려오
퇴원
루레이
엘시디
팩터
항공사
멀리
웨이브
연설자
취임식
사뭇
멘토
김영찬
만족도
법무부
꺼내
미세화
성명서
핀란드
##꼼
최우수
##캣
가로막
프레젠테이션
장충기
김경민
로이터
턱걸이
청사진
##숍
브라운관
월등히
르노삼성
이우현
위약금
키프로스
꼼꼼
이낙연
출퇴근
합종연횡
추가경정예산
굴기
땅
럭
림
앵
##뚝
##팩
이체
사활
##자외선
주민
겉
지스
지내
지휘
##장서
기우
기공
##기구
상국
수설
##정원
아티
아시안
중용
미스
자형
유해
유례
보전
현명
화력
고사
개소
개성
실권
한상
마시
마르
공작
선취
##금가
세인트
종속
##님
일례
##남성
##엄스
강송
원자
발병
발령
기업체
위크
##밑
##진로
신재
환류
각도
각사
성윤모
재선
##아이
애정
##의자
안철수
크로
큰손
무력
무보
무죄
도체
도덕
피셔
피에스
피의자
프렌
적절히
적임자
진통
진실
변함
초안
##프리카
기준일
판매점
김운
##버리
양재
양질
직관
뉴질
앞장서
산업자원
카타르
힘쓰
체하
컷
광산
청탁
월급
축구
협력체
텔레비전
##깝
버지
버금가
한국전력공사
롯데마트
월렛
명장
캐널
전장용
##메달
스탠드
갈리
누계
티스
막상
첫선
음봉
극자외선
용어
터미널
희생
거듭나
폴더
병열
상속분
페스타
응하
몰입
스왑
고정비
출장길
비상사태
빈자리
커뮤니티
뷰티
스피드
알파벳
공화국
워크숍
박영수
정통부
멤버십
정규직
쪼그라들
상고심
곤두박
윌리엄스
하이트진로
클로징
미술관
##겨나
펠로시
전성기
재배치
인내심
하노이
떨어뜨리
지준율
레딧
스테인리스
철광석
기공식
뉴질랜드
산업자원부
퀘
##ᆸ션
##따
##뛰
##펑
##탱
##ᆺ이
이니
사단
사령
싫
시인
##ᅮᆨ스
주름
지각
지탱
전락
전영
가닥
상계
##지호
##지엄
##지스터
하계
하버
대인
대륙
부모
조찬
천지
천문학
아틱
연사
연쇄
밍
코모
콜로
유족
제지
고품
고안
고순
국당
한파
한류
한나라
인자
인선
인버스
##제약
우면
최영
공부
관영
금주
선사
선착
소명
소홀
영란
세간
세법
##니스트
비르
일일
일문일
포터
위력
위임
노바
##고루
##출동
확연히
##후식
##신호
규명
규준
재건
생겨나
애드
결성
##옵션
하이테크
여자
여주
약식
크라운
무인
더들리
피소
##총장
총계
총출동
덴
데시
간사
##바ᄁ
후행
트윈
##틸렌
자산관리
양분
양강
본업
중심축
뉴욕주
치닫
다시금
손가락
승격
전년도
사용자
브레이
충북
렘
범사
##추얼
베가
캐스
민후식
##넬
##네시
알코아
끌어들이
지금껏
##라이스
격성
따돌리
##은이
벌어들이
긴밀히
라이벌
싱글
광고비
두산건설
번번
노무현
평택시
김영일
캠프
부산은행
개막식
골고루
젊은이
##스턴스
신동주
스쿨
그래서
지도자
엑스레이
이영희
크리스마스
링크
푸르지오
핑크
춘절
례식
가오펑
옐로칩
베어스턴스
윤영교
을지로
리니지
산시성
김순택
김운호
곤두박질
하버드
한나라당
선착순
일문일답
범삼
끈
탱
##ᆯ목
##메이
##칸
##깨
##자산
##ᆷ살
지멘
##ᅡᆯ래
기세
기밀
##가리
가문
가득
상시
상권
상응
수평
매칭
부호
##사이드
조이
조속
##특
오도
미러
미쓰
분별
유전
유업
유비
유악
코스트
실은
한성
한참
한번
인류
인먼
닮
마냥
최광
최윤
공실
회고
##하이
장동
정재
##맷
세에
비아
빌리
강사
강서
포맷
윌
위촉
신격
환입
##신용
##입력
현대캐피탈
##마킹
성원
##플턴
재기
결실
통틀
역학
안쪽
여객
방북
단회
괄목
무진
무근
돋
물갈
피트
이상철
프랭
운반
적중
적합
진척
초유
리딩
평가손
후유
후강
산적
김한
트러스
감세
양방향
박찬
감추
계획서
참배
정도현
손자
승지
속하
미래형
단기성
교착
협상력
##브라운
축제
태세
국제금융
맞수
맞붙
액션
니지
워킹
헬
권익
권위
민생
토목
##라이언스
넛
페이팔
샵
일반인
동부건설
얼라이언스
존경
돌아보
싱크
유진기업
퇴임
##십자
페드
##클린
방송인
응원
몰려
귀환
익스포
존재감
겸비
겸임
난관
도전장
수행원
게재
녹십자
벤치마킹
흡입력
레이팅
플레시
폴리머
김기식
렌탈
왕세
뮤추얼
##꽃
원활히
프라이빗
스틱스
틱톡
메르켈
엄청
이윤우
타임즈
트랜지스터
피고인
플로리
제프리
제자리걸음
참고인
혼합형
엑소
비자금
##보험공사
윤주화
톰브라운
돌려주
자부심
내비치
들여다보
남아공
김철중
밀어내
원내대표
이은택
무혐
제습기
##문화재단
급기야
찰스
안타깝
심포지엄
꼼꼼히
일일이
탱고
지멘스
신격호
물갈이
국제금융센터
14
24
34
44
54
64
74
84
94
갱
족
##뭄
##ᅮ리
##쇠
이랜드
##이나
시어
시제품
##시타
거실
지평
##장학
기피
기하
전폭
전류
전북
전념
삼성문화재단
##가전
가뭄
##기술
대지
증산
부사
부와
##사리
천장
천명
오차
오퍼
유착
제의
고질
퉁
##계리
실종
국립
한숨
##롭
인디
우본
순유
최정
공군
관할
정연주
내심
선적
영어
모하
어서
어깨
세원
나아지
종근
일대
원리
포식
포테
신저
동물
계상
각기
구가
구직
서해
애틀
결혼
##오스
통로
폭풍
한국신용
한국장학
##보증
판교
역점
안경
방중
크라이스
도심
더디
피자
받치
보이스
운명
데일리
진로
리치
리커
평가익
욜
테라
후지
후생
##학교
김희
##티스
##버설
법규
직권
직책
불신
행렬
건희
본회의
패스트
패배
두언
입출
바이두
카자
램버스
악성
목전
전환점
속단
체육
못지않
준호
충실히
언어
편지
논평
이동해
##청역
남매
독창
견본
닐
근간
드럼
황과
황은
롯데카드
롯데호텔
재무부
프리즘
시스템즈
홍성
홍역
홍순
지지대
134
114
104
124
윤태호
면역
포스코건설
막아내
석상
석학
복리
##징계
항고
##팬
터리
느리
존스
식순
살짝
##커드
방문객
신청서
쓰리
납득
학생
오래가
밀착
공유제
셀피
염려
스위칭
꺼지
##싸움
폼페이
경력직
다각도
에이치
칼럼니스트
드라마
갑작스
백색가전
락앤
쌍용건설
강남구청역
엑손
손꼽히
슬로건
이창목
템플턴
퀵
샌드박스
김수영
이순학
인텔리
물려받
시야각
박원재
인사이더
스톡옵션
헤이그
헝가리
##팩트
선취매
고품질
번번이
조속히
돋보이
후유증
종근당
애틀랜
한국신용평가
한국장학재단
크라이슬러
리커창
락앤락
15
25
35
45
55
65
75
85
95
력
뿌리
섭
쑤
써
앙
##멍
##ᆫ시
##쉐
이트
이오
이태
시멘트
시네마
주머니
##시블
##ᆷ슨
지장
기린
전업
갉
그랑
##깊
##기능
##기에
하청
##긋
##도로
증발
붓
부침
##사표
아미
아태
중계기
중징계
오염
연상
미지
미드
코카
경보
분해
자정
자오
제강
##원서
화공
고체
고율
고법
고금리
코스모
한결
한글
##빌
##용차
반포
우드
우와
마사
마누
최현
최강
금형
정주
정량
정인지
선과
소용
소방
영세
영통
모태
세정
##각규
스마
원사
원본
포크
##분투
배석
##루이스
동북
계승
출사표
굽
굵
##점검
점인
성패
##크푸
재점검
지난번
##아먹
생체
생보
##올
무더
##무식
덧
피크
이브
진심
초당
초음
리드
리우
##ᆯ리스
##ᆫ드라
심혈
판매액
타운
계양
조정기
김도
김남
김봉
로엔
파문
법제
법학
##타이
직영
##딥
박준
박탈
목요일
승용차
부담감
돌연
교훈
##토모
우선시
##ᆯ레스
형평
새너
월래
월평균
편차
특허료
##키스탄
견디
니스
니아
황각규
송도
표기
이달초
지지율
권봉
135
115
105
125
의견서
블룸
삼천
##메드
토크
호재성
타이트
바텀
꼴
구매력
관세율
게이츠
능가
클래
소닉
먼데이
탈바ᄁ
맥킨
대출금
보호막
더블딥
초과분
글씨
글래스
응모
시사점
몰두
프랑크푸
보다폰
상관도
찬반
금감위
사무총장
정의당
퀀트
김동수
휘발
슬링
##흐스탄
초청장
펌웨어
짓누르
##러나오
내리막길
##김없이
##캐롤
플렉시블
장애물
김승현
짐작
벨기에
박성훈
##스톤
환영사
흘러나오
다행히
김대준
김윤서
고의로
데스크톱
김태한
휩쓸
##부르크
분수령
힌지
스미토모
실권주
세인트루이스
전영현
통틀어
모하메드
카자흐스탄
블룸버그
탈바꿈
프랑크푸르트
##캐롤라이나
꿰
련
싹
짝
쾌
켄
툰
##첨단
##메이션
##게이
##턱
##ᅱᆫ
이피
이존
이강
##이저우
시무식
지선
지갑
##스레
기적
기환
기염
전임
가수
가소
가열
가뜩
그립
##리티
상영
수당
수감
수학
##인수
##돋
##도어
조윤
조남성
업적
아비
아성
중후
중외
중추
오태
오현
미일
미즈
##셈
코렌
코앞
경리
경총
분출
분담
상설
거래자
유영민
보스턴
제반
화물
고장
고서
실속
한두
인덕
##르도
우가
우영
순증
마비
최재
최첨단
관비
관례
관절
장거리
정문
정은
낸시
선뜻
바운드
바코드
영등
모더
모기업
어긋
어김없이
나돌
빙
비준
일수
일행
일커
스템
##조정
강진
강타
강정원
포상
발매
발족
윙
노후
##소송
성실
##크셔
디프
급히
재연
서신
평정
평촌
##아부
특례
해태
여섯
단속
단타
무통
도중
호기
피케
에틸렌
총이익
간판
진공
저자
##프로
요타
테인
후진
산학
메인
##티넘
로즈
양면
##코스터
직군
문턱
디스커
##양행
본체
두려
입점
박기
박진
감소분
캄
칠레
감도
램프
향서
플래티넘
브릭스
커리지
형편
충칭
레인
회의장
더욱더
닌
버크셔
재정경제
명일
명실
송수
송심
베어링
윤지호
알레
알고리
잔치
임원진
혼자
수혜자
복안
탄도
탄원서
날리
벤츠
##페리아
솔라
들어맞
##불이행
고가주
병실
쏟아부
탈락
퇴사
룹
룻
망라
해운업
정확도
김용환
태평로
스프링
테이프
자연스레
##몰이
스타일러스
닛산
옥시
김정현
암호
##엘비
그래도
욕심
채무불이행
넥슨
김성주
엑스포
엑스페리아
헌신
크리스탈
윤종규
구자열
롤러코스터
김재열
조용현
아트홀
박현주
회전율
##끄럽
##샵
최성준
탕정
강호문
조수인
유한양행
요동치
박승진
종로구
정준양
종사자
장동현
갱신
대지진
에이치엘비
갑작스럽
애틀랜타
갉아먹
가뜩이나
오태동
관절염
영등포
어긋나
일컫
총이익률
디스커버리
재정경제부
알고리즘
덤
려
령
쥬
##눅스
##ᆯ러스
##첩
##뷔
##에이
##둘리
이대로
이홍
사수
사중
주래
주중
주범
##시장
기쁘
가용
가급
가짜
상주
상세
상처
##지휘
수동
수송
수취
대여
대란
증상
부수
부총
부원장
##상훈
천덕
오인
##주파
연차
연례
##화학
미시
미분
경유
경청
외주
자의
유연
##일비
제스
제분
제과
현선
고만
코스콤
국판
한승희
한올
##러기
만성
인색
##제지
반하
반월
닿
순대
공문
공소
공청
관객
금고
장원
##산품
정적
내후
선스
바통
바디
바까
##모로
영진
모자
얹
세분
세월
##행사
달아
비시
비유
강인
강요
강소
강덕수
미국인
원심
##명령
포코
포항
발달
발렌
##준혁
##분쟁
##려나
밸런
동방
각지
각별
각축
규진
구인
구멍
##서비스
##서웨이
설과
성진
성호
의중
디젤
딜링
서유럽
평형
특산품
해고
염소
방유
방직
약관
과하
무관
무섭
도서
작전
피드
이상원
당하
적시
적금
델리
데뷔
진원
진두
진교
진열
리눅스
은행주의
##바스
테네시
유가족
후배
후이저우
##학규
산분
심판
타키
메세
김양
트라
로그
로고
합격
팝업
법상
양날
직위
프롬
##경원
예정일
##노미
박물
카페
화학제품
손정
승건
##병원
임계
창건
주도력
광원
청신호
장기채
언락
특허분쟁
논현
이유로
남대문
온기
니얼
송파
권장
시간대
트리거
로지텍
접점
##광수
탑재량
베이더
카메라폰
벌리
에스티
작업자
농어
##펠러
클리
와인
와이드
별반
방어진
야외
노동조합
루나
더블유
팩커드
바로잡
끌어내
번영
행정명령
인기몰이
까다
소유자
게시
뉴스룸
이승혁
휘둘리
빼놓
슬립
자연어
김현준
##냉장고
화성시
유니온
프라이스
현행법
한솔제지
하한선
김성환
숙박
##킨스
이영곤
탁사
크리스털
##꾸러기
박정원
아우디
수십억
심상정
신속히
타협안
연료전지
국방부
팽배
이코노미
대항마
편집장
밥캣
코미코
김치냉장고
이진우
사로잡
응급실
연수원
##둥성
랜덤
임차료
이채원
성금요일
크라운제과
프랭클린
엄청나
플로리다
정주영
동북아
초음파
맥킨지
송수신
부총재
천덕꾸러기
미분양
공청회
내후년
바깥
달아오르
밸런스
진두지휘
진교영
타키온
몽
흠
##눈
##넨
##삭
##ᅭ핑
##흔
##껑
이타
이콘
이맥스
##이디
사그
사냥
시아
시큐
주사
거꾸
##ᆷ쇼핑
기원
기후
전산
전매
전투
그렉
하야
하운드
수다
수의
수임
대검
부금
아키
오진
##주자
연면
미스틱
외장
자서
자립
유재
유어
유심
유류
유난히
보정
보존
보르도
제네
고환
개관
##드배
실생활
인니
인과
인턴
닦
다자
마쓰
최도
최단
공과
##하나
금창
##치락
장하
정산
정오
바운
소현
소노
영빈
어필
어찌
어드배
셍
세바스
예기
비약
비축
비례
비지오
##동량
원공
노스
신인
신평
배달
배열
##영기
동등
현대호
각광
설전
성수
성남
##라리
##라듀
급진
재질
재추
재탈
재팬
서경
앳
애프
해관
##성진
판로
판관
역배
약발
단서
과소
무장
도태
물동량
##터스
당신
총서
적성
데포
관련자
변모
변형
##프레
##두보
제품력
요리
후판
집값
타계
조정위
김연
트랜드
##티넨
플란
##템스
건과
본국
##디드
중심지
보유자
카본
칠
감행
손괴
##병렬
컨텐츠
되돌
미래산업
관심거리
교부
교직
교란
교두보
하나하나
브러
절전
절약
담배
광산업
팔라듀
인사이트
월초
출발점
신용거래
액도
그린스
근속
황영기
대우전
시스템스
곳간
표방
베네
권력
철강업
하향세
블라
침묵
알짜
책임감
혼선
석권
타이드
꼬박
페이퍼
항체
항성
흥분
곁
용지
주문자
날인
침체기
견인력
컴프레
그림자
청구서
탈세
학업
냉동
히로
칼라
엘이디
방송사
바로미터
몰이
몰락
뚜껑
번가
친족
법률안
셀카
곽병렬
시험대
김영환
넥센
뺏
서명식
옥수수
오버행
다가가
이중고
칭찬
혹시
혹평
아픔
몸집
장악력
록펠러
플라자
교통부
판가름
##춘수
김지혜
트랜스
스텝
장부가
조용히
스캔
야심작
이창희
김석동
습관
사우스캐롤라이나
퀸
동아제약
첸나이
평창동
스케일링
신상품
놀이
주차장
컨버전스
##연구원
우면동
포터블
코스트코
마누라
무더기
덧붙
가솔린
오현석
미즈호
발렌베리
피드백
사그라지
거꾸로
자서전
바운스
소노마
영빈관
현대홈쇼핑
재탈환
서경배
애프터
##티넨탈
플란트
팔라듐
그린스펀
컴프레서
깔
쇠
##촨
##게이션
##릉
##뒤
##깐
##빠
##뼈
##빨리
이의
사각
사나
시발
주채
거취
기산
기편
기축
전가
전압
삼성병원
##기간
상금
하여
수집
##도국
천재
아바
오로
오명
오디
연연
미비
코디
경량
외치
왼쪽
화합
화살
고마
고군
개진
개도국
실과
한남
한동안
인명
##르랭
우발
순화
맘
공대
공영
장시간
정품
선단
선불
소시
소신
영결
모서리
어울
옌
나날
나바로
##닌
##행위
비로
일희
일변
##차별
포문
포춘
발원
발돋
윗
##고기
확약
신분
배후
##영호
##우트
##우재
현대엠
각설
출금
구단
성만
의의
재임
서진
서머
생전
##ᆯ레이
영업부
##닷
##성가
역차별
안리
안승
여사
크리
단골
과실
무급
무단
무형
##무역
작아지
##폴
진동
진성
진료
저변
협동
##바닥
산요
판매망
##복지부
김은
틈새
수요일
직속
직함
문장
불러
필드
앞면
행량
건재
센트
대표단
세계무역
바이저
치메이
감각
목격
구조조정
줄다리
낙점
측간
휴맥스
승세
임하
임베
임우재
열쇠
브ᄅ
형상
레시
레티
광역
광둥성
이재윤
축사
태풍
연방수사
둔산
맞불
이동훈
남자
대응력
드로
드디어
드림
송상훈
헤징
발행주
민경원
삼각
##멜로
토리
톰슨
잠깐
탑스
탑승
접하
면허
규제책
익과
잔뼈
눈독
티어
막내
첫발
웃음
복업
투신사
극장
메리어
항의
퍼플
동양그룹
필립
케이엠
여러모로
클라이언
별세
품절
할애
병세
루미
엘지
망원
가속도
소매업
잠재우
좌석
좌절
찬장
난도
난제
예금보험공사
부여받
김용철
방지책
국무원
##필벌
붙이
왕따
주재원
신주인수
캐리어
풍력
보건복지부
반기문
자수성가
텍스트
웅진케미칼
정규장
델타
노르웨이
아우라
기부금
골프장
궤적
주지사
핑계
템포
던스
팽창
샌드버그
낙하산
내비게이션
신상필벌
남아프리카
직업병
구심점
탄탄히
미수금
정진행
펠르랭
한상범
마시멜로
하버드대
홍순표
##쉘
휘발유
서신동
강인엽
로그인
박물관
베이더우
오진원
최도석
세바스찬
시발점
한남동
일희일비
발돋움
현대엠코
구조조정본부
줄다리기
임베디드
연방수사국
클라이언트
신주인수권
늑
럼
뭄
뼈
썩
툴
폄
##네이
##멀
##뱅
##긍
##탱크
##뿐
이면
이형
이티
이천
이언
이엘
사조
시드
시비
주어지
주봉
##시대
지산
지성
지경
지혜
기분
기물
전도
전신
전술
전광
가변
그날
##기기
##리스트
상점
##지영
하우
하례
수그
대당
부통령
##상스
##사히
조리
아가
아동
오창
연비
미정
코프
분량
자영
유위
유아
보충
제인
화자
화석
화색
곱
고고
고한
고작
고갈
개표
국지
국유
국과
##문점
##로템
인스
##젯
우군
마운
마녀
최동
최후
최양
장손
정반
차근
차환
선봉
##금고
바지
영남
영풍
모리
세포
나레
종종
종과
##니즘
비거
비씨
일산
일명
일진
춤
##나타
강재
말미
말채
위하
노골
##힘
##고속
##출자
환기
##렷이
배점
올려
동사
동관
동유럽
계량
현대로템
규칙
출제
출동
구실
구독
##서트
##서울
금융채
점증
연구자
딜레
서방
서준혁
##만수
애로
애착
앱스
##록호
특가
##다이
한국쉘
##보내
판문점
크래
단절
단거리
단번에
무이자
도세
작가
##석유
물밑
홉
호의
호세이
에비
이상헌
발표자
운사
운행
당면
총상
데니스
##벌리
저리
리사
리비아
##바키아
요가
심려
판매자
##복절
타일
메스
메달
메커
조정장
김일
김지수
김록호
##건영
주요인
트럭
경영난
파키스탄
양봉
양육
래스
처우
앞날
전기료
본원
자금난
넘나
##파크
둥
입시
##노트
박태
치이
치부
##말로
악수
악사
악용
향배
##연가스
정부서울
되사
되레
되게
들ᄊ
##륜
함구
함영
뒤흔
##런티
레퍼런스
광복절
새내
언젠
편향
북아
키스
액화
자릿
독설
황제
명명
관리비
베스터
홍릉
삼우
토끼
현물출자
면하
면모
면면
알제
알티
셈법
따내
석화
음질
복병
타이거
차이점
콘서트
용역
터닝
특별상
감염자
얼즈
식사
식음
스탑
##탄소
머지않
케빈
##컴퓨
내려지
납세
탈취
냉장
루이
힙
혜주
즉답
색감
페소
민주주의
가시성
뚜렷이
파이어
파이프
친분
근거리
##588
##585
##589
##584
##583
##581
##586
##580
##582
##587
##538
##535
##539
##534
##533
##531
##536
##530
##532
##537
##518
##515
##519
##514
##513
##511
##516
##510
##512
##517
##568
##565
##569
##564
##563
##561
##566
##560
##562
##567
##508
##505
##509
##504
##503
##501
##506
##500
##502
##507
##528
##525
##529
##524
##523
##521
##526
##520
##522
##527
##578
##575
##579
##574
##573
##571
##576
##570
##572
##577
##488
##485
##489
##484
##483
##481
##486
##480
##482
##487
##498
##495
##499
##494
##493
##491
##496
##490
##492
##497
##438
##435
##439
##434
##433
##431
##436
##430
##432
##437
##468
##465
##469
##464
##463
##461
##466
##460
##462
##467
##428
##425
##429
##424
##423
##421
##426
##420
##422
##427
##478
##475
##479
##474
##473
##471
##476
##470
##472
##477
##598
##595
##599
##594
##593
##591
##596
##590
##592
##597
과도기
집단지
해운대
##베이스
##888
##885
##889
##884
##883
##881
##886
##880
##882
##887
##998
##995
##999
##994
##993
##991
##996
##990
##992
##997
##638
##635
##639
##634
##633
##631
##636
##630
##632
##637
##618
##615
##619
##614
##613
##611
##616
##610
##612
##617
##608
##605
##609
##604
##603
##601
##606
##600
##602
##607
##628
##625
##629
##624
##623
##621
##626
##620
##622
##627
##678
##675
##679
##674
##673
##671
##676
##670
##672
##677
##샘
언론사
외화채
##838
##835
##839
##834
##833
##831
##836
##830
##832
##837
##818
##815
##819
##814
##813
##811
##816
##810
##812
##817
##808
##805
##809
##804
##803
##801
##806
##800
##802
##807
##828
##825
##829
##824
##823
##821
##826
##820
##822
##827
##878
##875
##879
##874
##873
##871
##876
##870
##872
##877
##938
##935
##939
##934
##933
##931
##936
##930
##932
##937
##918
##915
##919
##914
##913
##911
##916
##910
##912
##917
##908
##905
##909
##904
##903
##901
##906
##900
##902
##907
##928
##925
##929
##924
##923
##921
##926
##920
##922
##927
##978
##975
##979
##974
##973
##971
##976
##970
##972
##977
숨통
염가
엠파이어
##738
##735
##739
##734
##733
##731
##736
##730
##732
##737
##718
##715
##719
##714
##713
##711
##716
##710
##712
##717
##708
##705
##709
##704
##703
##701
##706
##700
##702
##707
##728
##725
##729
##724
##723
##721
##726
##720
##722
##727
흡사
언제나
##668
##665
##669
##664
##666
##555
##554
##445
##444
구본능
##898
##895
##894
##896
##868
##865
##869
##864
##778
##775
##779
##774
##776
##777
찬성표
기념행사
아웃도어
국무부
보증금
##545
##968
##965
##969
##964
후속작
##985
##984
##768
##765
##769
##764
투기성
이수창
스카우트
셸
창립자
이종걸
휴가철
최치준
강원도
위아래
박성욱
걷히
스코어
호암재단
스파크
이준용
고속철
조현준
슬로바키아
마을금고
김준기
분배금
현정은
초미세
국경절
블로그인
킴벌리
르네상스
집적도
커넥트
비행기
트로닉
아티스트
유례없
프렌즈
양재동
브레이커
오도넬
운반선
구직자
쑤저우
그랑데
삼천리
클래식
인덕션
제스처
농어촌
연면적
마쓰시타
장하성
어드밴스
재추진
브러더스
애프터서비스
영결식
어울리
비로소
일변도
세계무역기구
늑장
뭄바이
고한승
최양희
정반대
나렌드라
비거주자
비씨카드
딜레마
한국쉘석유
호세이니
메커니즘
정부서울청사
뒤흔들
언젠가
##컴퓨터
넉
랙
빨래
쭉
##즐
##딸
##팽
##헤
##탕
##삐
이도
이마
이공
이호
이철
이웃
##이도
##자부
##자실
시마
시키
시니어
시효
주형
지체
지제
지형
##스코
기녀
전권
##전선
금성
그달
그야
그늘
금상
##기념
상가
##짚
##지르
하반
하워드
수로
수록
수거
매트리
##대식
대개
억누르
부천
##상부
##사관
조익
조석
천천
중환
중책
오라
오스트
연립
연평
미소
코데
코너
코팅
분자
자폭
자살
유권
제현
제때
고루
투스
투데이
실익
실차
한증
한샘
##러가
##러스트
인격
반입
반열
##르단
다크
다임
마라
마디
마침
마티스
최중
공상
공법
공룡
관악
장보
냄새
차손
선풍
바텍
소띠
영광
모의
모스크
몸살
얽
나이트
종시
종일
달래
비화
일고
일색
일봉
##동락
원로
원부
원점
원판
확전
신부
신발
##물살
환급
밴
배성진
##소기
##소득
##루기
동학
동률
##우주
때로
각인
##간힘
출판
구애
설주
설령
점화
성화
성비
딕스
디오
급물살
재주
서피스
앨
##ᆯ론
통장
한국개발
역발
안개
안간힘
여도
여태
약주
단초
단추
과천
더페이스
운구
초순
저작
기술자
릭
리라
요원
요르단
후문
산자부
심경
##태웅
성장기
타입
김명
김우
경기장
##건히
##버티
로우
로컬
경쟁국
양반
처하
처방
채비
##현준
##테일
회복기
완패
입자
입질
##노선
박문
박학규
바이트
아니면
카이
칩스
감기
##천연가스
참조
힘겨
손색
##병두
임의
라원
돌출
되짚
교대
교황
열광
브이
브라이트
커피
절벽
##븐
##카이치
레코드
상대국
어려우
##청소기
온실
근방
근창
황성
대웅
워터
송재
벨류
발행일
권규
사회주의
환경부
합의서
블로
토너
자본력
프리미어
부정행위
백억
티머니
티슈
혼다
디지탈
##베리아
가슴
가스전
꼬리
항복
러시
날로
얼리
식기
동력인
뜯
공모전
후보지
텍사스주
게임기
최저가
라이온
폐장
희소
병상
쓰촨
냉정
##408
##405
##409
##404
##403
##401
##406
##400
##402
##407
히든
물류비
마지노선
##418
##415
##419
##414
##413
##411
##416
##410
##412
##417
페스티
전면전
빅뱅
뛰어오르
항공우주
친지
가중치
보상제
트랩
트래킹
사망설
##윤경
큐리
최적화
강남역
빈폴
아마도
##338
##335
##339
##334
##333
##331
##336
##330
##332
##337
##118
##115
##119
##114
##113
##111
##116
##110
##112
##117
##008
##005
##009
##004
##003
##001
##006
##000
##002
##007
##228
##225
##229
##224
##223
##221
##226
##220
##222
##227
독립기념
레이더
신중호
단체장
고르기
실행력
틀리
##318
##315
##319
##314
##313
##316
##310
##312
##317
##308
##305
##309
##304
##303
##301
##306
##302
##307
##328
##325
##329
##324
##323
##321
##326
##320
##327
봉착
김정훈
##108
##105
##109
##104
##103
##101
##106
##102
##107
##128
##125
##129
##124
##123
##121
##126
##120
##127
##누리
굳건히
인민군
##028
##025
##029
##024
##023
##021
##026
##020
##027
그래프
유니버설
편의점
스틴
##138
##135
##139
##134
##136
##137
##208
##205
##209
##204
##203
##201
##206
##207
은폐
서정진
이인희
이론가
##368
##365
##369
##364
##378
##375
##379
##374
##168
##165
##169
##164
##178
##175
##179
##174
취약점
임대료
쟁탈
이윤학
굴리
증명서
수신기
합계액
룩셈
이석희
안보리
스콧
이기태
스케줄
신정부
이현주
동아시아
콜라보
야구단
샘플
##쓸이
인테리어
퓨처
거짓말
소공동
쫓아가
맞대응
올인원
흔히
앵커
개소식
변함없
여객기
왕세제
앙게
김봉영
싹쓸이
##게임
진공청소기
명실상부
평형기
김양재
하여금
고군분투
나날이
협동조합
레시피
루미아
마운틴
올려놓
홉킨스
양육권
들썩
액화천연가스
알제리
이도훈
그야말로
천천히
중환자실
오라클
오스트리아
코덱
마라톤
모스크바
한국개발연구원
더페이스샵
힘겨루기
페스티벌
독립기념일
룩셈부르크
꽈
돼
뮌
벤트
쌀
옹
##냐
##ᆸ터
##ᆸ지스
##궤
##겹
##게이트
##랭크
##ᆺ트
##끈
##ᆮ날
이송
이웅
사료
사카
시련
시뮤
시베리아
주일
주위
주선
주라
주창
##시티
거기
거침
##스르
기폭
전관
전향
전철
가인
가의
그냥
상습
하영
수유
수일
수납
매가
매끄럽
대일
댄스
댈러스
##래드
부디
##정부
조목
조대식
아드
아레
아너
중산
오직
오범
미터
##세서
경비
경희
경착륙
분과
외유
자우
유정
유라
유령
##일렉
제사
제보
제값
화이자
개수
실추
한눈
##러서
만전
인트
인출
인생
##젤레스
반증
반덤
최원
최진
공구
공황
공론
공짜
회자
##하트
금과
금년
##산화
정금
정병
정배
정길
차우
선친
소르
소독
어주
어차
셀ᄅ
달째
비주
비선
비방
비철
일사
일로
##동원
##구니
##어놓
##조목
강당
원이
원상
원양
원색
발부
발단
발발
발길
노멀
신제
신학
신창
신제품
신춘
배웅
동인
동해
계측
##마차
출생
출혈
성인
성문
성취
성실히
##라노
디엔
재청
재심사
예상외
서도
서강
##데시
앰
애도
##ᆯ레이션
결재
결백
영업력
통폐
특단
핸
해안
한국거래소
##합증권
판다
안기
안성
안양
방미
약국
무어
도코
##석원
물러서
에드
에번
총비
적기
이변
진주
##두마차
기술인
릴
리카
립스
##바라
요지
요율
후반기
후광
##통신
심기
심층
집착
판매처
오른쪽
##호스
##호영
##방식
트란
##티지
##결합증권
롬
수요자
양문
양경식
문항
불복
불꽃
뉴저
필연
앞지르
본액
본궤
패치
패트릭
입건
박동
박막
보유량
흔드
바이든
계열화
치주
계획안
참치
아이필
낙인
손바닥
손병두
승장
승률
컨셉
라임
상장법인
되밀리
들려
뒤이
주목도
##교통
브론
준하
##ᆯ렉
##러스터
담화
충청
광폭
##얀
청원
새한
월트
편식
태그
키노트
이동근
이동한
남편
현금화
근래
드래곤
워너
명심
명함
송출
송년
베드
프린트
발행자
권하
블럭
침대
침몰
##웨이항공
중요도
##라이드
티웨이항공
이용해
이용료
##느리
꼬이
극찬
항만
콘솔
베이너
퍼즐
꾸리
아모텍
용기
러플
데이터베이스
나노미터
식료
홈런
최종호
와치
컴백
##푸스
희성
조달청
범어
범유럽
납기
광고주
설정원
학기
퇴근
퇴색
루터
요청서
확장세
혜윤
색채
모듈러
페루
다이노스
이해도
프로젝터
번복
밀려나
최신원
겸하
너무나
리더스
##트로닉스
초대형
좌파
정유성
##앱지스
권오준
난이도
파생결합증권
균일
지방대
녹화
녹음
치료법
깊숙
##윤석
김용범
김영주
올림푸스
와이어
빼내
잉곳
펜스
표현명
초고주파
멀티플
굳어지
동원그룹
가늠자
대중교통
입주민
##몬드
스틱
일렉트론
이수앱지스
출연금
은산
은닉
풍선
풍계리
청소년
이인호
택시
년하
##어붙이
로버츠
시청자
다지기
엄태웅
칸타
임대기
궁금
대립각
굴욕
굴뚝
대행사
콤팩트
살림
구자경
드리우
감정싸움
프레이저
가리키
박종석
랜드마크
의외로
후임자
일간지
널뛰
프레스센터
지대섭
총력전
흘러가
이원화
편광판
얀부
튠
놀랍
박병원
똑같이
종업원
신도림
물려주
딱히
거물급
오성진
빼앗기
윤석헌
낭비
커넥터
멘토링
크롬
소홀히
재건축
한성대
윌버
몰려들
익스포저
후지쓰
써니
이튿날
스마일
##타이어
가급적
상세히
하얏트
신인도
공영운
자영업
최동환
에비타
지제역
조익재
연평도
다크호스
최중경
딕슨
역발상
온실가스
블로거
쟁탈전
앙겔라
뮌헨
옹호
시뮬레이션
기폭제
조목조목
##일렉트로닉스
반덤핑
정길원
어차피
셀룰
신창재
재청구
서강대
통폐합
도코모
에번스
뉴저지
본궤도
깊숙이
딴
멍
욱
쳐
츄
콰
팡
##살리
##땅
##쾌
##깡
##쪼
##쯔
이지
이율
이규
이희
사가
사설
##자스
시납
시공사
시게이트
주치
주소
주안
지회
지름
지와
지칭
기주
기내
기만
기습
기꺼
전강
##전트
##전직
가사
가미
가방
가즈
가만히
가뿐
긋
그쪽
##릴
##리프
##리칸
상현
상저
상봉
##지노
##지리아
하늘
수식
수표
수합
수험
매스
대니
대별
부회
부영
부에
조감
조형
아빠
오세
오비
연체
연납
미화
미처
##세종
코아
콜린
경부
외연
외압
자라
유언
유념
유닛
보가
##일드
젬
현오
현성
고삐
개회사
##드라
실상
실개
국전
한기
한동
한방
한옥
한승훈
##종일
반향
반년
반쪽
우여
우뚝
마틴
최주
공용
금방
금메달
장수
장직
장본
정태
정승
내연
차리
차라리
선주
선입
선처
바젤
소회
##모토
영전
영리
모면
어피
어감
어비스
어링
어카운트
세액
세아
세리프
나기
빔
일인
일률
추위
##궁
##구름
스턴
강봉
강만수
원조
포탈
폴리오
기업가
위배
신사
신체
신성
신현준
##소스
##소통
동건
##맛
사업체
##단체
점프
성희
의향
디와이
##년층
급전직
재량
서관
서환
평준
평년
##아하
##데스
##델리
애벌
영업망
통업
통감
통째
폭주
폭로
폭염
##닿
##다르
해서웨이
##볼라
안면
안혁
여수
여종
여념
방영민
크림
단시간
과일
과언
무라
덮
작심
물대
물꼬
호스
호혜
호찌
피지
피너
에칭
에릭
에볼라
이상일
수익금
운신
당혹
간탄
##포드
##포먼
진위
변국
초입
초남
저유
리오
리파
리턴
리쿠
릴레이
리소스
은행법
##바람
테헤
유가상승
훙
후약
##학생
산액
산술
집진
판매고
김민
로쓰
경쟁심
합법
파스
파동
파란
래시
처인
문호
생산직
불문
뉴델리
##거름
행시
행가
건국
건너
건자재
본래
두바이
입김
박주
박선
박한
박희
보육
카리
카피
치환
##말리
참의원
아이템
낙수
휴리스
속성
임영
컨티넨탈
라면
라오스
상장주
정부세종
체포
체온
돌변
창원
좋아하
결정력
안정감
국민주
브랜
바이오산업
압수
숍
연방은행
검진
남영
독특
가까스로
견도
온전히
니혼
버그
공장장
베리
캡스
##퍼트
고용자
삼강
##네스
윤여
토마스
갈림
유로스
너지
##베트
푸네
항공업
##창호
퍼블
퍼포먼
밑거름
쉽사리
허점
따라오
게이밍
터무
금속업
재고량
후반부
##협회
식형
음식점
클러스터
공동체
기획부
품귀
군산
야마
의사소통
라이언스
할증
골드선
징용
스페코
세탁물
기초자산
노동절
이노션
집행부
##텐도
뒷걸음
학술
오늘날
블랙리스트
루피
커버드
##십리
고민거리
공사채
조건부
번인
망치
한계점
밀집
밀라노
밀어붙이
친형
앤디
행정소송
우수수
근무자
숨지
블루스
증거조사
듀폰
띄우
김영란
클라리
교환기
빈도
먹구름
만든
명예퇴직
슬기
슬라이드
레이아웃
##곡절
표현력
김현태
김현철
퇴직자
##싸이
쿠오
파워콤
수원시
아웃사이드
신경망
주변기기
##뉴스
훈장
헤드라인
왕십리
영화관
셔터
쇄도
파나마
한솔케미칼
대법관
부서장
뇌물죄
엑시트
##을거리
이수형
이수화학
나이지리아
박영선
셰어
록하트
임대차
이윤태
적립금
아메리칸
구자학
스텝업
스코리아
이준희
전세원
캔자스
슬롯
마그나
흘러들
직장인
상담역
언더우드
파괴력
죽이
다니엘
고령화
신도시
전인대
탐방
묵시
역삼동
밀어주
지명자
휩싸이
척도
마이크로프로
리모트
흔적
림프
변함없이
이니셜
사령탑
콜롬
최윤호
시어터
인디펜
리치먼
홍성국
최현만
정은승
캄보
레인콤
닌텐도
무관세
진원지
창건일
수임료
블라디
히로시
칼라일
쇠퇴
아바코
크리에이
막내딸
수그러들
화석화
기념사
조석래
다임러
박문서
꽉
돼지
아레나
새한미디어
송년회
주안점
기꺼이
가뿐히
현오석
우여곡절
장본인
성희롱
급전직하
호찌민
피너티
테헤란
건너뛰
휴리스틱
정부세종청사
갈림길
퍼포먼스
마이크로프로세서
녀
럽
빵
죄
젼
첨
쿤
칼리
헐
헨
##ᆸ쓰
##베이트
##둔
##카르
##ᆺ속
##ᆽ히
##쭉
이식
이만
이아
이터
이케
이광
이찬
이산화
##이즈
##이어트
사직
사죄
시먼
검수
지극
##스킹
기시
기로
기고
전차
전언
전남
##가치
가습
가죽
긁
그저
금색
##리코
상자
상인
수액
수억
수색
매그
댓
대등
대담
대승
##요금
억지로
부나
조망
조인트
조경
조흥
아토
아랑
중증
오주
##주형
연성
미르
미아
미끄
미얀
코포
경정
외자
외상
자자
자만
자생
자꾸
유경
보행
보리스
제트
현주
고생
고충
개점
투증
##계열
실증
##비안
만만
만연
인치
인허
인멸
##피언
우하
다리
다름
다카
순식
관성
금기
장지
장래
장르
장식
장에
정동
정영
차주
차선
선의
선경
##부즈
##매티
바벨
바쁘
소사
영흥
세후
낡
나비
종자
종편
종교
종군
비업
비니
비추
비츠
일주
일양
추론
##나스
##차근
##어리
스로
스컴
강동
강면
포용
포워드
발인
발상
발레
발걸음
노벨
신원
신민
신디
신념
신텍
##분자
환상
뱀
배기
배타
올웨이
동진
동료
##우마
##과학
때마
구설
구름
점령
연구비
성도
성동
성역
##감증
##라드
##라운드
##플란
##년단
급선
급랭
재취
서동
서구
서린
평등
생리
생일
생성
영업용
통용
통행
해피
##성설
하임
역행
여실히
방탄소
단비
과금
무드
도파
##무기
물결
##터카
피플
피살
프란
프랭크
운항
당진
당근
##발성
총국
델라
간호
간단히
진용
진의
진일보
변성
초호
초창
초빙
저런
저소득
릿
리전
리베이트
##바다
##바구니
기준치
요일
산책
심주
심문
심플
심폐
##태수
##태현
##태스킹
집회
타의
멜
멜론
김원
김해
김천
트러스트
플뢰
합숙
파우
감속
양화
문단
챔
불행
불씨
불이행
불감증
뉴엘
##양아
넘버
##파즈
최고액
완저우
입양아
박건영
카플란
감하
악몽
##저축
아이돌
일본인
낙제
연합군
힘겹
서울보증
손영
딜라이트
부담금
임춘수
컨트리
랍
람
라지
라이드
체면
체코
되살리
창설
들리
단기채
메모리얼
뒤쪼
인상기
##토퍼
열위
##교환
플래트
브루
브라이언
압승
사상자
매각익
충고
제일은행
청두
월세
북경
숀
쇼트
맞닿
맞교환
텔레매티
키코
이동걸
핵무기
위기관리
그리드
남중
남다르
계약금
니티
드래
전화기
채권자
버드
의료기
롯데월
씻
송부
표류
베스
홍익
트릭
캐스트
##돌이
토건
토파즈
잠복
##광제
누나
##철호
잔량
티비
하루빨리
첫걸음
데이브
복사
웨스틴
꽂
항암
베이직
베이커
탄압
흑백
허락
반대표
용스
러스
동양자산
벤더
수입액
##니없
늪
농가
농촌
군림
라이센스
머크
머스크
싱이
싱에
뜻깊
병가
내려놓
광고판
구속력
맥도
##충일
지나가
찍히
예약자
다이아
착안
이해욱
응찰
귀결
번역
듯이
망설
목재업
친권
팬택계열
보답
웨이트
초대장
브라우
셀프
난징
사무직
쌍두마차
무림
슈퍼볼
떠올리
김영기
출범식
이승재
이승철
스윙
스위치
먹을거리
휘말리
이경자
운송장
치우치
젠더
주춤거리
당선자
쿠쿠
담보부
공백기
멀티태스킹
김정환
암로
박용현
최선호
공산당
렌디
렌터카
거치대
자주포
유니버스
##꼬박
유력시
테일러
1400
1402
부활절
##쿼터스
몸값
은상
지도부
이주호
나이키
셰일
이인원
프린스턴
택하
##척기
헌팅
로스앤
1410
1412
김지원
##쿠버
폭등세
꼭지
심상찮
제철소
김재권
김재홍
조용병
옴부즈
물리학
배임죄
캔터
쉐퍼드
김주용
스트리트
고등학교
복원력
턱없이
턱밑
갈아타
퍼스텍
사법부
니콜라스
돌려놓
디아이
박병대
신도리코
용산구
뚝심
구로다
전염병
과기부
김광현
무르익
무릅쓰
줄기차
자전거
컨테이너선
신조어
원자력
프렌치
최영무
캐슬
유비쿼터스
익스포져
인텔리전트
미지급
굽타
꿰차
아비코
박기석
이홍균
유연근
장원기
송파구
까닭
꼬박꼬박
넥센타이어
덧붙이
순화동
##닷컴
브뤼
광역시
폄하
차근차근
일곱
밴쿠버
안갯속
들썩이
하영구
유라시아
신제윤
브론즈
식료품
궁금증
셀룰러
콰이어트
대니얼
조형물
현성철
건국대
터무니없
뒷걸음질
쿠오모
캔자스시티
인디펜던스
리치먼드
캄보디아
돼지고기
이케아
지극히
아랑곳
미얀마
만만찮
순식간
강면욱
올웨이즈
때마침
재취업
서린동
방탄소년단
초창기
플뢰르
##저축은행
서울보증보험
뒤쫓
텔레매틱스
롯데월드
동양자산운용
로스앤젤레스
옴부즈맨
궈
눌리
란
뭐
삐
쎄
콴
##ᆯ람
##ᆸ시
##ᅧ락
##쥐
##젼
##ᅯ들이
##툰
##둬들이
##퀴
##ᆺ돈
##ᅱ즈
##ᇁ치락
##빨래
이분
이보
이레
이라이
이념
이디스
이태원
##ᅡᆼ수
##이크
사치
사표
시온
주성
주임
##시일
##시험
##시네마
거느리
거둬들이
지로
지소
지디
##스토리
기전
기도
기력
기보
기성
기탁
전대
전해
전조
전속
전보
##전속
##전환
가대
가우
가파
가토
그라운드
##리랑
##지대
하부
하마
하역
하저
수만
수오
수긍
##수소
매치
##업자
##대일
##대제
대피
대산
대적
대투
대훈
부패
부흥
##사카
조장
조의
업사이드
천향
아부
아크
아스트
아워
오산
오키
연예
미라
미온
##세포
코랄
경인
경주
경차
분노
자취
자카르
유대
유포
유학
유심히
보루
볼트
제국
현충일
고물
개위
코스타
실외
국도
한덕수
만수
만선
인신
인맥
인디아
인트론
##종석
##용지
반갑
##른
우산
우방
다나
순응
마일
마중
마저
마우스
최문
공휴
관재
회가
##하루
금도
##치부
##치슨
장자
장년층
정인
정석
##식당
내기
내각
내보내
선배
소물
소급
소설
소생
영구
모시
모비스
##내믹
##내식당
어우
어불
엎치락
세관
세서
세코
세컨
달인
비지
비침
비엘
비젼
일화
일침
추대
추계
##남수
##나칩
##차일드
##차이즈
##어로
스킨
스퍼트
강성
포이
포그
포격
포즈
발하
발명
위증
노인
노치
노고
확연
신진
환구
##선물
배리어
올랑
동급
동통
계류
##중히
주가지수
출품
구부
구내식당
##당히
성열
##난방
딕
디에프
디테일
재수
재물
재테크
재보험
서광
서베이
서윤석
평점
평방
평온
결선
결집
통산
통안
통찰
폭력
##다비
한국어
전자동
전자책
전자레
하이라이트
여진
방전
방사
방치
##직히
단자
단시일
과표
무실
무너
도미
도우
도저히
물의
물음
설명서
호출
##공조
##공서
##공항
엘렉
이상현
프런티
운임
당위
당첨
총영
##등기
간극
진도
진상
진대제
초가
초도
초등
갤런
리트
리어드
##바니
요주
요직
후정
산운
심천
전문점
타코
메자
##홈
조정안
김무
김남수
플릿
##범수
로레
로야
롤스
로젠
파전
파국
파인
양지
양일
양종
양행
양쯔
##코더
직시
문가
문동
문관
문형
채의
불매
불붙
불라드
필동
##여행
##현식
프로스트
팰리스
넘치
넘쳐
최고조
완승
입수
박시
박광
카트
카니
카트리
카지노
치하
감히
악의
참담
아이다
아이디
아이파크
연합뉴스
공급원
힘없이
해외여행
손석원
승수
승패
속절
속전속
임홍
임동락
효용
##연시
라마스
일부러
일부분
보험계리
교사
사용법
이사로
열연
절정
절실히
형모
모바일게임
레미
레알
광부
완화책
청화
장기전
언니
대상물
엔유
변동성
태웅
국제공항
검은
온양
니콘
황유
버퍼
롯데시네마
워드
명지
상태기
표상
표주
표적
벡스
벨트
홍성호
헤르
발행가
권태
인터텍
##찰청
캣
캐로
민법
민족
삼가
삼진
##순위
윤상
윤활
침입
토니
토닉
접어드
스태프
재료비
알아보
연말연시
백업
유로파
##워하
누락
격도
격언
격추
격전지
땀
##링크
하루하루
석좌
음주
가스공사
##북도
손실액
타이탄
이용권
꽃
##은영
항생
##창훈
어느새
샷
에스더
허물
허덕
허치슨
따라붙
환시장
농성
식욕
솔직히
에너지부
왈
아울렛
별명
별관
품종
컴즈
폐막
폴라
금지법
싱클레
읍
징수
징벌
촉비
조성준
케네스
덕양
앤드루
노동력
기본요금
학원
학부
학벌
보호주의
##혁진
할인점
페타
페트로
입찰가
다이내믹
팩스
착오
돈독
귀속
귀추
대한전선
번갈
파이퍼
전용배
항공법
최신형
태양절
설계사
##트롤
멀린
지출액
난색
균열
염동
스테이
스팀
융통
이승엽
캠코더
울상
휠
휘어지
와이맥스
만족감
메이시스
아마존닷컴
옥스
옥상
봉합
봉투
김정태
상호저축은행
김상헌
스퀴즈
드라이버
웹툰
브렐
칭하
입주자
곤욕
곤혹
제작사
마음껏
대법정
빚어지
이슬람
기울기
넥스텔
이인종
공학부
숙성
숙련
잦아지
엄격히
대행업
씽크
묶음
조문객
실수요자
시연회
대유행
감정가
한양대
박성현
박성순
박종선
드레서
스케어
계단식
섣부르
활황세
상상력
습득
팽팽
견고히
한미은행
린다
허리띠
얀센
김대중
튜브
서기관
들여오
프랜차이즈
한라건설
한라공조
묵묵
무릎
도맡
김홍식
줄기세포
##랄드
자구책
과반수
오스코
쿨링
예수금
겨울철
애니메이션
##연구소
희생자
사령관
위임장
덴마크
싱크탱크
엑소더스
##보증기금
체육관
이태경
김도진
박준현
토큰
련주
상영관
조윤남
알렉스
덤핑
각축전
성진경
테네시주
트라우마
게시판
시큐리티
대검찰청
안승권
센트럴
웃음꽃
납세자
금성사
황성우
쓰촨성
이웅렬
부딪히
널뛰기
쳐다보
조감도
경부고속
한기평
선입견
애벌빨래
무라타
파란색
크리에이티브
이아람
이찬우
매그나칩
댓글
코폴라
다름없
일주일
챔피언
손영권
베이커리
다이아몬드
브뤼셀
아부다비
아워홈
자카르타
공휴일
어우러지
어불성설
세컨드
올랑드
주가지수선물
성열우
서광주
전자레인지
무너뜨리
프런티어
로얄
넘쳐나
카트리나
속전속결
임홍빈
보험계리사
검은색
허덕이
싱클레어
팽팽히
찌
펑
헤이스
##네이트
##겨보
##ᆫ색
##ᆷ채
##되
##퀄
##케이트
##ᆺ츠
##ᆺ거리
##끔
##쌍수
이남
이덕
이퀄
사파
시시
심성
주수
주유
주원
주입
주공
주립
##시민
거울
거머
지우
지존
지노
지렛
기상
기현
기립
기투
기틀
전구
전당
전반기
전초
전열
삼성캐피탈
##갖
##가젯
##전시
가르
가령
가게
가혹
그렌
##기사
##리우드
상치
하폭
하은
수트
수락
수련
수교
##수길
##그림
매사
매트
매세
대종
대명
대망
대접
등주
억만
부적
부심
##정식
##유고
##유경
##유키
좇
조시
천연
아쿠
중부
오락
오사카
연승
미안
미션
##세미
##세션
##세척기
코일
경시
경위
경선
분모
분발
자타
자민
자초
자질
자폐
유이
유공
유찰
유시민
제하
젤리
##원회
화세
화각
화신
활로
화천
화탁
화승
고하
고과
고양
고말
고승희
고기능
개동
개개
개헌
투게
##계함
한산
한누리
##러그
##러미
만년
만호
인제
##종합
##종욱
반색
반값
반종욱
##르기
우체
우진
우버
다방
맏
마산
마린
마곡
최시
최용
최하
최준
최길
관제
관념
관공서
회상
##하면
##재상
##재해
금천
장모
정가
정우
정운
정답
내자
내전
선후
선보
선례
##부패
##매이
바삼
소기
소양
소나타
영과
모나
모형
모처
모독
어지
어째
세습
세배
세빗
나우
나무
종신
##각각
일리
일향
일몰
추도
##동생
##나주
##나무
##어음
스도
스폰
스텐
강수
강북
원통
원청
포비
포조
발자
기업어음
##망라
노심
노희
##히코
##미트
##진호
신망
##반석
##신항
##루즈
동래
동삭
계구
계망
##급수
현대인
현대미
각하
##마다
출재
출마
출액
구시대
구재상
설파
점장
점주
점식
##증현
성물
성황
##라기
의석
의학
디톡
디엠
딤채
재열
섞
서화
서남
서흥
평탄
##아드
##아서
##아버지
생동
중국어
결격
대비책
특장
특위
특강
특색
##외환
폭격
##다니
해리
해프
핸들
한국과학
##보네이트
##보유고
하이드
하이파이
판시
판세
여하
여동생
방출
방영
방정식
기대주
단부
단호
단단히
단발성
뭉
무화
무거
무작
무사히
도피
도난
##무진
물체
호수
호프
호악
##공명
##공단
총제
총합
총회장
총동원
총망라
덱
간리
##폴리스
진에
진퇴
변혁
초이
초자
초중
초계함
저서
저감
리요
리보
리니어
리버설
리세션
##밭
후회
산세
산소
산호
심도
심박
심비안
##태평
집합
##복남
타드
타타
탐사
메일
펀딩
##방울
김익
김쌍수
김반석
트루
##티즌
플러그
로어
로빈
합심
파행
파미
파슨
양형
##타오
##타운
래미
직구
문직
채찍
챕터
생산비
생산품
불명
불출
불허
불쾌
필적
##여겨보
앞뒤
##텝
##테르
건도
본상
패자
패권
##레오
완구
입문
입각
##초사
박인
박빙
박유경
중심점
필요시
카탈
치유
감동
감액
감탄
전환기
휴업
손님
손복남
속락
임업
임태
임팩트
외환보유고
컨틴
라자
라가
라즈
라온
라세미
소비세
돌비
활짝
보험계약
##강철
창신
제조자
함철호
뒤따르
교원
##토류
팀워크
브리지
커팅
절호
절충
##카보네이트
렐
회의론
풀가동
광판
##야마
언스트
언와
엔가젯
북측
태동
태생
국제기구
##팅스
맞소송
신용카드
남유럽
온갖
황도
웍
워즈
송인
송영
송경
송광수
홍종
헤라
권사
권영
권혁
인터랙
사회관
사회봉
##더슨
카드뮤
캐치
캐쉬
잡아가
민자
위안거리
블릿
블레이드
블라스
##네트
##넥스
윤혁진
윤증현
침범
토스
토피아
알테
익실
스탠퍼드
부정부패
백스터
백광제
잔상
잔뜩
격전
눈여겨보
티모
티엠
##링거
막아서
음력
음극
음압
중앙일보
복분자
주간지
이용한
웬
웨스트
푸틴
조선호텔
구성훈
콘스
콘트
콘트롤
갖가지
베이비
퍼부
육아
밑단
밑그림
허드
허영
긴박
용처
용퇴
##손님
질주
러드
러우지
동양강철
특별법
##휴가
기자단
시즌스
흥국생명
콜버그
회계감사
농담
판결문
##페어
##펙스
여럿
##옌
##예우
클램
클릭
법원장
방문자
검찰청
군대
컴플라이
컴캐
라이언
폐암
##푸르
희종
희토류
할아버지
중개사
사고방식
전지원
병합
켓
덕택
계기판
배경태
노동법
맥북
학사
루트
히데
히라이
히어로
##프라데시
엘리어트
##짐없이
##클럽
응어리
##컨센터
답보
빠짐없이
앤지
특수강
횡단
찬사
교육부
고정우
##애폴리스
권오철
정지선
필수품
곡률
장주식
그렇지만
엠티
듀오
듀레이션
희망자
김영대
김영태
김동영
부산신항
전경훈
통계학
자연재해
미니애폴리스
덜하
##케이드
부실기업
깨닫
스타일러
폴리카보네이트
시그네
멀티스크린
암페어
왜냐
르펜
다변화
붙잡
그랜트
왕복
상공인
뮤지
펌프
퀄리티
객관
지킴
회견장
강연자
멕시코만
비서관
류주형
벽산
벽두
아무것
개척자
코오롱건설
김형식
최상목
옵틱
은성
풍경
에이서
에이블
임상시험
헌재
크리스토퍼
텔러스
임대업
용인시
궁지
웅진그룹
무기력
교통카드
다운링크
운전석
로스차일드
박정준
한신정
정용택
과대평가
스테레오
조합원
수십조
선수금
##틴토
이석우
모델링
강경파
동맹국
조용준
옴니
위법성
링컨센터
수백만
전세가
프레스티지
스캐너
봇물
적잖이
조양래
유의미
추경호
액세스
파고들
사명감
정세균
##같이
펠로우
김수현
박병엽
최성제
몬트
낙찰자
입금액
홍완훈
##나잇
김진영
배우자
척결
무혐의
김선우
묘사
경제학자
인사이동
코리안
정제유
서민석
진흥기업
휘청거리
위로금
김신배
버지니아
주름잡
브레이크
##하이머
박찬구
왕세자
시어스
기하급수
##기술원
입출금
력사
아미노
아미카
미드나잇
소용돌이
굽히
응모자
쾌유
최재식
후진타오
두려움
모자라
까다롭
시큐어
다자간
최단기간
과소평가
뺏기
##뒤치락
사각형
사각지대
고맙
단골손님
불러오
드롬
조리개
말미암
넘나드
둥지
새내기
식음료
냉장실
파이프라인
투스텝
얽매이
원판결
앨빈
송재훈
식기세척기
뜯어
콜라보레이션
거침없
전관예우
경희대
정금용
서도원
크롬북
최주선
정승재
리오틴토
박한용
카피캣
윤여철
야마지
헐값
미끄러지
다카시
비닐
신디케이트
뱀띠
델라웨어
콴타
이분법
하마평
엎치락뒤치락
도미노
총영사관
메자닌
윤상직
옥스퍼드
대행업체
헤이스팅스
거머쥐
지렛대
하은용
개개인
투게더
스폰서
노심초사
노희찬
디톡스
해프닝
한국과학기술원
단호히
진에어
##태평양
파슨스
컨틴전시
카드뮴
복분자주
러우지웨이
컴플라이언스
컴캐스트
겁
벼
빨
샹
툭
푹
파르
##ᆯ희
##ᆸ손
##떨
##랴
##퐁
##헐
##훼손
##퀸
##ᆺ고
##ᆺ카이치
##쎄
##ᆰ기
##ᆩ이
##ᆻ다
이구
임세
이솔
삽
사사
사만
사폭
사티
사연
사기업
##자네이
시국
시크
시름
시애
시종일
주전
주진
##시터
##시네트
거스르
##ᆷ승
##ᆷ섬
지그
지치
지아
지면
지바
지투
지창훈
##장자
기권
기강
기색
기승
전상
전유
전입
##가와
갓
가요
가온
가림
가다드
금세
##국해
##리조
상륙
##지사
##지스트
##지공단
하태
하커
하림
함수
수대
수산
수영
수료
수호
수협
수없이
수첩
##그레
##그린
매해
##도르
##대체
##대영
댄
대도
대문
대동
대영
대규
대생
대축
대교
등시
붉
부리
부유
부하
##상가상
##정지
##정훈
##사이
조국
조인
조광
아재
아나
아람
아리아
아큐
아사히
오아
오타
오작
오리지
오펜
##주환
##주성
연정
##화수소
미간
미셰
##세츠
##셀러
코인
코닥
경각
경축
경륜
분재
분법
유래
유조
유미
유능
유성
유휴
보트
보일
보금
보석
볼리
보람
보스틱
##일평
##일으키
제언
제법
제갈
##원가
현업
화부
화보
고대
고태
고참
고성장
고꾸
투트
투영
투쟁
##드레
실전
실베
한스
한우
한온
한주성
##럿
만유
만반
##로리
##로퀸
인바
인스트
인더
인트라
##제너
반나
반려
반군
외국산
##필드
##릇
##르드
우성
우편
우즈
우열
우분투
##회원
다트
다량
다년
순기능
마로
마나
마루
마의
마니아
마땅
최병
공생
공평
관용
회도
##재민
금정
장병
장지수
정계
정조
정크
정연
정교
정다이
정호영
내셔
내쉬
내륙
차차
차석
차티
선로
선결
소원
##모으
영문
영예
영덕
영웅
모도
모피
모다
모레
세가
세르
세입
세팅
세칙
세척
세븐
예대
예우
예심
남산
##위복
##니카
달려
비위
비타
일어
일면
일터
추상
##동수
##구단
##낮
##차지
##엎
강관
강영
강공
원종
원회
원성
원투
포도
발버
위자
위장
윈드
노래
노우드
##미르
##진수
신선
신박
신촌
환태평양
배재
동선
동성
동메달
##우석
##우깡
계리
계룡
##급히
##과세
##간이
##마드
##마뉘
출소
구르
##서니
설상가상
##안석
성시
성기
성우
성의
성별
성큼
기관차
디베
딤섬
##년자
급가
잰
재검
재수사
재조사
서산
서보
서병
서열
서핑
서머스
평일
생필
##데자네이
애리조
##록시
결여
결별
##한판
영업권
특근
해저
해커
해답
한국외환
하이난
판명
판례
역광
역효과
안부
안규
안드라
여권
방심
방편
약자
크루즈
단국
과신
무주
도용
도급
도사리
도대체
##무실
더치
현재현
홀드
피리
피사
피난
피카
##공격
엡손
에마뉘
이상화
프록시
운주
당증
당당히
총격
총량
적법
간발
간절히
간헐
간간이
##포터
초회
초심
초의
초이스
저주
저물
저온
저마다
##프타
리지
리만
리아
리노
리엄
릿지
리버스
리버티
##레이크
##바탕
매출원가
요망
요처
요카이치
욧카이치
후자
후쿠
산본
산맥
배당기
집어넣
판매사
판매비
##복지공단
타자
타인
타나
타제품
메트로
##결제
로렌
팝
파도
양가
양부
양조
##탐
##타인
##타리오
래커
##코어
직계
직물
문디
챈
채굴
불평
불어나
앞길
##거티브
행도
행단
프로덕
수출보험공사
##파스
##레지스트
위원단
세계인
##디언
최고위
완치
완결
완납
완연히
박일평
대형가
카시
카나
치과
악조건
정책금융
아이스
아이비
아이언
아이볼
시작점
휴무
휴먼
손길
임주환
컨셉트
라우
라파
라와
라틴
##채널
체가
되려
들인
결정체
뒤셀
뒤쳐지
교도
교과
##희진
##토스
하남
커스
커패
컴스
광동
이재환
이재찬
가칭
새우깡
철거
월중
언뜻
지급금
엔고
취직
쇼메
쇼룸
논문
키즈
킬러
이동면
핵산
핵탄
다소간
비교적
남동
남양
독국
독차지
네티즌
네거티브
##키오
견이
온수
온타리오
드레스
드제너
이색
전화위복
대우일렉트로닉스
워즈니
명복
명백
##추격
##추세츠
송원
송성
표창
벨로
베풀
베리어
프리뷰
프리젠테이션
홍미
홍석현
헤서웨이
찾아내
##절기
##더링
이건혁
블레이크
삼익
삼보
##멜
##웨이트
토의
토털
토요타
갈피
알미늄
##퉁
익히
익만
익추
백스
백재
##워스
누수
격돌
격앙
티타
티저
티에스
하루히코
시각차
##착오
석촌
음량
쉼
##북구
타이완
이용우
웩
##머리
극동
극한
메릴
테크원
일정액
베이트
벌처
허인
허버티
허동수
다우지
다우기술
시행착오
털어놓
터주
기자재
기자실
대체재
##집력
농축
식각
식별
식견
솔선
보수당
##불안석
공동구
발전상
와해
왓츠
아랫
정치인
정칠희
별제
품명
게임하이
군단
설립자
야근
라이신
##승연
##승철
선택지
출자자
재판매
플레이스
신청자
케리
범한판
집행정지
팬덤
뒷심
학우
학무
루블
정기영
싸우
상용차
칼로리
공사비
##클리
선도자
응집력
몰래
끌어모으
빅텍
뛰어드
그만두
항공모
밀턴
최신호
친정
둘레
자유도
앤서니
횡포
상관율
연설문
좌초
좌불안석
정유라
정유경
윈저
권오규
권오갑
난망
사무국
사무관
슈퍼컴퓨터
예금자
김영익
김영성
이승훈
다수당
사과나무
윤부현
전후방
먹히
휘도
휘닉스
명예훼손
슬하
적정선
골치
부가가치
근로복지공단
추종석
김현중
주의깊
구본주
틀림
쿠웨이트
옥중
옥외
옥죄
김정한
기지개
김상호
랩톱
이중과세
스피로
트레이닝
거칠
뮬러
쿼터
두드리
제이엠
스티커
마음대로
류진
벽면
마크롱
결의안
이수영
시계열
권리락
캐릭터
은정
은퇴
은메달
풍요
풍토
에이브리
박영석
셰릴
울트라북
산하이
택지
프로모터
아산시
박상훈
굴삭
김승유
가로수길
쪼개
구자우
징역형
오피스텔
수소탄
벨벳
김종호
피로도
신장세
걷잡
랜드리
아트멜
무한대
복지부
맹추격
고속도
운동장
링깃
박재홍
타협점
김경훈
벌금형
최장기간
쉘
뒤집히
재경위
손잡고
흘리
스트링거
김준호
클로로퀸
춘추
습도
이세훈
적격성
비관론자
박중섭
전성훈
전성시대
연락처
볼보
볼커
김중원
경연장
고소득
놀라움
들여놓
이순진
펄프
탐욕
득세
득표
틈바구니
포토레지스트
김태현
광교산
가오루
조수석
후베이성
김광연
옷감
경남은행
카르텔
리모컨
윤석금
낭독
정준섭
김창범
애니콜
미스리
안철수연구소
퀘스트
퀘스터
고순동
최윤희
몰려드
최정우
최정욱
결혼식
리우데자네이
조윤호
아비바
빙그레
박진수
알레르기
이홍구
무관용
합격자
전투기
아킬레스
칠판
되돌아보
냉동실
고마움
선불카드
틈새시장
불러일으키
토리노
탑승자
이형석
시드니
전도사
김일영
넘나들
함영주
함영준
루이지
매트리스
매트릭스
라이온즈
희소식
정병철
들려오
지름길
수식어
당혹감
콜롬보
블라디미르
히로시마
첨부
강동구
배기가스
구설수
생리대
간호사
저소득층
남중국해
드래그
망설이
브라우저
쎄미
인신공격
우방국
다나카
마일리지
구부리
초가량
초등학생
김무성
아이다호
벡스코
캐롯
윤활유
돈독히
이덕훈
주유소
매사추세츠
대명사
젤리빈
다방면
맏형
선후배
원통형
발자국
무작정
산호세
심박수
송경근
홍종학
인터랙티브
허드슨
뮤지컬
객관적으로
신디케이트론
##떨어지
임세령
시애틀
시종일관
전유물
가다듬
##도르프
아큐시네트
오아시스
오작동
오리지널
오펜하이머
미셸
경각심
유조선
보금자리
고태봉
고꾸라지
인트라넷
반나절
마땅히
정조준
차석용
발벗고
신박제
디벨로
재검토
생필품
한국외환은행
안규리
안드라프라데시
피카소
에마뉘엘
로렌스
뒤셀도르프
커패시터
컴스코어
핵탄두
드제너러스
워즈니악
명백히
범한판토스
부가가치세
에이브릴
굴삭기
리우데자네이루
께
꽁
뢰
랑
뻐
쩡
퐁
##농
##ᆯ츠
##벅
##걱
##잔
##ᆷ버
##뜬
##펴락
##훼
##둑
##ᆺ날
##쁨
##쩌
##짱
##ᆮ히
##ᆻ다가
이시
이리
이문
이혜
이훈
이헌
이촌
이지스
##있
##ᅥᆼ이
사리
사위
사견
사립
##자동
##자회사
시신
시노
시럽
시허
시찰
심수
주종
주하
주부
거인
거금
거수기
거뜬
지드
지르
지재
지부
지모
지티
지엔
##슬
##스피
##스마
기제
기니
기선
기다
기운
기형
길리
기즈
기득
기싸움
기쁨
삼성제약
##가물
##가온
##전체
가근
가설
가울
갇히
##기계
##기홍
상트
상부
상급
상되
##지가
##지기
##지간
##지름
하산
수스
수모
수서
수법
수월
수완
수림
##숭
##그램
매튜
##인스
##도비
##도생
##대우
대원
대위
대련
대포
대실
대양
대경
대강
등가물
증식
억장
부업
부광
부단히
부윤경
##상시
##상사
##상통
##정석
##정현
##유균
##유전체
##사냥
조상
조약
조류
조롱
조지아
조연주
업력
천호
아만
중위
중량
중률
##트니
오재
오텍
오영호
연신
연환
연습
연배
미상
미성
미네
미등기
##세기
##세라
##세데스
코사
코크
코타
코레
코너스
경이
경범
경첩
##락펴락
외비
외산
외발
외견
외은
자가
자인
자조
자성
자통
자필
유석
유투
유광
보라
##일대
제대
제당
제왕
제윤경
제각각
현철
화곡
고향
고난
고밀
고사장
고추
고육
고온
고섬
개사
개회
개의
개런티
투약
투병
##체온
##계좌
실기
실습
국익
국향
국을
한태
한지영
##러뜨리
##비브
만국
만화
만점
##로하
##로더
인전
인화
인체
인종
인척
인문학
반경
반세기
우측
우연히
우남성
##회계
##회담
다녀
순도
순금
순연
순창
순풍
순이자
맛
마히
마더
마커
최창
최은영
공히
공직
공무
회신
##재그
금하
금식
금번
##치소
##치민
##치스코
장도
장상
장재
장미
장과
장난
장설
장평
정수
정화
정합
정직
정온
정홍
내인
내포
내디
내야
내홍
내줄
##햄
차상
차사
차문
차종
차후
차터
선상
선순위
##부인
바흐
소정
소동
소프
소임
소견
소란
##모스
영재
영속
영감
영토
모금
모조
모노
몰레
모리스
어마
어머니
어쩌
어도비
세난
세이드
셀러
세빌
예사
예규
낯
나선
나열
종도
종효
비견
비게
빌드
##각형
일전
일기
일지
일목
일격
일신
일파
일레
일말
일손
일삼
일맥
추인
추어
추동력
추스르
##동자
##구르
##나기
##력기금
스노
스택
스텔
강용
강윤
강유전체
원서
원작
원순
원샤
포메이션
발코
발현
발머
발끈
기업사냥
말리
##준영
##준우
위성호
위구르
놈
노대
노어
노크
노티
노영민
##미스
##출산
신관
신천
신병
신유균
##반트
배신
##영준
##소자
올스타
동전
동상
동고
동탑
때리
각분
##마르
##마모토
규범
규탄
출산
구루
구희진
구치소
구마모토
##섞이
설리
설도
설훈
금융인
점자
점대
점찍
연구실
성신
성탄
의정부
##난이
디플레
급거
재능
서대일
평생
평상시
##만파
##아쇠
##아비브
생색
애국
##ᆯ럼
통인
통근
특권
특명
특파
특산물
해치
한국상
한국투
한국통신
##합리
##보레
스마트카드
역세
역공
안병
안재민
옅
엮
여닫
방화
방면
방카
방아쇠
##운지
##운서
##운규
약체
크노
단락
단암
과민
무색
무척
돕스
##무라
덫
더샵
작정
물타
물적분할
물탱크
물방울
호반
호칭
호치민
피부
피데스
에르
에메
이상대
수익자
발표문
당금
##발인
총의
적체
적분
데일
데모
간파
##포니카
진급
##벌이
변전
변종
초석
초월
저승
저체온
저출산
##프리
기술진
리미
리마
리버
리언
리퍼
리메
리쇼
##쟁이
##레이터
##밖
##바움
##바꾸
기준선
요하
요란
텝
텡
테트라
후불
산국
산고
집결
집무실
오른
##호원
김훈
김충
김범수
경영지
##티안
##티티
##실베이
로체
로바
로저
로테이션
합섬
합자회사
파가
법대
양창호
랠
직수
직사
직제
직설
직임
처장
문량
문현식
채팅
생산력
불사
불어
불확
불완
불빛
##거움
행과
프로토
건네
센세이
본의
수출품
두정
두어
##렘
##디포
완비
입어
입히
박자
박형
박옥
박대영
보유고
카스
참모
##저래
화학계
##물산기업
아이러
아이오
아이덴
구조물
줄지
낙마
프로그래
휴사
휴직
휴양
휴스턴
힘차
향년
손질
승시
승산
승강
##병용
속내
임정석
##론을
라몬
라쿠
라벤
라운지
체로
돌돌
지원국
지원서
결정지
결정서
결정짓
뒤엎
뒤로하
뒤섞이
교량
##토시
안정기
안정판
못추
못난이
플래너
브래
준원
준칙
사상누
절연
절대로
절치부
형량
형광
담회
담론
레오
레반트
회의감
회의실
풀무원
풀려나
광통
이재승
청담
청결
새끼
##헛
언쟁
대상그룹
엔트리
취항
편애
태산
태영
상대편
둔감
검출
검역
텔레포니카
키친
키스톤
##블랜드
이동식
액체
확인서
##남도
남경
남광
독성
네바다
##키니
온통
황보
황태
황득
황성호
버먼
연금법
대우종합
워렌
명가
명문
송탄
유동주
베끼
프리스
홍춘
헤리티
권주
트리트
찾아오
잡화
민병
민항
네이블
블링
블라인
삼화
삼영
##순봉
윤재
윤태
윤순봉
침투
토어
자본주의
담당관
포스코센터
익기
익성
백수
백조
백두
백기사
백운규
에버그린
##워싱턴
누비
##철도
눈총
틸
티브로
공시지가
달성도
쏘울
쏘나타
너머
##베키스탄
음료
복도
복무
푸젠
차이킨
잘사
극우
대외경제
콘티넨탈
콘래드
흥아
##엘라
##틀랜드
꿇
육상
탄신
탄성
탄약
허수
허니
허우
허들
허태수
##검다리
떨치
안전망
용차
용설
동양물산기업
충격파
가입비
생활비
감염병
케이드
케이디
##협력기금
느닷
농구
장단점
존스톤
식성
##펙트
##페테르
홈디포
부족분
시리우스
##엔진
##엔에스
홍콩항
요구불
조셉
클락
살균
부동산업
와전
왔다가
##컷
군부
라이팅
##탄역
흰색
할리우드
폴디
폴슨
중개인
금지령
먼스터
청구취
뜻밖
징검다리
스펙트
이제야
##ᆷ스레
병동
쓰레
원가법
범호
앤드류
탈착
기본법
맥없이
학자
학장
냉기
루스
취득세
칼날
엘케이
두산엔진
페트
페덱스
다이버
다이어트
슈와
슈미트
슈로더
착실히
피해액
대한국
번바움
답습
트레버
항공편
친밀
결산기
자유자재
납품가
완성품
연봉제
선언문
모닉
과학자
찬주
브라보
근무지
까먹
언론인
언론계
난치
난무
소유주
트래커
게리
게을
쌍봉
저항력
비전동
스톤
검사기
테마파크
샌포드
녹실
##혀들
유기물
정몽윤
김영식
김영섭
이승한
부재중
빈슨
괴담
스위트
먹이
먹혀들
슬래
슬프
유사시
##잡이
잉글
이경묵
출근길
량도
펜실베이
##곡히
부실화
김현수
메이드
메이크
메이디
끊기
김유미
옥션
이래저래
음악회
폴리에
몰아넣
부지런
공포심
거부감
픽쳐
김정남
암운
스위스프
보증서
독점력
공공사업
예비치
공산품
긴급회의
스핀
렌더링
왕립
왕좌
유니콤
갑론을
객향
프라이드
견해차
제이션
카운티
추궁
도쿠
메르세데스
류체
형제지간
컬처
몸통
김형래
은둔
에이지
에이펙스
워크맨
나이츠
김성근
김성훈
김성봉
곡선형
택배
여행객
양도세
트윗
세종대로
엄지
엄중
엄밀히
이민석
이민혁
텔아비브
플라스마
수용성
박정우
박정욱
착공식
뮤직홀
뽐
묶이
콤파스
인천시
##쿠스
이선종
구자원
구자홍
밸브
락스
락세
락서
상고장
여름철
피고발인
드릴
대역폭
김종훈
창의력
한껏
각자도생
심상필
옮아가
중화학
옛날
건축사
박종우
박종환
스코틀랜드
혈장
혈액
즈음
쥐락펴락
이정훈
고속도로
전세기
소모품
박재순
조현문
즐겁
즐거움
쉐보레
연료유
연료비
대치동
김석기
소위원회
김준섭
한중일
엿보이
남성우
성영목
습기
체크아웃
편집인
이원선
이현석
착용감
##알라
##알데
실용주의
정말로
움츠
튜너
이학영
합성어
룡
장학금
누그러들
누그러뜨리
강호갑
공연장
핫라인
조지워싱턴
##나이더
모방자
삼양사
김광수
오성엽
국책은행
옐로우
맞대결
##이치로
중장비
박원순
마이크로일렉트로닉스
그레이트
오스람
정진동
김창근
치명타
봉사상
입체감
유례없이
마르코
무보수
축구장
이니텍
최영휘
덴버
자산관리계좌
캐스팅
곤두박질치
##메이드
최광혁
정재영
김한조
권위자
피자헛
김희용
력도
섭외
한결같이
소방관
김도한
법제처
삼천당
클래리
짝짓
짝퉁
두렵
두려워하
수동소자
모자이크
포항제철
도서관
논현동
클리블랜드
외장형
제네바
베네스트
오로지
오디세이
윗선
김은혜
이형희
사조산업
전광우
전광판
김일성
북아일랜드
이마니
마침내
얽히
디오텍
여태껏
김우준
꼬리표
라이온스
물류비용
사카이
신학기
신학철
핸디
해안포
와이어리스
오세준
유언장
강봉구
박선호
남영우
림프절
헨리
종잣돈
급선무
서동탄역
프란치스코
초호황
삐걱
연예인
실외기
마중물
비지니스
포이즌
속절없이
묵묵히
경부고속도로
억만장자
조심스레
아쿠아
우체국
최길선
정운찬
해리포터
무거동
초읽기
로빈스
불쾌감
라자드
교원그룹
절충안
알테라
티모시
베이비부
왜냐하면
뜯어보
지그재그
가림막
하태경
아나운서
경축사
제갈공명
우즈베키스탄
다년간
마나우스
최병석
차티스트
달려가
구르가온
서보익
피사체
피난처
저물가
라파엘
교과서
삼보컴퓨터
항공모함
골칫거리
틀림없
루이지애
랑화
뻗
시험소
심수옥
거뜬히
지엔코
상트페테르
아만도
코크란
외견상
유석렬
한태구
다녀오
마힌드라
장평순
내딛
모조리
일파만파
일맥상통
원샷
발코니
노틸러스
신천지
특파원
한국투신
물타기
에메랄드
불확실
불완전
센세이션
박옥희
아이덴티티
라쿠텐
라벤더
사상누각
절치부심
네바다주
황득규
대우종합기계
홍춘욱
헤리티지
블라인드
티브로드
대외경제협력기금
느닷없이
왔다갔다
청구취지
스펙트럼
게을리
펜실베이니아
픽쳐스
갑론을박
상트페테르부르크
